{
  "vocab_size": 16000,
  "token2id": {
    "<PAD>": 0,
    "<UNK>": 1,
    "<BOS>": 2,
    "<EOS>": 3,
    "<SEP>": 4,
    "<MASK>": 5,
    "'": 6,
    "/": 7,
    "<": 8,
    ">": 9,
    "a": 10,
    "b": 11,
    "c": 12,
    "d": 13,
    "e": 14,
    "f": 15,
    "g": 16,
    "h": 17,
    "i": 18,
    "j": 19,
    "k": 20,
    "l": 21,
    "m": 22,
    "n": 23,
    "o": 24,
    "p": 25,
    "q": 26,
    "r": 27,
    "s": 28,
    "t": 29,
    "u": 30,
    "v": 31,
    "w": 32,
    "x": 33,
    "y": 34,
    "z": 35,
    "</": 36,
    "</w": 37,
    "</w>": 38,
    "e</w>": 39,
    "t</w>": 40,
    "s</w>": 41,
    "th": 42,
    "d</w>": 43,
    "y</w>": 44,
    "in": 45,
    "er": 46,
    "an": 47,
    "the</w>": 48,
    "o</w>": 49,
    "on": 50,
    "or": 51,
    "ou": 52,
    "en": 53,
    "and</w>": 54,
    "re": 55,
    "al": 56,
    "g</w>": 57,
    "ed</w>": 58,
    "er</w>": 59,
    "is</w>": 60,
    "ar": 61,
    "ing</w>": 62,
    "to</w>": 63,
    "ha": 64,
    "ic": 65,
    "l</w>": 66,
    "f</w>": 67,
    "st": 68,
    "it</w>": 69,
    "ly</w>": 70,
    "wa": 71,
    "at</w>": 72,
    "or</w>": 73,
    "it": 74,
    "es</w>": 75,
    "om": 76,
    "in</w>": 77,
    "ve</w>": 78,
    "oo": 79,
    "on</w>": 80,
    "ac": 81,
    "us": 82,
    "h</w>": 83,
    "at": 84,
    "el": 85,
    "of</w>": 86,
    "the": 87,
    "k</w>": 88,
    "wi": 89,
    "for</w>": 90,
    "was</w>": 91,
    "my</w>": 92,
    "this</w>": 93,
    "bu": 94,
    "as": 95,
    "th</w>": 96,
    "r</w>": 97,
    "le</w>": 98,
    "en</w>": 99,
    "be": 100,
    "ri": 101,
    "you": 102,
    "no": 103,
    "li": 104,
    "ti": 105,
    "ere</w>": 106,
    "p</w>": 107,
    "ro": 108,
    "m</w>": 109,
    "ver": 110,
    "lo": 111,
    "an</w>": 112,
    "wh": 113,
    "es": 114,
    "di": 115,
    "that</w>": 116,
    "but</w>": 117,
    "with</w>": 118,
    "me</w>": 119,
    "so</w>": 120,
    "ood</w>": 121,
    "pl": 122,
    "ab": 123,
    "ur": 124,
    "ch": 125,
    "w</w>": 126,
    "ec": 127,
    "ma": 128,
    "ke</w>": 129,
    "you</w>": 130,
    "are</w>": 131,
    "gh": 132,
    "ice</w>": 133,
    "not</w>": 134,
    "have</w>": 135,
    "sh": 136,
    "gre": 137,
    "et</w>": 138,
    "they</w>": 139,
    "ex": 140,
    "'t</w>": 141,
    "a</w>": 142,
    "com": 143,
    "ld</w>": 144,
    "uc": 145,
    "le": 146,
    "out</w>": 147,
    "se</w>": 148,
    "si": 149,
    "un": 150,
    "st</w>": 151,
    "as</w>": 152,
    "ally</w>": 153,
    "al</w>": 154,
    "ent</w>": 155,
    "very</w>": 156,
    "all</w>": 157,
    "ll</w>": 158,
    "ir</w>": 159,
    "ee": 160,
    "we</w>": 161,
    "one</w>": 162,
    "tt": 163,
    "pp": 164,
    "to": 165,
    "'s</w>": 166,
    "great</w>": 167,
    "ts</w>": 168,
    "ev": 169,
    "sa": 170,
    "ta": 171,
    "be</w>": 172,
    "sp": 173,
    "co": 174,
    "had</w>": 175,
    "ho": 176,
    "good</w>": 177,
    "pro": 178,
    "ace</w>": 179,
    "ght</w>": 180,
    "mo": 181,
    "do": 182,
    "ca": 183,
    "use</w>": 184,
    "ar</w>": 185,
    "ra": 186,
    "ould</w>": 187,
    "like</w>": 188,
    "wor": 189,
    "qu": 190,
    "ser": 191,
    "de</w>": 192,
    "ust</w>": 193,
    "om</w>": 194,
    "were</w>": 195,
    "ore</w>": 196,
    "ther</w>": 197,
    "ir": 198,
    "ter</w>": 199,
    "som": 200,
    "ag": 201,
    "ce</w>": 202,
    "se": 203,
    "ks</w>": 204,
    "ff": 205,
    "per": 206,
    "vi": 207,
    "fin": 208,
    "da": 209,
    "fr": 210,
    "ely</w>": 211,
    "tr": 212,
    "n</w>": 213,
    "ati": 214,
    "if</w>": 215,
    "i'": 216,
    "bo": 217,
    "ell</w>": 218,
    "ad": 219,
    "just</w>": 220,
    "n't</w>": 221,
    "sta": 222,
    "po": 223,
    "il": 224,
    "food</w>": 225,
    "go": 226,
    "place</w>": 227,
    "su": 228,
    "fu": 229,
    "de": 230,
    "hair</w>": 231,
    "thing</w>": 232,
    "ers</w>": 233,
    "sk": 234,
    "end": 235,
    "ne": 236,
    "up</w>": 237,
    "our</w>": 238,
    "get</w>": 239,
    "so": 240,
    "la": 241,
    "there</w>": 242,
    "oun": 243,
    "pre": 244,
    "con": 245,
    "sm": 246,
    "fri": 247,
    "ked</w>": 248,
    "ich</w>": 249,
    "serv": 250,
    "gh</w>": 251,
    "loo": 252,
    "ff</w>": 253,
    "sh</w>": 254,
    "pr": 255,
    "me": 256,
    "really</w>": 257,
    "when</w>": 258,
    "time</w>": 259,
    "ad</w>": 260,
    "king</w>": 261,
    "able</w>": 262,
    "ack</w>": 263,
    "your</w>": 264,
    "ant</w>": 265,
    "would</w>": 266,
    "men": 267,
    "sc": 268,
    "nice</w>": 269,
    "and": 270,
    "ic</w>": 271,
    "it's</w>": 272,
    "will</w>": 273,
    "ted</w>": 274,
    "ever</w>": 275,
    "from</w>": 276,
    "ord": 277,
    "duc": 278,
    "br": 279,
    "here</w>": 280,
    "other</w>": 281,
    "fe": 282,
    "skin</w>": 283,
    "dr": 284,
    "am</w>": 285,
    "eas": 286,
    "op": 287,
    "we": 288,
    "hi": 289,
    "well</w>": 290,
    "he": 291,
    "mi": 292,
    "ough</w>": 293,
    "ess</w>": 294,
    "can</w>": 295,
    "them</w>": 296,
    "ys</w>": 297,
    "ast</w>": 298,
    "which</w>": 299,
    "more</w>": 300,
    "love</w>": 301,
    "no</w>": 302,
    "wha": 303,
    "produc": 304,
    "ge</w>": 305,
    "has</w>": 306,
    "any</w>": 307,
    "ut": 308,
    "these</w>": 309,
    "ate</w>": 310,
    "some</w>": 311,
    "ure</w>": 312,
    "don": 313,
    "also</w>": 314,
    "gi": 315,
    "do</w>": 316,
    "ge": 317,
    "itt": 318,
    "what</w>": 319,
    "ons</w>": 320,
    "back</w>": 321,
    "go</w>": 322,
    "day</w>": 323,
    "ing": 324,
    "ch</w>": 325,
    "about</w>": 326,
    "ick": 327,
    "ous</w>": 328,
    "wn</w>": 329,
    "af": 330,
    "min": 331,
    "their</w>": 332,
    "ation</w>": 333,
    "pe": 334,
    "tion</w>": 335,
    "ful</w>": 336,
    "uch</w>": 337,
    "cle": 338,
    "ite</w>": 339,
    "fa": 340,
    "us</w>": 341,
    "service</w>": 342,
    "ent": 343,
    "ul": 344,
    "par": 345,
    "too</w>": 346,
    "ps</w>": 347,
    "dn't</w>": 348,
    "il</w>": 349,
    "col": 350,
    "way</w>": 351,
    "after</w>": 352,
    "ver</w>": 353,
    "ell": 354,
    "ity</w>": 355,
    "been</w>": 356,
    "litt": 357,
    "only</w>": 358,
    "cause</w>": 359,
    "ong</w>": 360,
    "than</w>": 361,
    "little</w>": 362,
    "fi": 363,
    "ft</w>": 364,
    "now</w>": 365,
    "even</w>": 366,
    "for": 367,
    "cre": 368,
    "fre": 369,
    "pa": 370,
    "by</w>": 371,
    "ars</w>": 372,
    "because</w>": 373,
    "ds</w>": 374,
    "ter": 375,
    "much</w>": 376,
    "b</w>": 377,
    "best</w>": 378,
    "ded</w>": 379,
    "jo": 380,
    "don't</w>": 381,
    "che": 382,
    "na": 383,
    "ound</w>": 384,
    "del": 385,
    "mp": 386,
    "ine</w>": 387,
    "pu": 388,
    "te": 389,
    "ink</w>": 390,
    "app": 391,
    "tast": 392,
    "some": 393,
    "its</w>": 394,
    "product</w>": 395,
    "gr": 396,
    "she</w>": 397,
    "bl": 398,
    "ered</w>": 399,
    "iti": 400,
    "did</w>": 401,
    "got</w>": 402,
    "tter</w>": 403,
    "bi": 404,
    "eci": 405,
    "ick</w>": 406,
    "tri": 407,
    "fir": 408,
    "i'm</w>": 409,
    "cu": 410,
    "sed</w>": 411,
    "ard</w>": 412,
    "id</w>": 413,
    "friend": 414,
    "sal": 415,
    "sel": 416,
    "i've</w>": 417,
    "pi": 418,
    "bre": 419,
    "ence</w>": 420,
    "used</w>": 421,
    "end</w>": 422,
    "ying</w>": 423,
    "ved</w>": 424,
    "made</w>": 425,
    "hel": 426,
    "recom": 427,
    "make</w>": 428,
    "ni": 429,
    "stu": 430,
    "les</w>": 431,
    "vie": 432,
    "mas": 433,
    "re</w>": 434,
    "loc": 435,
    "ect</w>": 436,
    "ye": 437,
    "he</w>": 438,
    "off</w>": 439,
    "ways</w>": 440,
    "gu": 441,
    "tw": 442,
    "defin": 443,
    "side</w>": 444,
    "zing</w>": 445,
    "sti": 446,
    "first</w>": 447,
    "am": 448,
    "sho": 449,
    "better</w>": 450,
    "most</w>": 451,
    "try</w>": 452,
    "tty</w>": 453,
    "ve": 454,
    "ger</w>": 455,
    "is": 456,
    "ain</w>": 457,
    "ama": 458,
    "itely</w>": 459,
    "ici": 460,
    "definitely</w>": 461,
    "pretty</w>": 462,
    "rec": 463,
    "sha": 464,
    "always</w>": 465,
    "ything</w>": 466,
    "exc": 467,
    "didn't</w>": 468,
    "work</w>": 469,
    "over</w>": 470,
    "eel</w>": 471,
    "price</w>": 472,
    "im": 473,
    "i</w>": 474,
    "how</w>": 475,
    "der": 476,
    "brus": 477,
    "kes</w>": 478,
    "ever": 479,
    "red</w>": 480,
    "ings</w>": 481,
    "tu": 482,
    "whi": 483,
    "per</w>": 484,
    "all": 485,
    "ms</w>": 486,
    "ome</w>": 487,
    "over": 488,
    "perf": 489,
    "des": 490,
    "ke": 491,
    "ated</w>": 492,
    "ving</w>": 493,
    "revie": 494,
    "diff": 495,
    "lu": 496,
    "mon": 497,
    "ll": 498,
    "cou": 499,
    "ey": 500,
    "peri": 501,
    "exp": 502,
    "could</w>": 503,
    "face</w>": 504,
    "feel</w>": 505,
    "come</w>": 506,
    "est</w>": 507,
    "resta": 508,
    "ordered</w>": 509,
    "restaur": 510,
    "tly</w>": 511,
    "then</w>": 512,
    "does</w>": 513,
    "long</w>": 514,
    "again</w>": 515,
    "bur": 516,
    "new</w>": 517,
    "ating</w>": 518,
    "came</w>": 519,
    "ty</w>": 520,
    "order</w>": 521,
    "vor": 522,
    "right</w>": 523,
    "recommen": 524,
    "staff</w>": 525,
    "are": 526,
    "bit</w>": 527,
    "recommend</w>": 528,
    "sure</w>": 529,
    "can": 530,
    "using</w>": 531,
    "two</w>": 532,
    "ment</w>": 533,
    "table</w>": 534,
    "tim": 535,
    "ste": 536,
    "while</w>": 537,
    "experi": 538,
    "ble</w>": 539,
    "see": 540,
    "amazing</w>": 541,
    "coo": 542,
    "happ": 543,
    "fore</w>": 544,
    "u</w>": 545,
    "str": 546,
    "x</w>": 547,
    "won": 548,
    "few</w>": 549,
    "her</w>": 550,
    "before</w>": 551,
    "wait": 552,
    "delici": 553,
    "room</w>": 554,
    "small</w>": 555,
    "friendly</w>": 556,
    "think</w>": 557,
    "cha": 558,
    "ws</w>": 559,
    "though</w>": 560,
    "works</w>": 561,
    "want</w>": 562,
    "pla": 563,
    "ba": 564,
    "easy</w>": 565,
    "where</w>": 566,
    "look</w>": 567,
    "ality</w>": 568,
    "ue</w>": 569,
    "pric": 570,
    "delicious</w>": 571,
    "ves</w>": 572,
    "age</w>": 573,
    "differ": 574,
    "wee": 575,
    "der</w>": 576,
    "know</w>": 577,
    "fla": 578,
    "tur": 579,
    "um</w>": 580,
    "going</w>": 581,
    "sin": 582,
    "never</w>": 583,
    "ss</w>": 584,
    "bott": 585,
    "ner</w>": 586,
    "lot</w>": 587,
    "too": 588,
    "still</w>": 589,
    "minut": 590,
    "set</w>": 591,
    "lea": 592,
    "moi": 593,
    "ought</w>": 594,
    "peop": 595,
    "people</w>": 596,
    "aw": 597,
    "times</w>": 598,
    "'re</w>": 599,
    "feel": 600,
    "ance</w>": 601,
    "por": 602,
    "pe</w>": 603,
    "chick": 604,
    "need</w>": 605,
    "ru": 606,
    "las": 607,
    "tried</w>": 608,
    "see</w>": 609,
    "clean</w>": 610,
    "ding</w>": 611,
    "experience</w>": 612,
    "ach</w>": 613,
    "does": 614,
    "zz": 615,
    "find</w>": 616,
    "hes</w>": 617,
    "clo": 618,
    "quality</w>": 619,
    "say</w>": 620,
    "brush</w>": 621,
    "dry</w>": 622,
    "tions</w>": 623,
    "into</w>": 624,
    "take</w>": 625,
    "chicken</w>": 626,
    "hand": 627,
    "many</w>": 628,
    "restaurant</w>": 629,
    "car": 630,
    "unch</w>": 631,
    "who</w>": 632,
    "prob": 633,
    "tre": 634,
    "man": 635,
    "oil</w>": 636,
    "ily</w>": 637,
    "star": 638,
    "mp</w>": 639,
    "mar": 640,
    "kee": 641,
    "less</w>": 642,
    "bar</w>": 643,
    "night</w>": 644,
    "menu</w>": 645,
    "down</w>": 646,
    "fast</w>": 647,
    "since</w>": 648,
    "din": 649,
    "around</w>": 650,
    "cream</w>": 651,
    "ese</w>": 652,
    "went</w>": 653,
    "perfect</w>": 654,
    "enti": 655,
    "light</w>": 656,
    "ze</w>": 657,
    "clean": 658,
    "dec": 659,
    "out": 660,
    "ph": 661,
    "pleas": 662,
    "looking</w>": 663,
    "every</w>": 664,
    "ils</w>": 665,
    "ppo": 666,
    "pri": 667,
    "fo": 668,
    "ents</w>": 669,
    "ors</w>": 670,
    "brea": 671,
    "fe</w>": 672,
    "enjo": 673,
    "att": 674,
    "area</w>": 675,
    "with": 676,
    "tting</w>": 677,
    "put</w>": 678,
    "au": 679,
    "um": 680,
    "hou": 681,
    "et": 682,
    "pur": 683,
    "soft</w>": 684,
    "ey</w>": 685,
    "minutes</w>": 686,
    "self</w>": 687,
    "wait</w>": 688,
    "scent</w>": 689,
    "give</w>": 690,
    "enough</w>": 691,
    "sor": 692,
    "happy</w>": 693,
    "different</w>": 694,
    "worth</w>": 695,
    "int</w>": 696,
    "un</w>": 697,
    "something</w>": 698,
    "last</w>": 699,
    "nee": 700,
    "everything</w>": 701,
    "ting</w>": 702,
    "stars</w>": 703,
    "ning</w>": 704,
    "ei": 705,
    "color</w>": 706,
    "fac": 707,
    "ack": 708,
    "fresh</w>": 709,
    "bad</w>": 710,
    "super</w>": 711,
    "sit</w>": 712,
    "cr": 713,
    "reas": 714,
    "off": 715,
    "not": 716,
    "cur": 717,
    "comes</w>": 718,
    "excell": 719,
    "bro": 720,
    "wan": 721,
    "moistu": 722,
    "can't</w>": 723,
    "av": 724,
    "cho": 725,
    "moisturi": 726,
    "wer</w>": 727,
    "both</w>": 728,
    "sto": 729,
    "excellent</w>": 730,
    "dy</w>": 731,
    "high": 732,
    "another</w>": 733,
    "spo": 734,
    "wal": 735,
    "bas": 736,
    "tra": 737,
    "doesn't</w>": 738,
    "cas": 739,
    "est": 740,
    "ably</w>": 741,
    "top</w>": 742,
    "bar": 743,
    "said</w>": 744,
    "was": 745,
    "makes</w>": 746,
    "low</w>": 747,
    "diti": 748,
    "pres": 749,
    "hy": 750,
    "ind</w>": 751,
    "ther": 752,
    "actu": 753,
    "thr": 754,
    "favor": 755,
    "ext</w>": 756,
    "ap</w>": 757,
    "ite": 758,
    "pped</w>": 759,
    "ple</w>": 760,
    "inc": 761,
    "sec": 762,
    "review</w>": 763,
    "products</w>": 764,
    "next</w>": 765,
    "awes": 766,
    "plac": 767,
    "ang": 768,
    "cheese</w>": 769,
    "pizz": 770,
    "any": 771,
    "gg": 772,
    "ligh": 773,
    "how": 774,
    "led</w>": 775,
    "sauc": 776,
    "disa": 777,
    "atur": 778,
    "ap": 779,
    "however</w>": 780,
    "awesome</w>": 781,
    "without</w>": 782,
    "speci": 783,
    "chi": 784,
    "wasn't</w>": 785,
    "ans</w>": 786,
    "yed</w>": 787,
    "being</w>": 788,
    "sing</w>": 789,
    "dri": 790,
    "big</w>": 791,
    "onal</w>": 792,
    "ig": 793,
    "lar": 794,
    "ga": 795,
    "nt</w>": 796,
    "keep</w>": 797,
    "fine</w>": 798,
    "sand": 799,
    "sive</w>": 800,
    "read": 801,
    "found</w>": 802,
    "each</w>": 803,
    "ldn't</w>": 804,
    "smoo": 805,
    "e's</w>": 806,
    "sur": 807,
    "tho": 808,
    "eat</w>": 809,
    "hu": 810,
    "bus": 811,
    "comp": 812,
    "chec": 813,
    "lunch</w>": 814,
    "pizza</w>": 815,
    "left</w>": 816,
    "auti": 817,
    "swe": 818,
    "years</w>": 819,
    "help": 820,
    "usu": 821,
    "took</w>": 822,
    "beauti": 823,
    "ty": 824,
    "pic": 825,
    "line</w>": 826,
    "sol": 827,
    "ep": 828,
    "sty": 829,
    "disappo": 830,
    "water</w>": 831,
    "cust": 832,
    "remo": 833,
    "actually</w>": 834,
    "break": 835,
    "ned</w>": 836,
    "char": 837,
    "tin": 838,
    "away</w>": 839,
    "sen": 840,
    "ange</w>": 841,
    "favorite</w>": 842,
    "burger</w>": 843,
    "ari": 844,
    "hon": 845,
    "home</w>": 846,
    "sauce</w>": 847,
    "ection</w>": 848,
    "location</w>": 849,
    "sou": 850,
    "ven": 851,
    "als</w>": 852,
    "salad</w>": 853,
    "ently</w>": 854,
    "ry</w>": 855,
    "ffe": 856,
    "wanted</w>": 857,
    "gredi": 858,
    "sandw": 859,
    "zer</w>": 860,
    "you're</w>": 861,
    "wonder": 862,
    "once</w>": 863,
    "ingredi": 864,
    "purcha": 865,
    "looks</w>": 866,
    "ular</w>": 867,
    "fl": 868,
    "things</w>": 869,
    "feels</w>": 870,
    "ber</w>": 871,
    "smell": 872,
    "nail</w>": 873,
    "free</w>": 874,
    "pers": 875,
    "band</w>": 876,
    "same</w>": 877,
    "those</w>": 878,
    "tain": 879,
    "overall</w>": 880,
    "med</w>": 881,
    "bri": 882,
    "anything</w>": 883,
    "cer": 884,
    "his</w>": 885,
    "extr": 886,
    "elt</w>": 887,
    "ately</w>": 888,
    "nothing</w>": 889,
    "getting</w>": 890,
    "fan": 891,
    "quite</w>": 892,
    "full</w>": 893,
    "siti": 894,
    "war": 895,
    "zed</w>": 896,
    "custom": 897,
    "meal</w>": 898,
    "disappoin": 899,
    "told</w>": 900,
    "coffe": 901,
    "than": 902,
    "wr": 903,
    "up": 904,
    "should</w>": 905,
    "they": 906,
    "ki": 907,
    "smell</w>": 908,
    "coffee</w>": 909,
    "cli": 910,
    "medi": 911,
    "ls</w>": 912,
    "inks</w>": 913,
    "tac": 914,
    "through</w>": 915,
    "every": 916,
    "asked</w>": 917,
    "highly</w>": 918,
    "ses</w>": 919,
    "ount</w>": 920,
    "tel</w>": 921,
    "quick": 922,
    "cut": 923,
    "gar": 924,
    "wonderful</w>": 925,
    "hard</w>": 926,
    "consi": 927,
    "bottle</w>": 928,
    "ok</w>": 929,
    "gra": 930,
    "mask</w>": 931,
    "breakfast</w>": 932,
    "size</w>": 933,
    "hot</w>": 934,
    "beautiful</w>": 935,
    "retur": 936,
    "that": 937,
    "hotel</w>": 938,
    "thick</w>": 939,
    "far</w>": 940,
    "friend</w>": 941,
    "absol": 942,
    "absolut": 943,
    "mor": 944,
    "buy</w>": 945,
    "ond</w>": 946,
    "probably</w>": 947,
    "mus": 948,
    "arly</w>": 949,
    "ab</w>": 950,
    "colors</w>": 951,
    "may</w>": 952,
    "cor": 953,
    "beer</w>": 954,
    "ali": 955,
    "ations</w>": 956,
    "felt</w>": 957,
    "bs</w>": 958,
    "ones</w>": 959,
    "deci": 960,
    "sweet</w>": 961,
    "ight</w>": 962,
    "old</w>": 963,
    "ensive</w>": 964,
    "care</w>": 965,
    "help</w>": 966,
    "ree</w>": 967,
    "stay</w>": 968,
    "mil": 969,
    "compl": 970,
    "gen": 971,
    "ess": 972,
    "fil": 973,
    "flo": 974,
    "comfor": 975,
    "dur": 976,
    "natur": 977,
    "esp": 978,
    "quickly</w>": 979,
    "may": 980,
    "mat": 981,
    "hand</w>": 982,
    "sul": 983,
    "ended</w>": 984,
    "eff": 985,
    "dinner</w>": 986,
    "fries</w>": 987,
    "job</w>": 988,
    "head": 989,
    "almost</w>": 990,
    "stre": 991,
    "especi": 992,
    "especially</w>": 993,
    "days</w>": 994,
    "thought</w>": 995,
    "let</w>": 996,
    "ness</w>": 997,
    "ak</w>": 998,
    "inter": 999,
    "cra": 1000,
    "town</w>": 1001,
    "hal": 1002,
    "deli": 1003,
    "drinks</w>": 1004,
    "ling</w>": 1005,
    "coming</w>": 1006,
    "bel": 1007,
    "ture</w>": 1008,
    "loved</w>": 1009,
    "store</w>": 1010,
    "expec": 1011,
    "appe": 1012,
    "ready</w>": 1013,
    "hour</w>": 1014,
    "pack": 1015,
    "rs</w>": 1016,
    "looked</w>": 1017,
    "high</w>": 1018,
    "ingredients</w>": 1019,
    "lin": 1020,
    "nails</w>": 1021,
    "enc": 1022,
    "own</w>": 1023,
    "ju": 1024,
    "easily</w>": 1025,
    "eye</w>": 1026,
    "kind</w>": 1027,
    "absolutely</w>": 1028,
    "ster</w>": 1029,
    "hands</w>": 1030,
    "ous": 1031,
    "usually</w>": 1032,
    "needed</w>": 1033,
    "kno": 1034,
    "head</w>": 1035,
    "inclu": 1036,
    "issu": 1037,
    "stic</w>": 1038,
    "manag": 1039,
    "done</w>": 1040,
    "ited</w>": 1041,
    "tun": 1042,
    "roll": 1043,
    "fun</w>": 1044,
    "maybe</w>": 1045,
    "money</w>": 1046,
    "open</w>": 1047,
    "fami": 1048,
    "c</w>": 1049,
    "des</w>": 1050,
    "smells</w>": 1051,
    "items</w>": 1052,
    "friends</w>": 1053,
    "ght": 1054,
    "du": 1055,
    "spot</w>": 1056,
    "recei": 1057,
    "dis": 1058,
    "trying</w>": 1059,
    "shri": 1060,
    "expensive</w>": 1061,
    "body</w>": 1062,
    "why</w>": 1063,
    "vor</w>": 1064,
    "ful": 1065,
    "sitive</w>": 1066,
    "poli": 1067,
    "sever": 1068,
    "nic": 1069,
    "ow": 1070,
    "that's</w>": 1071,
    "surpri": 1072,
    "sandwich</w>": 1073,
    "cute</w>": 1074,
    "atmo": 1075,
    "atmosp": 1076,
    "tend": 1077,
    "stand": 1078,
    "shrimp</w>": 1079,
    "resul": 1080,
    "part</w>": 1081,
    "hus": 1082,
    "stuff</w>": 1083,
    "ion</w>": 1084,
    "atmosphere</w>": 1085,
    "several</w>": 1086,
    "during</w>": 1087,
    "win": 1088,
    "leave</w>": 1089,
    "vari": 1090,
    "bb": 1091,
    "couple</w>": 1092,
    "ort</w>": 1093,
    "three</w>": 1094,
    "ial</w>": 1095,
    "visit</w>": 1096,
    "natural</w>": 1097,
    "gel</w>": 1098,
    "make": 1099,
    "flavor": 1100,
    "reviews</w>": 1101,
    "having</w>": 1102,
    "prices</w>": 1103,
    "fantast": 1104,
    "fried</w>": 1105,
    "reg": 1106,
    "row": 1107,
    "soap</w>": 1108,
    "cut</w>": 1109,
    "ering</w>": 1110,
    "dre": 1111,
    "appl": 1112,
    "hydr": 1113,
    "fra": 1114,
    "huge</w>": 1115,
    "decent</w>": 1116,
    "proble": 1117,
    "ach": 1118,
    "impres": 1119,
    "conditi": 1120,
    "selection</w>": 1121,
    "taste</w>": 1122,
    "quick</w>": 1123,
    "large</w>": 1124,
    "irr": 1125,
    "drink</w>": 1126,
    "places</w>": 1127,
    "tab": 1128,
    "least</w>": 1129,
    "apply</w>": 1130,
    "call": 1131,
    "fantastic</w>": 1132,
    "tic": 1133,
    "tasty</w>": 1134,
    "arri": 1135,
    "sted</w>": 1136,
    "reason": 1137,
    "wou": 1138,
    "ening</w>": 1139,
    "makeup</w>": 1140,
    "bread</w>": 1141,
    "fron": 1142,
    "seems</w>": 1143,
    "dau": 1144,
    "special</w>": 1145,
    "os</w>": 1146,
    "such</w>": 1147,
    "lon": 1148,
    "wash</w>": 1149,
    "eyes</w>": 1150,
    "enjoy</w>": 1151,
    "boo": 1152,
    "who": 1153,
    "ft": 1154,
    "check</w>": 1155,
    "feeling</w>": 1156,
    "box</w>": 1157,
    "ative</w>": 1158,
    "car</w>": 1159,
    "ary</w>": 1160,
    "under</w>": 1161,
    "thin</w>": 1162,
    "sus": 1163,
    "under": 1164,
    "week</w>": 1165,
    "wish</w>": 1166,
    "hi</w>": 1167,
    "fish</w>": 1168,
    "ants</w>": 1169,
    "cri": 1170,
    "extre": 1171,
    "mer</w>": 1172,
    "smooth</w>": 1173,
    "front</w>": 1174,
    "oc": 1175,
    "twe": 1176,
    "comfortable</w>": 1177,
    "mely</w>": 1178,
    "cool</w>": 1179,
    "family</w>": 1180,
    "helpful</w>": 1181,
    "shes</w>": 1182,
    "fully</w>": 1183,
    "ck": 1184,
    "ser</w>": 1185,
    "ates</w>": 1186,
    "half</w>": 1187,
    "stra": 1188,
    "husband</w>": 1189,
    "flavor</w>": 1190,
    "i'd</w>": 1191,
    "ened</w>": 1192,
    "vely</w>": 1193,
    "door</w>": 1194,
    "mag": 1195,
    "amount</w>": 1196,
    "rible</w>": 1197,
    "extremely</w>": 1198,
    "sion</w>": 1199,
    "ths</w>": 1200,
    "style</w>": 1201,
    "piec": 1202,
    "thers</w>": 1203,
    "acc": 1204,
    "hours</w>": 1205,
    "icy</w>": 1206,
    "house</w>": 1207,
    "pping</w>": 1208,
    "i'll</w>": 1209,
    "else</w>": 1210,
    "priced</w>": 1211,
    "ood": 1212,
    "dro": 1213,
    "vel</w>": 1214,
    "sun": 1215,
    "ka": 1216,
    "res</w>": 1217,
    "might</w>": 1218,
    "tou": 1219,
    "hold</w>": 1220,
    "tell</w>": 1221,
    "heal": 1222,
    "gave</w>": 1223,
    "ater</w>": 1224,
    "disappointed</w>": 1225,
    "int": 1226,
    "ands</w>": 1227,
    "ghter</w>": 1228,
    "ed": 1229,
    "gir": 1230,
    "iness</w>": 1231,
    "room": 1232,
    "cour": 1233,
    "real</w>": 1234,
    "sensitive</w>": 1235,
    "someone</w>": 1236,
    "coun": 1237,
    "extra</w>": 1238,
    "ky</w>": 1239,
    "sts</w>": 1240,
    "stor": 1241,
    "fit</w>": 1242,
    "serum</w>": 1243,
    "'ll</w>": 1244,
    "perfec": 1245,
    "him</w>": 1246,
    "itch": 1247,
    "oner</w>": 1248,
    "recomm": 1249,
    "vis": 1250,
    "rice</w>": 1251,
    "isn't</w>": 1252,
    "eng": 1253,
    "deal</w>": 1254,
    "gri": 1255,
    "contain": 1256,
    "plastic</w>": 1257,
    "absor": 1258,
    "tive</w>": 1259,
    "dish</w>": 1260,
    "enjoyed</w>": 1261,
    "pref": 1262,
    "cooked</w>": 1263,
    "ies</w>": 1264,
    "polish</w>": 1265,
    "sham": 1266,
    "poo</w>": 1267,
    "spra": 1268,
    "second</w>": 1269,
    "star</w>": 1270,
    "nor": 1271,
    "ly": 1272,
    "shampoo</w>": 1273,
    "ens</w>": 1274,
    "fragr": 1275,
    "inside</w>": 1276,
    "ef</w>": 1277,
    "dar": 1278,
    "lotion</w>": 1279,
    "dd": 1280,
    "ask</w>": 1281,
    "decided</w>": 1282,
    "gener": 1283,
    "worked</w>": 1284,
    "must</w>": 1285,
    "ously</w>": 1286,
    "grou": 1287,
    "tables</w>": 1288,
    "iced</w>": 1289,
    "greas": 1290,
    "meat</w>": 1291,
    "wife</w>": 1292,
    "there's</w>": 1293,
    "complet": 1294,
    "cold</w>": 1295,
    "fol": 1296,
    "goes</w>": 1297,
    "close</w>": 1298,
    "ns</w>": 1299,
    "bed</w>": 1300,
    "customer</w>": 1301,
    "bal": 1302,
    "return</w>": 1303,
    "hair": 1304,
    "provi": 1305,
    "sting</w>": 1306,
    "gift</w>": 1307,
    "lashes</w>": 1308,
    "perfectly</w>": 1309,
    "daughter</w>": 1310,
    "shower</w>": 1311,
    "local</w>": 1312,
    "won't</w>": 1313,
    "cover": 1314,
    "mul": 1315,
    "bac": 1316,
    "server</w>": 1317,
    "til</w>": 1318,
    "outside</w>": 1319,
    "emp": 1320,
    "they're</w>": 1321,
    "gan": 1322,
    "sushi</w>": 1323,
    "seem</w>": 1324,
    "pes</w>": 1325,
    "'ve</w>": 1326,
    "ments</w>": 1327,
    "simp": 1328,
    "gs</w>": 1329,
    "called</w>": 1330,
    "la</w>": 1331,
    "els</w>": 1332,
    "ping</w>": 1333,
    "busy</w>": 1334,
    "ats</w>": 1335,
    "dont</w>": 1336,
    "dic": 1337,
    "ices</w>": 1338,
    "year</w>": 1339,
    "finally</w>": 1340,
    "pow": 1341,
    "foo": 1342,
    "everyone</w>": 1343,
    "wine</w>": 1344,
    "mon</w>": 1345,
    "received</w>": 1346,
    "regular</w>": 1347,
    "yet</w>": 1348,
    "stop</w>": 1349,
    "morning</w>": 1350,
    "val": 1351,
    "pt</w>": 1352,
    "whole</w>": 1353,
    "bought</w>": 1354,
    "veg": 1355,
    "anc": 1356,
    "until</w>": 1357,
    "ut</w>": 1358,
    "que</w>": 1359,
    "ery</w>": 1360,
    "live</w>": 1361,
    "my": 1362,
    "desig": 1363,
    "wear</w>": 1364,
    "stri": 1365,
    "change</w>": 1366,
    "strong</w>": 1367,
    "sli": 1368,
    "results</w>": 1369,
    "read</w>": 1370,
    "point</w>": 1371,
    "wouldn't</w>": 1372,
    "id": 1373,
    "options</w>": 1374,
    "longer</w>": 1375,
    "masks</w>": 1376,
    "black</w>": 1377,
    "ant": 1378,
    "week": 1379,
    "inste": 1380,
    "started</w>": 1381,
    "plus</w>": 1382,
    "short</w>": 1383,
    "either</w>": 1384,
    "rooms</w>": 1385,
    "kids</w>": 1386,
    "instead</w>": 1387,
    "helps</w>": 1388,
    "others</w>": 1389,
    "wing</w>": 1390,
    "uni": 1391,
    "heav": 1392,
    "sil": 1393,
    "roll</w>": 1394,
    "yel": 1395,
    "served</w>": 1396,
    "ming</w>": 1397,
    "en't</w>": 1398,
    "shed</w>": 1399,
    "run": 1400,
    "te</w>": 1401,
    "nec": 1402,
    "kay</w>": 1403,
    "waiting</w>": 1404,
    "white</w>": 1405,
    "waitre": 1406,
    "reason</w>": 1407,
    "walk</w>": 1408,
    "oned</w>": 1409,
    "moisturizer</w>": 1410,
    "brushes</w>": 1411,
    "desser": 1412,
    "although</w>": 1413,
    "ins</w>": 1414,
    "sig": 1415,
    "making</w>": 1416,
    "scru": 1417,
    "city</w>": 1418,
    "pat": 1419,
    "ago</w>": 1420,
    "shi": 1421,
    "okay</w>": 1422,
    "gets</w>": 1423,
    "spon": 1424,
    "act</w>": 1425,
    "shing</w>": 1426,
    "itself</w>": 1427,
    "lots</w>": 1428,
    "arrived</w>": 1429,
    "scal": 1430,
    "ier</w>": 1431,
    "tru": 1432,
    "packag": 1433,
    "tea</w>": 1434,
    "incre": 1435,
    "son</w>": 1436,
    "problem</w>": 1437,
    "working</w>": 1438,
    "greasy</w>": 1439,
    "ven</w>": 1440,
    "ber": 1441,
    "couldn't</w>": 1442,
    "wra": 1443,
    "pan": 1444,
    "list</w>": 1445,
    "add</w>": 1446,
    "uck</w>": 1447,
    "im</w>": 1448,
    "thy</w>": 1449,
    "expected</w>": 1450,
    "impressed</w>": 1451,
    "liked</w>": 1452,
    "comb": 1453,
    "start</w>": 1454,
    "purchase</w>": 1455,
    "pleasant</w>": 1456,
    "z</w>": 1457,
    "dnt</w>": 1458,
    "spicy</w>": 1459,
    "five</w>": 1460,
    "doing</w>": 1461,
    "tal": 1462,
    "beli": 1463,
    "har": 1464,
    "cheap</w>": 1465,
    "pork</w>": 1466,
    "gers</w>": 1467,
    "hor": 1468,
    "date</w>": 1469,
    "eve</w>": 1470,
    "qui": 1471,
    "ive</w>": 1472,
    "wat": 1473,
    "li</w>": 1474,
    "reasonable</w>": 1475,
    "mem": 1476,
    "stand</w>": 1477,
    "fan</w>": 1478,
    "ol": 1479,
    "later</w>": 1480,
    "ench</w>": 1481,
    "gla": 1482,
    "street</w>": 1483,
    "case</w>": 1484,
    "parking</w>": 1485,
    "name</w>": 1486,
    "shop</w>": 1487,
    "mic": 1488,
    "cake</w>": 1489,
    "varie": 1490,
    "stick</w>": 1491,
    "choo": 1492,
    "essi": 1493,
    "bag</w>": 1494,
    "beef</w>": 1495,
    "pper</w>": 1496,
    "irrit": 1497,
    "already</w>": 1498,
    "soup</w>": 1499,
    "ough": 1500,
    "tot": 1501,
    "type</w>": 1502,
    "bottles</w>": 1503,
    "steak</w>": 1504,
    "expect</w>": 1505,
    "lit": 1506,
    "wn": 1507,
    "tex": 1508,
    "fun": 1509,
    "ften</w>": 1510,
    "ches</w>": 1511,
    "pas": 1512,
    "ross</w>": 1513,
    "organ": 1514,
    "iting</w>": 1515,
    "pay</w>": 1516,
    "nicely</w>": 1517,
    "excep": 1518,
    "dly</w>": 1519,
    "fini": 1520,
    "gent": 1521,
    "phil": 1522,
    "struc": 1523,
    "applic": 1524,
    "facial</w>": 1525,
    "kit</w>": 1526,
    "eyel": 1527,
    "mascar": 1528,
    "ending</w>": 1529,
    "dra": 1530,
    "tic</w>": 1531,
    "stick": 1532,
    "yer</w>": 1533,
    "xed</w>": 1534,
    "due</w>": 1535,
    "person</w>": 1536,
    "ement</w>": 1537,
    "fragrance</w>": 1538,
    "ends</w>": 1539,
    "bath": 1540,
    "tat": 1541,
    "clas": 1542,
    "eg": 1543,
    "past</w>": 1544,
    "crab</w>": 1545,
    "butt": 1546,
    "fortun": 1547,
    "brunch</w>": 1548,
    "tour</w>": 1549,
    "french</w>": 1550,
    "waitress</w>": 1551,
    "restaurants</w>": 1552,
    "lou": 1553,
    "myself</w>": 1554,
    "plate</w>": 1555,
    "man</w>": 1556,
    "glas": 1557,
    "ssi": 1558,
    "wig</w>": 1559,
    "seemed</w>": 1560,
    "pul": 1561,
    "completely</w>": 1562,
    "ically</w>": 1563,
    "antly</w>": 1564,
    "dishes</w>": 1565,
    "taking</w>": 1566,
    "weeks</w>": 1567,
    "pac": 1568,
    "sy": 1569,
    "crow": 1570,
    "brist": 1571,
    "bartend": 1572,
    "tail</w>": 1573,
    "entive</w>": 1574,
    "needs</w>": 1575,
    "proc": 1576,
    "often</w>": 1577,
    "offer</w>": 1578,
    "brand</w>": 1579,
    "foli": 1580,
    "indi": 1581,
    "vers</w>": 1582,
    "appeti": 1583,
    "ob": 1584,
    "wel": 1585,
    "anyone</w>": 1586,
    "vel": 1587,
    "ken</w>": 1588,
    "manager</w>": 1589,
    "soo": 1590,
    "conditioner</w>": 1591,
    "moisturizing</w>": 1592,
    "prefer</w>": 1593,
    "late</w>": 1594,
    "variety</w>": 1595,
    "prof": 1596,
    "honest</w>": 1597,
    "scre": 1598,
    "interest": 1599,
    "green</w>": 1600,
    "warm</w>": 1601,
    "consist": 1602,
    "aring</w>": 1603,
    "life</w>": 1604,
    "chocol": 1605,
    "prom": 1606,
    "tasted</w>": 1607,
    "'</w>": 1608,
    "entire</w>": 1609,
    "she": 1610,
    "ren": 1611,
    "ult</w>": 1612,
    "sing": 1613,
    "reci": 1614,
    "dee": 1615,
    "etc</w>": 1616,
    "today</w>": 1617,
    "group</w>": 1618,
    "leaves</w>": 1619,
    "takes</w>": 1620,
    "bring</w>": 1621,
    "oh</w>": 1622,
    "form": 1623,
    "sometimes</w>": 1624,
    "eating</w>": 1625,
    "thank</w>": 1626,
    "que": 1627,
    "massa": 1628,
    "exfoli": 1629,
    "immedi": 1630,
    "business</w>": 1631,
    "waiter</w>": 1632,
    "incredi": 1633,
    "issues</w>": 1634,
    "mis": 1635,
    "attentive</w>": 1636,
    "nei": 1637,
    "travel</w>": 1638,
    "spray</w>": 1639,
    "pick</w>": 1640,
    "walked</w>": 1641,
    "sa</w>": 1642,
    "months</w>": 1643,
    "bly</w>": 1644,
    "ward</w>": 1645,
    "da</w>": 1646,
    "professi": 1647,
    "seas": 1648,
    "down": 1649,
    "toge": 1650,
    "verage</w>": 1651,
    "wrong</w>": 1652,
    "ne</w>": 1653,
    "sub": 1654,
    "ow</w>": 1655,
    "pal": 1656,
    "beh": 1657,
    "gree": 1658,
    "bor": 1659,
    "wed</w>": 1660,
    "ges</w>": 1661,
    "mascara</w>": 1662,
    "exac": 1663,
    "behind</w>": 1664,
    "sl": 1665,
    "stopped</w>": 1666,
    "course</w>": 1667,
    "thick": 1668,
    "art</w>": 1669,
    "call</w>": 1670,
    "compla": 1671,
    "together</w>": 1672,
    "trip</w>": 1673,
    "pati": 1674,
    "smo": 1675,
    "chocolate</w>": 1676,
    "owner</w>": 1677,
    "fortunately</w>": 1678,
    "party</w>": 1679,
    "soon</w>": 1680,
    "hope</w>": 1681,
    "feet</w>": 1682,
    "lovely</w>": 1683,
    "effec": 1684,
    "item</w>": 1685,
    "amaz": 1686,
    "od": 1687,
    "given</w>": 1688,
    "phone</w>": 1689,
    "hol": 1690,
    "sug": 1691,
    "imp": 1692,
    "key</w>": 1693,
    "pared</w>": 1694,
    "ck</w>": 1695,
    "tain</w>": 1696,
    "enty</w>": 1697,
    "terrible</w>": 1698,
    "conven": 1699,
    "simil": 1700,
    "rather</w>": 1701,
    "glad</w>": 1702,
    "possi": 1703,
    "wings</w>": 1704,
    "exactly</w>": 1705,
    "sle": 1706,
    "mu": 1707,
    "betwe": 1708,
    "between</w>": 1709,
    "fact</w>": 1710,
    "four</w>": 1711,
    "sati": 1712,
    "our": 1713,
    "flavors</w>": 1714,
    "saw</w>": 1715,
    "believe</w>": 1716,
    "norm": 1717,
    "dark</w>": 1718,
    "heavy</w>": 1719,
    "cock": 1720,
    "vege": 1721,
    "additi": 1722,
    "contin": 1723,
    "rin": 1724,
    "please</w>": 1725,
    "remove</w>": 1726,
    "dessert</w>": 1727,
    "ker</w>": 1728,
    "ail": 1729,
    "rest</w>": 1730,
    "mind</w>": 1731,
    "squ": 1732,
    "thin": 1733,
    "surprised</w>": 1734,
    "hom": 1735,
    "ny</w>": 1736,
    "pho": 1737,
    "haven": 1738,
    "haven't</w>": 1739,
    "pleased</w>": 1740,
    "ci": 1741,
    "lightly</w>": 1742,
    "num": 1743,
    "bristles</w>": 1744,
    "ash": 1745,
    "dding</w>": 1746,
    "itting</w>": 1747,
    "tacos</w>": 1748,
    "kin": 1749,
    "suppo": 1750,
    "counter</w>": 1751,
    "v</w>": 1752,
    "ican</w>": 1753,
    "egg": 1754,
    "chips</w>": 1755,
    "q</w>": 1756,
    "cal": 1757,
    "uts</w>": 1758,
    "cost</w>": 1759,
    "butter</w>": 1760,
    "purchased</w>": 1761,
    "el</w>": 1762,
    "play</w>": 1763,
    "dge</w>": 1764,
    "avail": 1765,
    "ator</w>": 1766,
    "ird</w>": 1767,
    "sat</w>": 1768,
    "unique</w>": 1769,
    "ads</w>": 1770,
    "uses</w>": 1771,
    "alls</w>": 1772,
    "cen": 1773,
    "partic": 1774,
    "avo": 1775,
    "issue</w>": 1776,
    "noticed</w>": 1777,
    "brought</w>": 1778,
    "value</w>": 1779,
    "clu": 1780,
    "thanks</w>": 1781,
    "disc": 1782,
    "seen</w>": 1783,
    "lip</w>": 1784,
    "piece</w>": 1785,
    "ben": 1786,
    "dow</w>": 1787,
    "impro": 1788,
    "zy</w>": 1789,
    "clear</w>": 1790,
    "ton": 1791,
    "bands</w>": 1792,
    "space</w>": 1793,
    "yes</w>": 1794,
    "guy</w>": 1795,
    "yelp</w>": 1796,
    "pack</w>": 1797,
    "unfortunately</w>": 1798,
    "seated</w>": 1799,
    "water": 1800,
    "tip</w>": 1801,
    "tte</w>": 1802,
    "opin": 1803,
    "ste</w>": 1804,
    "added</w>": 1805,
    "run</w>": 1806,
    "difference</w>": 1807,
    "gentle</w>": 1808,
    "doesnt</w>": 1809,
    "recommended</w>": 1810,
    "tor": 1811,
    "immediately</w>": 1812,
    "dining</w>": 1813,
    "worst</w>": 1814,
    "oy": 1815,
    "professional</w>": 1816,
    "bab": 1817,
    "chang": 1818,
    "cla": 1819,
    "average</w>": 1820,
    "clips</w>": 1821,
    "bacon</w>": 1822,
    "music</w>": 1823,
    "direc": 1824,
    "plenty</w>": 1825,
    "available</w>": 1826,
    "spl": 1827,
    "descri": 1828,
    "tom": 1829,
    "rela": 1830,
    "yl": 1831,
    "texture</w>": 1832,
    "leng": 1833,
    "bat": 1834,
    "beg": 1835,
    "oes</w>": 1836,
    "ined</w>": 1837,
    "waited</w>": 1838,
    "mine</w>": 1839,
    "mmer</w>": 1840,
    "ide": 1841,
    "onally</w>": 1842,
    "handle</w>": 1843,
    "similar</w>": 1844,
    "seating</w>": 1845,
    "ature</w>": 1846,
    "based</w>": 1847,
    "y's</w>": 1848,
    "reserv": 1849,
    "color": 1850,
    "didnt</w>": 1851,
    "guess</w>": 1852,
    "kept</w>": 1853,
    "her": 1854,
    "wom": 1855,
    "chil": 1856,
    "twice</w>": 1857,
    "seri": 1858,
    "kitch": 1859,
    "cakes</w>": 1860,
    "mac": 1861,
    "ints</w>": 1862,
    "fru": 1863,
    "bathroom</w>": 1864,
    "suc": 1865,
    "yum": 1866,
    "itu": 1867,
    "burgers</w>": 1868,
    "standing</w>": 1869,
    "inst": 1870,
    "salon</w>": 1871,
    "cks</w>": 1872,
    "bbq</w>": 1873,
    "included</w>": 1874,
    "aut": 1875,
    "gone</w>": 1876,
    "emplo": 1877,
    "what": 1878,
    "after": 1879,
    "dou": 1880,
    "pump</w>": 1881,
    "pol": 1882,
    "healthy</w>": 1883,
    "bul": 1884,
    "dres": 1885,
    "sea": 1886,
    "foun": 1887,
    "amy</w>": 1888,
    "veggi": 1889,
    "stayed</w>": 1890,
    "flat</w>": 1891,
    "lid</w>": 1892,
    "instruc": 1893,
    "cleaning</w>": 1894,
    "stic": 1895,
    "you'll</w>": 1896,
    "drive</w>": 1897,
    "ans": 1898,
    "mou": 1899,
    "row</w>": 1900,
    "liter": 1901,
    "across</w>": 1902,
    "tang": 1903,
    "ggest</w>": 1904,
    "lim": 1905,
    "ambi": 1906,
    "member</w>": 1907,
    "ties</w>": 1908,
    "daily</w>": 1909,
    "vil": 1910,
    "ban": 1911,
    "easier</w>": 1912,
    "show</w>": 1913,
    "bow": 1914,
    "appreci": 1915,
    "employe": 1916,
    "kitchen</w>": 1917,
    "buff": 1918,
    "blue</w>": 1919,
    "wet</w>": 1920,
    "customers</w>": 1921,
    "ped</w>": 1922,
    "charge</w>": 1923,
    "pm</w>": 1924,
    "company</w>": 1925,
    "ash</w>": 1926,
    "literally</w>": 1927,
    "satur": 1928,
    "ran": 1929,
    "serve</w>": 1930,
    "diffic": 1931,
    "ented</w>": 1932,
    "orig": 1933,
    "anti": 1934,
    "wle": 1935,
    "zers</w>": 1936,
    "irs</w>": 1937,
    "bir": 1938,
    "ites</w>": 1939,
    "opened</w>": 1940,
    "lled</w>": 1941,
    "tment</w>": 1942,
    "tiny</w>": 1943,
    "hun": 1944,
    "philly</w>": 1945,
    "vend": 1946,
    "oily</w>": 1947,
    "dir": 1948,
    "along</w>": 1949,
    "aren't</w>": 1950,
    "spr": 1951,
    "fair": 1952,
    "alo": 1953,
    "your": 1954,
    "gy": 1955,
    "curr": 1956,
    "deep</w>": 1957,
    "oils</w>": 1958,
    "multi": 1959,
    "interesting</w>": 1960,
    "non": 1961,
    "yummy</w>": 1962,
    "ment": 1963,
    "pepp": 1964,
    "conveni": 1965,
    "glass</w>": 1966,
    "chees": 1967,
    "ged</w>": 1968,
    "idea</w>": 1969,
    "leans</w>": 1970,
    "ma</w>": 1971,
    "ket</w>": 1972,
    "mer": 1973,
    "near</w>": 1974,
    "aff": 1975,
    "touch</w>": 1976,
    "note</w>": 1977,
    "questi": 1978,
    "neigh": 1979,
    "cat": 1980,
    "sy</w>": 1981,
    "raz": 1982,
    "gott": 1983,
    "beard</w>": 1984,
    "'d</w>": 1985,
    "excited</w>": 1986,
    "reali": 1987,
    "nood": 1988,
    "weekend</w>": 1989,
    "bun": 1990,
    "ster": 1991,
    "early</w>": 1992,
    "zes</w>": 1993,
    "says</w>": 1994,
    "truly</w>": 1995,
    "appli": 1996,
    "bottom</w>": 1997,
    "beans</w>": 1998,
    "main": 1999,
    "choice</w>": 2000,
    "eggs</w>": 2001,
    "decor</w>": 2002,
    "loves</w>": 2003,
    "treat": 2004,
    "buil": 2005,
    "simple</w>": 2006,
    "within</w>": 2007,
    "ville</w>": 2008,
    "scalp</w>": 2009,
    "girl</w>": 2010,
    "vers": 2011,
    "seafood</w>": 2012,
    "ordering</w>": 2013,
    "honest": 2014,
    "cannot</w>": 2015,
    "wer": 2016,
    "ential</w>": 2017,
    "ched</w>": 2018,
    "notice</w>": 2019,
    "pink</w>": 2020,
    "cleanser</w>": 2021,
    "youn": 2022,
    "ush</w>": 2023,
    "ger": 2024,
    "compli": 2025,
    "mex": 2026,
    "fied</w>": 2027,
    "small": 2028,
    "typic": 2029,
    "minute</w>": 2030,
    "sides</w>": 2031,
    "slightly</w>": 2032,
    "length</w>": 2033,
    "knew</w>": 2034,
    "origin": 2035,
    "ions</w>": 2036,
    "mel": 2037,
    "tha": 2038,
    "ching</w>": 2039,
    "mach": 2040,
    "satis": 2041,
    "ton</w>": 2042,
    "fits</w>": 2043,
    "sters</w>": 2044,
    "portion</w>": 2045,
    "donuts</w>": 2046,
    "fairly</w>": 2047,
    "slow</w>": 2048,
    "yourself</w>": 2049,
    "tro": 2050,
    "covered</w>": 2051,
    "sticky</w>": 2052,
    "giving</w>": 2053,
    "salsa</w>": 2054,
    "pricey</w>": 2055,
    "rolls</w>": 2056,
    "chin": 2057,
    "sandwic": 2058,
    "hood</w>": 2059,
    "overpriced</w>": 2060,
    "opinion</w>": 2061,
    "beaut": 2062,
    "difficult</w>": 2063,
    "massage</w>": 2064,
    "helped</w>": 2065,
    "ise</w>": 2066,
    "wise</w>": 2067,
    "paid</w>": 2068,
    "pieces</w>": 2069,
    "portions</w>": 2070,
    "design</w>": 2071,
    "option</w>": 2072,
    "supposed</w>": 2073,
    "neg": 2074,
    "stur": 2075,
    "experienc": 2076,
    "beers</w>": 2077,
    "totally</w>": 2078,
    "medium</w>": 2079,
    "game</w>": 2080,
    "usual</w>": 2081,
    "ners</w>": 2082,
    "rude</w>": 2083,
    "onic</w>": 2084,
    "brown</w>": 2085,
    "cover</w>": 2086,
    "lightwe": 2087,
    "lightweight</w>": 2088,
    "cafe</w>": 2089,
    "floor</w>": 2090,
    "supp": 2091,
    "ld": 2092,
    "xing</w>": 2093,
    "offered</w>": 2094,
    "saturday</w>": 2095,
    "sandwiches</w>": 2096,
    "lines</w>": 2097,
    "package</w>": 2098,
    "waste</w>": 2099,
    "gotten</w>": 2100,
    "larger</w>": 2101,
    "lad": 2102,
    "orleans</w>": 2103,
    "home": 2104,
    "addition</w>": 2105,
    "main</w>": 2106,
    "sitting</w>": 2107,
    "horrible</w>": 2108,
    "recently</w>": 2109,
    "ear": 2110,
    "honestly</w>": 2111,
    "nash": 2112,
    "appetizer</w>": 2113,
    "disp": 2114,
    "ol</w>": 2115,
    "bath</w>": 2116,
    "eye": 2117,
    "na</w>": 2118,
    "month</w>": 2119,
    "mean</w>": 2120,
    "replac": 2121,
    "air</w>": 2122,
    "ense</w>": 2123,
    "liqu": 2124,
    "possible</w>": 2125,
    "resi": 2126,
    "tight</w>": 2127,
    "care": 2128,
    "instructions</w>": 2129,
    "scrub</w>": 2130,
    "bartender</w>": 2131,
    "poo": 2132,
    "tails</w>": 2133,
    "egg</w>": 2134,
    "smaller</w>": 2135,
    "inform": 2136,
    "ie</w>": 2137,
    "fer": 2138,
    "eat": 2139,
    "hit</w>": 2140,
    "spots</w>": 2141,
    "bra": 2142,
    "rose</w>": 2143,
    "lips</w>": 2144,
    "amazon</w>": 2145,
    "knowle": 2146,
    "bill</w>": 2147,
    "doll": 2148,
    "coll": 2149,
    "fill</w>": 2150,
    "hed</w>": 2151,
    "heard</w>": 2152,
    "itali": 2153,
    "abo": 2154,
    "ort": 2155,
    "red": 2156,
    "process</w>": 2157,
    "requ": 2158,
    "beauty</w>": 2159,
    "reno</w>": 2160,
    "gives</w>": 2161,
    "ore": 2162,
    "organic</w>": 2163,
    "hydrating</w>": 2164,
    "sn": 2165,
    "mouth</w>": 2166,
    "sunday</w>": 2167,
    "creamy</w>": 2168,
    "previ": 2169,
    "guys</w>": 2170,
    "ical</w>": 2171,
    "men</w>": 2172,
    "eless</w>": 2173,
    "pick": 2174,
    "neighbor": 2175,
    "ink": 2176,
    "moist": 2177,
    "found": 2178,
    "quar": 2179,
    "ble": 2180,
    "ularly</w>": 2181,
    "auth": 2182,
    "site</w>": 2183,
    "adv": 2184,
    "simply</w>": 2185,
    "work": 2186,
    "lam": 2187,
    "watch</w>": 2188,
    "spe": 2189,
    "consider": 2190,
    "concer": 2191,
    "sear": 2192,
    "absorbs</w>": 2193,
    "chance</w>": 2194,
    "wow</w>": 2195,
    "bag": 2196,
    "view</w>": 2197,
    "birth": 2198,
    "mple</w>": 2199,
    "online</w>": 2200,
    "combin": 2201,
    "stly</w>": 2202,
    "stuff": 2203,
    "powder</w>": 2204,
    "evening</w>": 2205,
    "alco": 2206,
    "tor</w>": 2207,
    "contains</w>": 2208,
    "acid</w>": 2209,
    "effective</w>": 2210,
    "heat</w>": 2211,
    "accom": 2212,
    "past": 2213,
    "birthday</w>": 2214,
    "incredible</w>": 2215,
    "except</w>": 2216,
    "mush": 2217,
    "appo": 2218,
    "remember</w>": 2219,
    "ball</w>": 2220,
    "mirr": 2221,
    "fair</w>": 2222,
    "container</w>": 2223,
    "understand</w>": 2224,
    "ility</w>": 2225,
    "nashville</w>": 2226,
    "ency</w>": 2227,
    "turn</w>": 2228,
    "shave</w>": 2229,
    "extract</w>": 2230,
    "mixed</w>": 2231,
    "occas": 2232,
    "eyebro": 2233,
    "spend</w>": 2234,
    "authent": 2235,
    "potat": 2236,
    "dev": 2237,
    "basically</w>": 2238,
    "walking</w>": 2239,
    "sugge": 2240,
    "plain</w>": 2241,
    "sam": 2242,
    "refre": 2243,
    "rich</w>": 2244,
    "ita</w>": 2245,
    "ddle</w>": 2246,
    "sized</w>": 2247,
    "trac": 2248,
    "solid</w>": 2249,
    "lear": 2250,
    "mom": 2251,
    "true</w>": 2252,
    "shape</w>": 2253,
    "prot": 2254,
    "application</w>": 2255,
    "drying</w>": 2256,
    "gly": 2257,
    "center</w>": 2258,
    "pulled</w>": 2259,
    "thai</w>": 2260,
    "anywhere</w>": 2261,
    "provided</w>": 2262,
    "goo": 2263,
    "seriously</w>": 2264,
    "taken</w>": 2265,
    "proper": 2266,
    "di</w>": 2267,
    "baby</w>": 2268,
    "pota": 2269,
    "potato</w>": 2270,
    "finish</w>": 2271,
    "ki</w>": 2272,
    "mi</w>": 2273,
    "delivery</w>": 2274,
    "plan": 2275,
    "bon": 2276,
    "sort</w>": 2277,
    "number</w>": 2278,
    "negative</w>": 2279,
    "lavend": 2280,
    "pin": 2281,
    "tan": 2282,
    "packaging</w>": 2283,
    "razor</w>": 2284,
    "multiple</w>": 2285,
    "vo": 2286,
    "iled</w>": 2287,
    "plates</w>": 2288,
    "smooth": 2289,
    "closed</w>": 2290,
    "desk</w>": 2291,
    "packed</w>": 2292,
    "filled</w>": 2293,
    "han": 2294,
    "wearing</w>": 2295,
    "neck</w>": 2296,
    "bite</w>": 2297,
    "remin": 2298,
    "wers</w>": 2299,
    "mexican</w>": 2300,
    "generous</w>": 2301,
    "ities</w>": 2302,
    "choose</w>": 2303,
    "including</w>": 2304,
    "appoint": 2305,
    "gger</w>": 2306,
    "areas</w>": 2307,
    "batter": 2308,
    "keeps</w>": 2309,
    "spar": 2310,
    "current</w>": 2311,
    "lip": 2312,
    "break</w>": 2313,
    "bey": 2314,
    "straight</w>": 2315,
    "temp": 2316,
    "bowl</w>": 2317,
    "potatoes</w>": 2318,
    "taco</w>": 2319,
    "blo": 2320,
    "other": 2321,
    "upon</w>": 2322,
    "spec": 2323,
    "employees</w>": 2324,
    "gor": 2325,
    "neighborhood</w>": 2326,
    "oning</w>": 2327,
    "roller</w>": 2328,
    "fro": 2329,
    "choices</w>": 2330,
    "rel": 2331,
    "obvi": 2332,
    "staying</w>": 2333,
    "tures</w>": 2334,
    "veget": 2335,
    "middle</w>": 2336,
    "asi": 2337,
    "ining</w>": 2338,
    "weird</w>": 2339,
    "base</w>": 2340,
    "allo": 2341,
    "reduc": 2342,
    "vac": 2343,
    "prac": 2344,
    "vit": 2345,
    "ashes</w>": 2346,
    "foundation</w>": 2347,
    "prepared</w>": 2348,
    "we've</w>": 2349,
    "paper</w>": 2350,
    "authentic</w>": 2351,
    "seat</w>": 2352,
    "park</w>": 2353,
    "summer</w>": 2354,
    "italian</w>": 2355,
    "yo": 2356,
    "grits</w>": 2357,
    "ler</w>": 2358,
    "means</w>": 2359,
    "crowded</w>": 2360,
    "packaged</w>": 2361,
    "ging</w>": 2362,
    "crisp": 2363,
    "blend</w>": 2364,
    "soa": 2365,
    "lady</w>": 2366,
    "headbands</w>": 2367,
    "coat</w>": 2368,
    "moisture</w>": 2369,
    "lather</w>": 2370,
    "remover</w>": 2371,
    "friday</w>": 2372,
    "grab</w>": 2373,
    "cro": 2374,
    "aded</w>": 2375,
    "ghts</w>": 2376,
    "ship</w>": 2377,
    "deal": 2378,
    "matter</w>": 2379,
    "vegetari": 2380,
    "ached</w>": 2381,
    "ambiance</w>": 2382,
    "grilled</w>": 2383,
    "vir": 2384,
    "ption</w>": 2385,
    "card</w>": 2386,
    "usage</w>": 2387,
    "ests</w>": 2388,
    "saying</w>": 2389,
    "ics</w>": 2390,
    "market</w>": 2391,
    "world</w>": 2392,
    "lavender</w>": 2393,
    "use": 2394,
    "spa</w>": 2395,
    "tee": 2396,
    "homemade</w>": 2397,
    "dirty</w>": 2398,
    "level</w>": 2399,
    "berry</w>": 2400,
    "stays</w>": 2401,
    "fabul": 2402,
    "tioned</w>": 2403,
    "forward</w>": 2404,
    "separ": 2405,
    "thicker</w>": 2406,
    "above</w>": 2407,
    "ade</w>": 2408,
    "sorry</w>": 2409,
    "mirror</w>": 2410,
    "power</w>": 2411,
    "hur": 2412,
    "vy</w>": 2413,
    "well": 2414,
    "rely</w>": 2415,
    "mary</w>": 2416,
    "convenient</w>": 2417,
    "ele": 2418,
    "ten": 2419,
    "leaving</w>": 2420,
    "foot</w>": 2421,
    "curly</w>": 2422,
    "ce": 2423,
    "gro": 2424,
    "ain": 2425,
    "gl": 2426,
    "standard</w>": 2427,
    "outstanding</w>": 2428,
    "fabulous</w>": 2429,
    "keeping</w>": 2430,
    "split</w>": 2431,
    "wea": 2432,
    "oysters</w>": 2433,
    "personally</w>": 2434,
    "noodles</w>": 2435,
    "accommo": 2436,
    "oof</w>": 2437,
    "mac</w>": 2438,
    "screen</w>": 2439,
    "awful</w>": 2440,
    "weren't</w>": 2441,
    "wide</w>": 2442,
    "considering</w>": 2443,
    "moder": 2444,
    "certain": 2445,
    "certainly</w>": 2446,
    "dried</w>": 2447,
    "jar</w>": 2448,
    "essential</w>": 2449,
    "bright</w>": 2450,
    "lol</w>": 2451,
    "otherwise</w>": 2452,
    "personal</w>": 2453,
    "aper</w>": 2454,
    "oz</w>": 2455,
    "lock</w>": 2456,
    "shou": 2457,
    "gard": 2458,
    "loud</w>": 2459,
    "orange</w>": 2460,
    "visiting</w>": 2461,
    "cau": 2462,
    "test</w>": 2463,
    "flavorful</w>": 2464,
    "zen</w>": 2465,
    "adver": 2466,
    "heads</w>": 2467,
    "mper": 2468,
    "dge": 2469,
    "lik": 2470,
    "fresh": 2471,
    "mal": 2472,
    "correc": 2473,
    "normal</w>": 2474,
    "pull</w>": 2475,
    "sheet</w>": 2476,
    "sausage</w>": 2477,
    "cup</w>": 2478,
    "ice": 2479,
    "mix</w>": 2480,
    "consistency</w>": 2481,
    "ual</w>": 2482,
    "ana</w>": 2483,
    "grow": 2484,
    "sticks</w>": 2485,
    "alcoho": 2486,
    "applied</w>": 2487,
    "teeth</w>": 2488,
    "skin": 2489,
    "weight</w>": 2490,
    "spent</w>": 2491,
    "dog</w>": 2492,
    "treat</w>": 2493,
    "pepper": 2494,
    "boy</w>": 2495,
    "perha": 2496,
    "perhaps</w>": 2497,
    "comm": 2498,
    "cru": 2499,
    "sell": 2500,
    "exi": 2501,
    "bars</w>": 2502,
    "them": 2503,
    "orts</w>": 2504,
    "unless</w>": 2505,
    "eaten</w>": 2506,
    "margar": 2507,
    "boy": 2508,
    "san": 2509,
    "wedding</w>": 2510,
    "bene": 2511,
    "hum": 2512,
    "bucks</w>": 2513,
    "pair</w>": 2514,
    "wrap</w>": 2515,
    "cy</w>": 2516,
    "tion": 2517,
    "mm": 2518,
    "slee": 2519,
    "shin": 2520,
    "tube</w>": 2521,
    "applying</w>": 2522,
    "balm</w>": 2523,
    "eyelashes</w>": 2524,
    "young</w>": 2525,
    "bby</w>": 2526,
    "single</w>": 2527,
    "vibe</w>": 2528,
    "gy</w>": 2529,
    "scu": 2530,
    "import": 2531,
    "dies</w>": 2532,
    "atten": 2533,
    "ta</w>": 2534,
    "ams</w>": 2535,
    "located</w>": 2536,
    "combination</w>": 2537,
    "wards</w>": 2538,
    "limited</w>": 2539,
    "great": 2540,
    "balls</w>": 2541,
    "rout": 2542,
    "lac": 2543,
    "tuc": 2544,
    "crispy</w>": 2545,
    "problems</w>": 2546,
    "sent</w>": 2547,
    "bare": 2548,
    "ses": 2549,
    "wrink": 2550,
    "liquid</w>": 2551,
    "pasta</w>": 2552,
    "again": 2553,
    "servers</w>": 2554,
    "imag": 2555,
    "decor": 2556,
    "bers</w>": 2557,
    "dep": 2558,
    "likely</w>": 2559,
    "fic": 2560,
    "follo": 2561,
    "thinking</w>": 2562,
    "hate</w>": 2563,
    "wood</w>": 2564,
    "vin": 2565,
    "deliver": 2566,
    "flower</w>": 2567,
    "specials</w>": 2568,
    "pain": 2569,
    "kore": 2570,
    "information</w>": 2571,
    "south</w>": 2572,
    "attrac": 2573,
    "cap</w>": 2574,
    "alcohol</w>": 2575,
    "iron</w>": 2576,
    "gently</w>": 2577,
    "cloth</w>": 2578,
    "actual</w>": 2579,
    "turned</w>": 2580,
    "indivi": 2581,
    "individu": 2582,
    "ato</w>": 2583,
    "reasonably</w>": 2584,
    "missing</w>": 2585,
    "sign</w>": 2586,
    "alone</w>": 2587,
    "through": 2588,
    "selves</w>": 2589,
    "mention</w>": 2590,
    "greek</w>": 2591,
    "schoo": 2592,
    "whel": 2593,
    "yers</w>": 2594,
    "fic</w>": 2595,
    "board</w>": 2596,
    "cin": 2597,
    "original</w>": 2598,
    "met": 2599,
    "brands</w>": 2600,
    "tooth": 2601,
    "comb</w>": 2602,
    "scrun": 2603,
    "ingly</w>": 2604,
    "chy</w>": 2605,
    "safe</w>": 2606,
    "cked</w>": 2607,
    "mbl": 2608,
    "class": 2609,
    "milk</w>": 2610,
    "plan</w>": 2611,
    "inf": 2612,
    "treatment</w>": 2613,
    "building</w>": 2614,
    "mater": 2615,
    "mom</w>": 2616,
    "reading</w>": 2617,
    "types</w>": 2618,
    "aging</w>": 2619,
    "cleaner</w>": 2620,
    "wax</w>": 2621,
    "cant</w>": 2622,
    "glu": 2623,
    "sturdy</w>": 2624,
    "alur": 2625,
    "inv": 2626,
    "fy</w>": 2627,
    "cocktail</w>": 2628,
    "adverti": 2629,
    "wrapped</w>": 2630,
    "filling</w>": 2631,
    "amer": 2632,
    "satisfied</w>": 2633,
    "meals</w>": 2634,
    "shopping</w>": 2635,
    "fix</w>": 2636,
    "tend</w>": 2637,
    "total</w>": 2638,
    "visited</w>": 2639,
    "chef</w>": 2640,
    "sche": 2641,
    "cheaper</w>": 2642,
    "picture</w>": 2643,
    "ight": 2644,
    "management</w>": 2645,
    "orders</w>": 2646,
    "mess</w>": 2647,
    "disappointing</w>": 2648,
    "garl": 2649,
    "continue</w>": 2650,
    "ior</w>": 2651,
    "itas</w>": 2652,
    "gam": 2653,
    "gorge": 2654,
    "buffet</w>": 2655,
    "chinese</w>": 2656,
    "empty</w>": 2657,
    "whe": 2658,
    "pet": 2659,
    "buying</w>": 2660,
    "honey</w>": 2661,
    "fruit</w>": 2662,
    "lasts</w>": 2663,
    "curls</w>": 2664,
    "headband</w>": 2665,
    "hyalur": 2666,
    "patio</w>": 2667,
    "soft": 2668,
    "ia</w>": 2669,
    "biscu": 2670,
    "tastes</w>": 2671,
    "met</w>": 2672,
    "avoid</w>": 2673,
    "die</w>": 2674,
    "ized</w>": 2675,
    "luc": 2676,
    "travel": 2677,
    "traditi": 2678,
    "veggie</w>": 2679,
    "medioc": 2680,
    "mediocre</w>": 2681,
    "various</w>": 2682,
    "beyond</w>": 2683,
    "he's</w>": 2684,
    "appro": 2685,
    "apple</w>": 2686,
    "air": 2687,
    "downtown</w>": 2688,
    "guests</w>": 2689,
    "flor": 2690,
    "scra": 2691,
    "miss</w>": 2692,
    "gry</w>": 2693,
    "grand": 2694,
    "whatever</w>": 2695,
    "moved</w>": 2696,
    "reli": 2697,
    "section</w>": 2698,
    "bland</w>": 2699,
    "mostly</w>": 2700,
    "poor</w>": 2701,
    "range</w>": 2702,
    "seasoned</w>": 2703,
    "careful</w>": 2704,
    "save</w>": 2705,
    "soothing</w>": 2706,
    "yl</w>": 2707,
    "exfoliating</w>": 2708,
    "ades</w>": 2709,
    "press</w>": 2710,
    "pool</w>": 2711,
    "greeted</w>": 2712,
    "si</w>": 2713,
    "woman</w>": 2714,
    "throughout</w>": 2715,
    "event</w>": 2716,
    "apo": 2717,
    "mes": 2718,
    "tional</w>": 2719,
    "vegan</w>": 2720,
    "hoping</w>": 2721,
    "book</w>": 2722,
    "suggest</w>": 2723,
    "anno": 2724,
    "attention</w>": 2725,
    "hear</w>": 2726,
    "running</w>": 2727,
    "overly</w>": 2728,
    "port</w>": 2729,
    "strip</w>": 2730,
    "school</w>": 2731,
    "desp": 2732,
    "entre": 2733,
    "continu": 2734,
    "normally</w>": 2735,
    "frequ": 2736,
    "refreshing</w>": 2737,
    "particular</w>": 2738,
    "button</w>": 2739,
    "vide": 2740,
    "barely</w>": 2741,
    "perfu": 2742,
    "moisturized</w>": 2743,
    "dul": 2744,
    "pie</w>": 2745,
    "has": 2746,
    "cocktails</w>": 2747,
    "lish": 2748,
    "six</w>": 2749,
    "provide</w>": 2750,
    "ious</w>": 2751,
    "zer": 2752,
    "shar": 2753,
    "cit": 2754,
    "lemon</w>": 2755,
    "fig": 2756,
    "bla": 2757,
    "photo": 2758,
    "bigger</w>": 2759,
    "garlic</w>": 2760,
    "pop": 2761,
    "corn</w>": 2762,
    "anyway</w>": 2763,
    "wall</w>": 2764,
    "rat": 2765,
    "lamb</w>": 2766,
    "share</w>": 2767,
    "gorgeous</w>": 2768,
    "despite</w>": 2769,
    "tar": 2770,
    "itude</w>": 2771,
    "cl": 2772,
    "boyfriend</w>": 2773,
    "double</w>": 2774,
    "mage</w>": 2775,
    "file</w>": 2776,
    "proof</w>": 2777,
    "scrunchi": 2778,
    "kin</w>": 2779,
    "ines</w>": 2780,
    "classic</w>": 2781,
    "corner</w>": 2782,
    "dip</w>": 2783,
    "lies</w>": 2784,
    "setting</w>": 2785,
    "ances</w>": 2786,
    "cheese": 2787,
    "chose</w>": 2788,
    "agre": 2789,
    "nola</w>": 2790,
    "meat": 2791,
    "girls</w>": 2792,
    "ingredient</w>": 2793,
    "mped</w>": 2794,
    "sizes</w>": 2795,
    "assu": 2796,
    "vegetarian</w>": 2797,
    "val</w>": 2798,
    "hes": 2799,
    "seed</w>": 2800,
    "stret": 2801,
    "contro": 2802,
    "shine</w>": 2803,
    "skinc": 2804,
    "skincare</w>": 2805,
    "amin</w>": 2806,
    "scented</w>": 2807,
    "hydrated</w>": 2808,
    "story</w>": 2809,
    "wel</w>": 2810,
    "beat</w>": 2811,
    "lla</w>": 2812,
    "crust</w>": 2813,
    "finding</w>": 2814,
    "van": 2815,
    "talk</w>": 2816,
    "mista": 2817,
    "previous</w>": 2818,
    "folks</w>": 2819,
    "yum</w>": 2820,
    "adm": 2821,
    "recommend": 2822,
    "apolo": 2823,
    "machine</w>": 2824,
    "bunch</w>": 2825,
    "ops</w>": 2826,
    "arti": 2827,
    "surprise</w>": 2828,
    "state</w>": 2829,
    "appreciate</w>": 2830,
    "maj": 2831,
    "sty</w>": 2832,
    "selec": 2833,
    "picked</w>": 2834,
    "bo</w>": 2835,
    "dryer</w>": 2836,
    "compared</w>": 2837,
    "ders</w>": 2838,
    "entrees</w>": 2839,
    "ppy</w>": 2840,
    "mins</w>": 2841,
    "dress</w>": 2842,
    "weather</w>": 2843,
    "somewhat</w>": 2844,
    "deser": 2845,
    "typical</w>": 2846,
    "squee": 2847,
    "toast</w>": 2848,
    "hoo": 2849,
    "just": 2850,
    "manic": 2851,
    "iner</w>": 2852,
    "sponge</w>": 2853,
    "tons</w>": 2854,
    "bun</w>": 2855,
    "bub": 2856,
    "anta</w>": 2857,
    "checked</w>": 2858,
    "estab": 2859,
    "mentioned</w>": 2860,
    "sour</w>": 2861,
    "necess": 2862,
    "putting</w>": 2863,
    "crazy</w>": 2864,
    "mps</w>": 2865,
    "incredibly</w>": 2866,
    "pictures</w>": 2867,
    "ish</w>": 2868,
    "appointment</w>": 2869,
    "write</w>": 2870,
    "cooki": 2871,
    "fall</w>": 2872,
    "ex</w>": 2873,
    "super": 2874,
    "afford": 2875,
    "movi": 2876,
    "quiet</w>": 2877,
    "office</w>": 2878,
    "roast</w>": 2879,
    "stuck</w>": 2880,
    "law</w>": 2881,
    "tips</w>": 2882,
    "fter</w>": 2883,
    "ppers</w>": 2884,
    "whether</w>": 2885,
    "ase</w>": 2886,
    "update</w>": 2887,
    "pale": 2888,
    "retin": 2889,
    "absorb</w>": 2890,
    "dead</w>": 2891,
    "else": 2892,
    "swee": 2893,
    "particularly</w>": 2894,
    "tuna</w>": 2895,
    "atu": 2896,
    "baked</w>": 2897,
    "rating</w>": 2898,
    "combo</w>": 2899,
    "offers</w>": 2900,
    "discount</w>": 2901,
    "move</w>": 2902,
    "roo": 2903,
    "sports</w>": 2904,
    "onion</w>": 2905,
    "partment</w>": 2906,
    "ban</w>": 2907,
    "contac": 2908,
    "paying</w>": 2909,
    "cir": 2910,
    "ased</w>": 2911,
    "washed</w>": 2912,
    "reservation</w>": 2913,
    "host": 2914,
    "nearly</w>": 2915,
    "sw": 2916,
    "burri": 2917,
    "burrito</w>": 2918,
    "sleep</w>": 2919,
    "ox": 2920,
    "wipe</w>": 2921,
    "dispen": 2922,
    "vitamin</w>": 2923,
    "pores</w>": 2924,
    "clip</w>": 2925,
    "cleansing</w>": 2926,
    "tender</w>": 2927,
    "rock</w>": 2928,
    "ffle</w>": 2929,
    "thor": 2930,
    "appar": 2931,
    "iss": 2932,
    "bom": 2933,
    "bartenders</w>": 2934,
    "knowledge": 2935,
    "knowledgeable</w>": 2936,
    "cocon": 2937,
    "glo": 2938,
    "returned</w>": 2939,
    "aller": 2940,
    "finished</w>": 2941,
    "ski": 2942,
    "notch</w>": 2943,
    "tamp": 2944,
    "stea": 2945,
    "consider</w>": 2946,
    "traditional</w>": 2947,
    "pass</w>": 2948,
    "prefer": 2949,
    "cups</w>": 2950,
    "secon": 2951,
    "hang</w>": 2952,
    "attitude</w>": 2953,
    "effici": 2954,
    "stem</w>": 2955,
    "sets</w>": 2956,
    "photo</w>": 2957,
    "shot</w>": 2958,
    "stuffed</w>": 2959,
    "rubb": 2960,
    "winter</w>": 2961,
    "mild</w>": 2962,
    "irritation</w>": 2963,
    "aloe</w>": 2964,
    "wipes</w>": 2965,
    "against</w>": 2966,
    "volu": 2967,
    "foam</w>": 2968,
    "somewhere</w>": 2969,
    "outdoor</w>": 2970,
    "convers": 2971,
    "action</w>": 2972,
    "chain</w>": 2973,
    "sadly</w>": 2974,
    "expecting</w>": 2975,
    "straight": 2976,
    "peel</w>": 2977,
    "envir": 2978,
    "environ": 2979,
    "gum": 2980,
    "sun</w>": 2981,
    "complaint</w>": 2982,
    "talking</w>": 2983,
    "wash": 2984,
    "obviously</w>": 2985,
    "shee": 2986,
    "lights</w>": 2987,
    "charged</w>": 2988,
    "delivered</w>": 2989,
    "carry</w>": 2990,
    "plat": 2991,
    "create</w>": 2992,
    "jer": 2993,
    "effect</w>": 2994,
    "cc": 2995,
    "basic</w>": 2996,
    "known</w>": 2997,
    "nose</w>": 2998,
    "nor</w>": 2999,
    "fancy</w>": 3000,
    "gif": 3001,
    "hairs</w>": 3002,
    "gold</w>": 3003,
    "we're</w>": 3004,
    "towel</w>": 3005,
    "purple</w>": 3006,
    "purpo": 3007,
    "isnt</w>": 3008,
    "aware</w>": 3009,
    "diner</w>": 3010,
    "terri": 3011,
    "je": 3012,
    "salmon</w>": 3013,
    "ared</w>": 3014,
    "alter": 3015,
    "appetizers</w>": 3016,
    "tv</w>": 3017,
    "icle</w>": 3018,
    "mentary</w>": 3019,
    "tub</w>": 3020,
    "establish": 3021,
    "coconut</w>": 3022,
    "ells</w>": 3023,
    "stores</w>": 3024,
    "ounds</w>": 3025,
    "goat</w>": 3026,
    "day": 3027,
    "memor": 3028,
    "tle</w>": 3029,
    "version</w>": 3030,
    "tampa</w>": 3031,
    "brow": 3032,
    "accommod": 3033,
    "dressing</w>": 3034,
    "phi": 3035,
    "unk</w>": 3036,
    "material</w>": 3037,
    "forget</w>": 3038,
    "web": 3039,
    "salads</w>": 3040,
    "favorites</w>": 3041,
    "sales</w>": 3042,
    "bonus</w>": 3043,
    "form</w>": 3044,
    "general</w>": 3045,
    "outs</w>": 3046,
    "ro</w>": 3047,
    "modern</w>": 3048,
    "itch</w>": 3049,
    "crowd</w>": 3050,
    "club</w>": 3051,
    "bean</w>": 3052,
    "changed</w>": 3053,
    "search</w>": 3054,
    "t's</w>": 3055,
    "happened</w>": 3056,
    "dium</w>": 3057,
    "tools</w>": 3058,
    "unit</w>": 3059,
    "slight</w>": 3060,
    "rough</w>": 3061,
    "hyaluronic</w>": 3062,
    "ide</w>": 3063,
    "salt</w>": 3064,
    "nights</w>": 3065,
    "ya</w>": 3066,
    "suggesti": 3067,
    "decision</w>": 3068,
    "knows</w>": 3069,
    "crac": 3070,
    "vs</w>": 3071,
    "pop</w>": 3072,
    "expect": 3073,
    "window</w>": 3074,
    "ze": 3075,
    "noon</w>": 3076,
    "opening</w>": 3077,
    "dr</w>": 3078,
    "ised</w>": 3079,
    "serving</w>": 3080,
    "description</w>": 3081,
    "lack</w>": 3082,
    "equ": 3083,
    "singly</w>": 3084,
    "seeing</w>": 3085,
    "improve": 3086,
    "ha</w>": 3087,
    "returning</w>": 3088,
    "non</w>": 3089,
    "ene</w>": 3090,
    "wont</w>": 3091,
    "ica</w>": 3092,
    "casual</w>": 3093,
    "shaving</w>": 3094,
    "receive</w>": 3095,
    "min</w>": 3096,
    "juice</w>": 3097,
    "manicure</w>": 3098,
    "blon": 3099,
    "routine</w>": 3100,
    "ling": 3101,
    "matt": 3102,
    "abr": 3103,
    "sponges</w>": 3104,
    "glycer": 3105,
    "biggest</w>": 3106,
    "frozen</w>": 3107,
    "ppings</w>": 3108,
    "santa</w>": 3109,
    "forever</w>": 3110,
    "tomato</w>": 3111,
    "fat</w>": 3112,
    "commun": 3113,
    "cleaned</w>": 3114,
    "indian</w>": 3115,
    "tech": 3116,
    "follow</w>": 3117,
    "girl": 3118,
    "compar": 3119,
    "present": 3120,
    "joint</w>": 3121,
    "veggies</w>": 3122,
    "moist</w>": 3123,
    "list": 3124,
    "bud": 3125,
    "questions</w>": 3126,
    "figure</w>": 3127,
    "layer</w>": 3128,
    "pure</w>": 3129,
    "tasting</w>": 3130,
    "conf": 3131,
    "hungry</w>": 3132,
    "hea": 3133,
    "ba</w>": 3134,
    "xes</w>": 3135,
    "west</w>": 3136,
    "korean</w>": 3137,
    "ages</w>": 3138,
    "none</w>": 3139,
    "ran</w>": 3140,
    "bother</w>": 3141,
    "directions</w>": 3142,
    "fell</w>": 3143,
    "peel": 3144,
    "vent</w>": 3145,
    "gem</w>": 3146,
    "subst": 3147,
    "cook</w>": 3148,
    "chan": 3149,
    "ino</w>": 3150,
    "pen": 3151,
    "imagine</w>": 3152,
    "whisk": 3153,
    "pad</w>": 3154,
    "hosp": 3155,
    "back": 3156,
    "foods</w>": 3157,
    "likes</w>": 3158,
    "louis</w>": 3159,
    "ire</w>": 3160,
    "sample</w>": 3161,
    "sampl": 3162,
    "lemon": 3163,
    "properly</w>": 3164,
    "affordable</w>": 3165,
    "ground</w>": 3166,
    "donut</w>": 3167,
    "d's</w>": 3168,
    "surprisingly</w>": 3169,
    "cul": 3170,
    "step</w>": 3171,
    "compan": 3172,
    "reservations</w>": 3173,
    "pancakes</w>": 3174,
    "ner": 3175,
    "disgu": 3176,
    "hostess</w>": 3177,
    "thank": 3178,
    "mail</w>": 3179,
    "olive</w>": 3180,
    "thetic</w>": 3181,
    "sions</w>": 3182,
    "sugar</w>": 3183,
    "when": 3184,
    "cuc": 3185,
    "legs</w>": 3186,
    "plu": 3187,
    "damag": 3188,
    "toner</w>": 3189,
    "wrinkles</w>": 3190,
    "shiny</w>": 3191,
    "residue</w>": 3192,
    "solu": 3193,
    "bright": 3194,
    "begin": 3195,
    "blow</w>": 3196,
    "patr": 3197,
    "slo": 3198,
    "phen": 3199,
    "temper": 3200,
    "tone</w>": 3201,
    "net</w>": 3202,
    "apparently</w>": 3203,
    "hospit": 3204,
    "ya": 3205,
    "relaxing</w>": 3206,
    "ace": 3207,
    "future</w>": 3208,
    "ggy</w>": 3209,
    "ghtful</w>": 3210,
    "ental</w>": 3211,
    "wanting</w>": 3212,
    "shows</w>": 3213,
    "figu": 3214,
    "ries</w>": 3215,
    "important</w>": 3216,
    "moment</w>": 3217,
    "owners</w>": 3218,
    "beach</w>": 3219,
    "respon": 3220,
    "chemic": 3221,
    "broke</w>": 3222,
    "pedic": 3223,
    "pil": 3224,
    "complaints</w>": 3225,
    "sad</w>": 3226,
    "inexpensive</w>": 3227,
    "whenever</w>": 3228,
    "dit</w>": 3229,
    "shade</w>": 3230,
    "cket</w>": 3231,
    "handy</w>": 3232,
    "absorbed</w>": 3233,
    "tool</w>": 3234,
    "patches</w>": 3235,
    "pon</w>": 3236,
    "quarter</w>": 3237,
    "eyebrows</w>": 3238,
    "become</w>": 3239,
    "avoca": 3240,
    "dollar</w>": 3241,
    "impressive</w>": 3242,
    "curry</w>": 3243,
    "chili</w>": 3244,
    "rus": 3245,
    "em": 3246,
    "ahead</w>": 3247,
    "separate</w>": 3248,
    "traveling</w>": 3249,
    "ept</w>": 3250,
    "tage</w>": 3251,
    "beautifully</w>": 3252,
    "ley</w>": 3253,
    "fall": 3254,
    "interior</w>": 3255,
    "bak": 3256,
    "turkey</w>": 3257,
    "website</w>": 3258,
    "enly</w>": 3259,
    "figured</w>": 3260,
    "ldnt</w>": 3261,
    "asking</w>": 3262,
    "ten</w>": 3263,
    "system</w>": 3264,
    "mint</w>": 3265,
    "onto</w>": 3266,
    "ti</w>": 3267,
    "relati": 3268,
    "stat": 3269,
    "micro": 3270,
    "spark": 3271,
    "vity</w>": 3272,
    "older</w>": 3273,
    "held</w>": 3274,
    "pus": 3275,
    "pou": 3276,
    "washing</w>": 3277,
    "result</w>": 3278,
    "eyeliner</w>": 3279,
    "shadow</w>": 3280,
    "eyes": 3281,
    "redness</w>": 3282,
    "shaver</w>": 3283,
    "dicul": 3284,
    "dogs</w>": 3285,
    "torti": 3286,
    "toppings</w>": 3287,
    "avocado</w>": 3288,
    "trans": 3289,
    "establishment</w>": 3290,
    "venue</w>": 3291,
    "hing</w>": 3292,
    "below</w>": 3293,
    "positive</w>": 3294,
    "nific": 3295,
    "pon": 3296,
    "ired</w>": 3297,
    "themselves</w>": 3298,
    "parents</w>": 3299,
    "zi": 3300,
    "scoo": 3301,
    "ashi": 3302,
    "treated</w>": 3303,
    "gan</w>": 3304,
    "pho</w>": 3305,
    "holds</w>": 3306,
    "entree</w>": 3307,
    "ried</w>": 3308,
    "arance</w>": 3309,
    "cozy</w>": 3310,
    "lose</w>": 3311,
    "higher</w>": 3312,
    "starting</w>": 3313,
    "attractive</w>": 3314,
    "complete</w>": 3315,
    "designed</w>": 3316,
    "tran": 3317,
    "cup": 3318,
    "metal</w>": 3319,
    "fingers</w>": 3320,
    "formul": 3321,
    "workers</w>": 3322,
    "func": 3323,
    "rub</w>": 3324,
    "primer</w>": 3325,
    "ass</w>": 3326,
    "ridicul": 3327,
    "elsewhere</w>": 3328,
    "ham</w>": 3329,
    "mbled</w>": 3330,
    "conc": 3331,
    "rare</w>": 3332,
    "playing</w>": 3333,
    "gran": 3334,
    "realize</w>": 3335,
    "ella</w>": 3336,
    "black": 3337,
    "mother</w>": 3338,
    "aca": 3339,
    "cher": 3340,
    "moving</w>": 3341,
    "consistent</w>": 3342,
    "afternoon</w>": 3343,
    "visi": 3344,
    "clearly</w>": 3345,
    "popular</w>": 3346,
    "bon</w>": 3347,
    "good": 3348,
    "welcoming</w>": 3349,
    "oni</w>": 3350,
    "tough</w>": 3351,
    "lier</w>": 3352,
    "booked</w>": 3353,
    "everyday</w>": 3354,
    "removed</w>": 3355,
    "visits</w>": 3356,
    "mall</w>": 3357,
    "thi": 3358,
    "dows</w>": 3359,
    "chri": 3360,
    "tucson</w>": 3361,
    "shor": 3362,
    "kinda</w>": 3363,
    "smelled</w>": 3364,
    "puff": 3365,
    "health</w>": 3366,
    "lash</w>": 3367,
    "seconds</w>": 3368,
    "nu": 3369,
    "notice": 3370,
    "lamp</w>": 3371,
    "coverage</w>": 3372,
    "dries</w>": 3373,
    "silk</w>": 3374,
    "silic": 3375,
    "lipstick</w>": 3376,
    "experiences</w>": 3377,
    "onions</w>": 3378,
    "appreciated</w>": 3379,
    "minim": 3380,
    "fal": 3381,
    "conversation</w>": 3382,
    "ride</w>": 3383,
    "person": 3384,
    "cali": 3385,
    "childr": 3386,
    "everywhere</w>": 3387,
    "mole</w>": 3388,
    "cand": 3389,
    "drop</w>": 3390,
    "oo</w>": 3391,
    "twi": 3392,
    "phia</w>": 3393,
    "bour": 3394,
    "citr": 3395,
    "purchasing</w>": 3396,
    "gravy</w>": 3397,
    "sheets</w>": 3398,
    "spring</w>": 3399,
    "const": 3400,
    "lighter</w>": 3401,
    "iz": 3402,
    "nd</w>": 3403,
    "mented</w>": 3404,
    "pudding</w>": 3405,
    "sound</w>": 3406,
    "yog": 3407,
    "expla": 3408,
    "desserts</w>": 3409,
    "women</w>": 3410,
    "asp": 3411,
    "efficient</w>": 3412,
    "battery</w>": 3413,
    "thes</w>": 3414,
    "round</w>": 3415,
    "fur": 3416,
    "cucum": 3417,
    "pleasantly</w>": 3418,
    "loving</w>": 3419,
    "anymore</w>": 3420,
    "ease</w>": 3421,
    "butter": 3422,
    "mping</w>": 3423,
    "heavi": 3424,
    "softer</w>": 3425,
    "scrunchies</w>": 3426,
    "bits</w>": 3427,
    "menus</w>": 3428,
    "volume</w>": 3429,
    "sauces</w>": 3430,
    "altern": 3431,
    "fi</w>": 3432,
    "temperature</w>": 3433,
    "ate": 3434,
    "dist": 3435,
    "zz</w>": 3436,
    "adding</w>": 3437,
    "far": 3438,
    "cuis": 3439,
    "admit</w>": 3440,
    "tomat": 3441,
    "prior</w>": 3442,
    "include</w>": 3443,
    "pot": 3444,
    "lau": 3445,
    "sense</w>": 3446,
    "typically</w>": 3447,
    "rinse</w>": 3448,
    "philad": 3449,
    "philadel": 3450,
    "philadelphia</w>": 3451,
    "lived</w>": 3452,
    "spac": 3453,
    "opp": 3454,
    "circ": 3455,
    "biased</w>": 3456,
    "allows</w>": 3457,
    "sell</w>": 3458,
    "stry</w>": 3459,
    "happen</w>": 3460,
    "apart</w>": 3461,
    "holi": 3462,
    "lux": 3463,
    "mas</w>": 3464,
    "mes</w>": 3465,
    "cinna": 3466,
    "lett": 3467,
    "uce</w>": 3468,
    "control</w>": 3469,
    "hang": 3470,
    "class</w>": 3471,
    "blonde</w>": 3472,
    "spread</w>": 3473,
    "provides</w>": 3474,
    "depending</w>": 3475,
    "blades</w>": 3476,
    "thickness</w>": 3477,
    "syn": 3478,
    "acne</w>": 3479,
    "grocer": 3480,
    "living</w>": 3481,
    "they'll</w>": 3482,
    "son": 3483,
    "must": 3484,
    "flu": 3485,
    "oughly</w>": 3486,
    "situ": 3487,
    "pepper</w>": 3488,
    "barbar": 3489,
    "complimentary</w>": 3490,
    "edi": 3491,
    "ict</w>": 3492,
    "lish</w>": 3493,
    "welcome</w>": 3494,
    "word</w>": 3495,
    "ja": 3496,
    "stood</w>": 3497,
    "opted</w>": 3498,
    "les": 3499,
    "plant</w>": 3500,
    "major</w>": 3501,
    "steaks</w>": 3502,
    "stairs</w>": 3503,
    "forgot</w>": 3504,
    "swi": 3505,
    "changes</w>": 3506,
    "heart</w>": 3507,
    "they've</w>": 3508,
    "environment</w>": 3509,
    "hot": 3510,
    "grill</w>": 3511,
    "margaritas</w>": 3512,
    "doors</w>": 3513,
    "mess": 3514,
    "ters</w>": 3515,
    "rose": 3516,
    "need": 3517,
    "ah</w>": 3518,
    "jap": 3519,
    "tad</w>": 3520,
    "acti": 3521,
    "accid": 3522,
    "tap</w>": 3523,
    "team</w>": 3524,
    "bags</w>": 3525,
    "vate</w>": 3526,
    "disgusting</w>": 3527,
    "entu": 3528,
    "hip</w>": 3529,
    "ador": 3530,
    "glasses</w>": 3531,
    "overwhel": 3532,
    "doc": 3533,
    "ware</w>": 3534,
    "regi": 3535,
    "individually</w>": 3536,
    "generally</w>": 3537,
    "squeeze</w>": 3538,
    "damage</w>": 3539,
    "ouri": 3540,
    "leaf</w>": 3541,
    "match</w>": 3542,
    "solution</w>": 3543,
    "growth</w>": 3544,
    "retinol</w>": 3545,
    "irritate</w>": 3546,
    "user</w>": 3547,
    "strange</w>": 3548,
    "parts</w>": 3549,
    "ada</w>": 3550,
    "veh": 3551,
    "meh</w>": 3552,
    "eeded</w>": 3553,
    "mid</w>": 3554,
    "experienced</w>": 3555,
    "seats</w>": 3556,
    "ale</w>": 3557,
    "cap": 3558,
    "initi": 3559,
    "meant</w>": 3560,
    "tattoo</w>": 3561,
    "sharp</w>": 3562,
    "reasons</w>": 3563,
    "cott": 3564,
    "lets</w>": 3565,
    "spice</w>": 3566,
    "tick": 3567,
    "replace</w>": 3568,
    "shared</w>": 3569,
    "loaded</w>": 3570,
    "prompt</w>": 3571,
    "ue": 3572,
    "presentation</w>": 3573,
    "eld</w>": 3574,
    "games</w>": 3575,
    "polite</w>": 3576,
    "messy</w>": 3577,
    "necessary</w>": 3578,
    "passed</w>": 3579,
    "appearance</w>": 3580,
    "lob": 3581,
    "bloo": 3582,
    "neat</w>": 3583,
    "tz</w>": 3584,
    "fran": 3585,
    "ring</w>": 3586,
    "elec": 3587,
    "electr": 3588,
    "points</w>": 3589,
    "dy": 3590,
    "ini</w>": 3591,
    "expectations</w>": 3592,
    "nes": 3593,
    "sold</w>": 3594,
    "kets</w>": 3595,
    "disappointment</w>": 3596,
    "burn</w>": 3597,
    "magne": 3598,
    "adi": 3599,
    "christ": 3600,
    "ka</w>": 3601,
    "relatively</w>": 3602,
    "mushrooms</w>": 3603,
    "palette</w>": 3604,
    "gym</w>": 3605,
    "attached</w>": 3606,
    "rious</w>": 3607,
    "acces": 3608,
    "loose</w>": 3609,
    "bber</w>": 3610,
    "full": 3611,
    "clippers</w>": 3612,
    "toothbrush</w>": 3613,
    "shim": 3614,
    "adjust": 3615,
    "colored</w>": 3616,
    "odor": 3617,
    "cleans</w>": 3618,
    "darker</w>": 3619,
    "one's</w>": 3620,
    "vanil": 3621,
    "assi": 3622,
    "funny</w>": 3623,
    "omen": 3624,
    "barbara</w>": 3625,
    "machines</w>": 3626,
    "tow": 3627,
    "icing</w>": 3628,
    "mistake</w>": 3629,
    "duck</w>": 3630,
    "cuisine</w>": 3631,
    "part": 3632,
    "ref": 3633,
    "free": 3634,
    "country</w>": 3635,
    "helping</w>": 3636,
    "purse</w>": 3637,
    "trust</w>": 3638,
    "mood</w>": 3639,
    "movie</w>": 3640,
    "wood": 3641,
    "hole</w>": 3642,
    "awhile</w>": 3643,
    "cy": 3644,
    "regre": 3645,
    "pressure</w>": 3646,
    "worn</w>": 3647,
    "lobster</w>": 3648,
    "gon": 3649,
    "platter</w>": 3650,
    "locks</w>": 3651,
    "almon": 3652,
    "gue</w>": 3653,
    "smoothly</w>": 3654,
    "compet": 3655,
    "spin": 3656,
    "soaps</w>": 3657,
    "besides</w>": 3658,
    "craw": 3659,
    "o's</w>": 3660,
    "pain</w>": 3661,
    "nac": 3662,
    "cinnamon</w>": 3663,
    "inted</w>": 3664,
    "covers</w>": 3665,
    "damaged</w>": 3666,
    "concerned</w>": 3667,
    "twee": 3668,
    "interested</w>": 3669,
    "pract": 3670,
    "erful</w>": 3671,
    "rier</w>": 3672,
    "fabr": 3673,
    "useful</w>": 3674,
    "nouri": 3675,
    "dispenser</w>": 3676,
    "flos": 3677,
    "scents</w>": 3678,
    "waterproof</w>": 3679,
    "checking</w>": 3680,
    "greens</w>": 3681,
    "wy</w>": 3682,
    "sna": 3683,
    "patrons</w>": 3684,
    "bage</w>": 3685,
    "mc": 3686,
    "vanilla</w>": 3687,
    "mee": 3688,
    "hint</w>": 3689,
    "fixed</w>": 3690,
    "mill</w>": 3691,
    "realized</w>": 3692,
    "chairs</w>": 3693,
    "station</w>": 3694,
    "chic": 3695,
    "pean": 3696,
    "forni": 3697,
    "trou": 3698,
    "zero</w>": 3699,
    "shake</w>": 3700,
    "raw</w>": 3701,
    "skip</w>": 3702,
    "soda</w>": 3703,
    "omg</w>": 3704,
    "thri": 3705,
    "send</w>": 3706,
    "sses</w>": 3707,
    "ramen</w>": 3708,
    "accep": 3709,
    "lower</w>": 3710,
    "will": 3711,
    "delightful</w>": 3712,
    "correct</w>": 3713,
    "asian</w>": 3714,
    "she's</w>": 3715,
    "you'd</w>": 3716,
    "vet</w>": 3717,
    "dent</w>": 3718,
    "catch</w>": 3719,
    "oppor": 3720,
    "opportun": 3721,
    "reminds</w>": 3722,
    "patient</w>": 3723,
    "elling</w>": 3724,
    "discovered</w>": 3725,
    "sister</w>": 3726,
    "erous</w>": 3727,
    "allow</w>": 3728,
    "sunscreen</w>": 3729,
    "fly</w>": 3730,
    "tomatoes</w>": 3731,
    "cosm": 3732,
    "relax</w>": 3733,
    "lat": 3734,
    "requi": 3735,
    "replacement</w>": 3736,
    "holding</w>": 3737,
    "improvement</w>": 3738,
    "cucumber</w>": 3739,
    "lettuce</w>": 3740,
    "ability</w>": 3741,
    "essence</w>": 3742,
    "sthe</w>": 3743,
    "fake</w>": 3744,
    "falling</w>": 3745,
    "acr": 3746,
    "dry": 3747,
    "creams</w>": 3748,
    "liner</w>": 3749,
    "protec": 3750,
    "silicone</w>": 3751,
    "argan</w>": 3752,
    "synthetic</w>": 3753,
    "sodium</w>": 3754,
    "glut": 3755,
    "cab": 3756,
    "tch": 3757,
    "vegetables</w>": 3758,
    "brisk": 3759,
    "brisket</w>": 3760,
    "qua": 3761,
    "featu": 3762,
    "biscuits</w>": 3763,
    "oli</w>": 3764,
    "whiskey</w>": 3765,
    "dum": 3766,
    "take": 3767,
    "californi": 3768,
    "produce</w>": 3769,
    "missed</w>": 3770,
    "what's</w>": 3771,
    "signific": 3772,
    "ership</w>": 3773,
    "dropped</w>": 3774,
    "nasty</w>": 3775,
    "barre": 3776,
    "exceptional</w>": 3777,
    "replaced</w>": 3778,
    "rac": 3779,
    "ums</w>": 3780,
    "stron": 3781,
    "bourbon</w>": 3782,
    "ole</w>": 3783,
    "gumbo</w>": 3784,
    "formed</w>": 3785,
    "wines</w>": 3786,
    "smi": 3787,
    "ss": 3788,
    "budget</w>": 3789,
    "we'll</w>": 3790,
    "rate</w>": 3791,
    "ric": 3792,
    "cuban</w>": 3793,
    "lab": 3794,
    "enjoying</w>": 3795,
    "creative</w>": 3796,
    "bad": 3797,
    "app</w>": 3798,
    "bloody</w>": 3799,
    "thru</w>": 3800,
    "collection</w>": 3801,
    "pot</w>": 3802,
    "mid": 3803,
    "tonight</w>": 3804,
    "recent</w>": 3805,
    "shel": 3806,
    "monday</w>": 3807,
    "topped</w>": 3808,
    "pear": 3809,
    "ounce</w>": 3810,
    "ener": 3811,
    "progra": 3812,
    "program</w>": 3813,
    "mus</w>": 3814,
    "american</w>": 3815,
    "credit</w>": 3816,
    "bund": 3817,
    "charging</w>": 3818,
    "reac": 3819,
    "practice</w>": 3820,
    "thats</w>": 3821,
    "pulling</w>": 3822,
    "accessor": 3823,
    "subtle</w>": 3824,
    "noticeable</w>": 3825,
    "ears</w>": 3826,
    "bron": 3827,
    "stretch</w>": 3828,
    "caps</w>": 3829,
    "silky</w>": 3830,
    "rollers</w>": 3831,
    "combs</w>": 3832,
    "detang": 3833,
    "hydration</w>": 3834,
    "locations</w>": 3835,
    "dden</w>": 3836,
    "succ": 3837,
    "salty</w>": 3838,
    "absolute</w>": 3839,
    "juicy</w>": 3840,
    "towels</w>": 3841,
    "cont": 3842,
    "genu": 3843,
    "wants</w>": 3844,
    "spectac": 3845,
    "complain</w>": 3846,
    "concept</w>": 3847,
    "flexi": 3848,
    "guaca": 3849,
    "guacamole</w>": 3850,
    "photos</w>": 3851,
    "kinds</w>": 3852,
    "pa</w>": 3853,
    "ys": 3854,
    "third</w>": 3855,
    "yester": 3856,
    "accommodating</w>": 3857,
    "ators</w>": 3858,
    "ounc": 3859,
    "faster</w>": 3860,
    "speak</w>": 3861,
    "advertised</w>": 3862,
    "airport</w>": 3863,
    "citrus</w>": 3864,
    "smoke</w>": 3865,
    "ord</w>": 3866,
    "staff": 3867,
    "condition</w>": 3868,
    "worse</w>": 3869,
    "ill</w>": 3870,
    "picky</w>": 3871,
    "boxes</w>": 3872,
    "via</w>": 3873,
    "preci": 3874,
    "certain</w>": 3875,
    "odd</w>": 3876,
    "gross</w>": 3877,
    "pedicure</w>": 3878,
    "continued</w>": 3879,
    "bell</w>": 3880,
    "soggy</w>": 3881,
    "begin</w>": 3882,
    "grade</w>": 3883,
    "ets</w>": 3884,
    "learn</w>": 3885,
    "long": 3886,
    "sensiti": 3887,
    "cuts</w>": 3888,
    "services</w>": 3889,
    "nacho": 3890,
    "nachos</w>": 3891,
    "placed</w>": 3892,
    "tical</w>": 3893,
    "tack": 3894,
    "walls</w>": 3895,
    "fying</w>": 3896,
    "road</w>": 3897,
    "bow</w>": 3898,
    "repair</w>": 3899,
    "hope": 3900,
    "storage</w>": 3901,
    "ros": 3902,
    "pocket</w>": 3903,
    "litter</w>": 3904,
    "peeling</w>": 3905,
    "layers</w>": 3906,
    "coar": 3907,
    "feature</w>": 3908,
    "inches</w>": 3909,
    "perfume</w>": 3910,
    "lasting</w>": 3911,
    "glue</w>": 3912,
    "compact</w>": 3913,
    "exten": 3914,
    "ela": 3915,
    "unbiased</w>": 3916,
    "matte</w>": 3917,
    "durable</w>": 3918,
    "hydrates</w>": 3919,
    "guide</w>": 3920,
    "ridiculous</w>": 3921,
    "crun": 3922,
    "craving</w>": 3923,
    "omenal</w>": 3924,
    "wifi</w>": 3925,
    "mini</w>": 3926,
    "fridge</w>": 3927,
    "writing</w>": 3928,
    "pret": 3929,
    "instantly</w>": 3930,
    "described</w>": 3931,
    "rated</w>": 3932,
    "ld've</w>": 3933,
    "takeout</w>": 3934,
    "california</w>": 3935,
    "dine</w>": 3936,
    "lost</w>": 3937,
    "cotton</w>": 3938,
    "dealership</w>": 3939,
    "stone</w>": 3940,
    "iling</w>": 3941,
    "apologi": 3942,
    "cookies</w>": 3943,
    "disappoint</w>": 3944,
    "dan</w>": 3945,
    "dest</w>": 3946,
    "endy</w>": 3947,
    "paint</w>": 3948,
    "girlfriend</w>": 3949,
    "you've</w>": 3950,
    "doub": 3951,
    "willing</w>": 3952,
    "cris": 3953,
    "rom": 3954,
    "slices</w>": 3955,
    "serves</w>": 3956,
    "rib</w>": 3957,
    "sk</w>": 3958,
    "dollars</w>": 3959,
    "question</w>": 3960,
    "followed</w>": 3961,
    "enjoy": 3962,
    "cars</w>": 3963,
    "eyebrow</w>": 3964,
    "shu": 3965,
    "gyro</w>": 3966,
    "hadn't</w>": 3967,
    "possibly</w>": 3968,
    "research</w>": 3969,
    "let's</w>": 3970,
    "centr": 3971,
    "impossible</w>": 3972,
    "god</w>": 3973,
    "cosmet": 3974,
    "adds</w>": 3975,
    "mr</w>": 3976,
    "christmas</w>": 3977,
    "gifts</w>": 3978,
    "showed</w>": 3979,
    "roun": 3980,
    "gray</w>": 3981,
    "email</w>": 3982,
    "hummus</w>": 3983,
    "attemp": 3984,
    "cashi": 3985,
    "finger</w>": 3986,
    "oper": 3987,
    "co</w>": 3988,
    "purpose</w>": 3989,
    "happens</w>": 3990,
    "drops</w>": 3991,
    "scrubb": 3992,
    "acryl": 3993,
    "ens": 3994,
    "mist</w>": 3995,
    "applicator</w>": 3996,
    "removing</w>": 3997,
    "seller</w>": 3998,
    "shamp": 3999,
    "shampoo": 4000,
    "wigs</w>": 4001,
    "grab": 4002,
    "fans</w>": 4003,
    "crunchy</w>": 4004,
    "thoroughly</w>": 4005,
    "ean</w>": 4006,
    "straw": 4007,
    "watching</w>": 4008,
    "phenomenal</w>": 4009,
    "thered</w>": 4010,
    "elev": 4011,
    "sett": 4012,
    "mel</w>": 4013,
    "spectacular</w>": 4014,
    "awk": 4015,
    "dough</w>": 4016,
    "compliments</w>": 4017,
    "near": 4018,
    "nearby</w>": 4019,
    "ards</w>": 4020,
    "ambience</w>": 4021,
    "shops</w>": 4022,
    "thrilled</w>": 4023,
    "firm</w>": 4024,
    "err": 4025,
    "pers</w>": 4026,
    "rings</w>": 4027,
    "va</w>": 4028,
    "wonder</w>": 4029,
    "recep": 4030,
    "bes</w>": 4031,
    "access</w>": 4032,
    "rest": 4033,
    "ory</w>": 4034,
    "flowers</w>": 4035,
    "inary</w>": 4036,
    "opportunity</w>": 4037,
    "neither</w>": 4038,
    "bou": 4039,
    "kid</w>": 4040,
    "dated</w>": 4041,
    "one": 4042,
    "repe": 4043,
    "perform": 4044,
    "suff": 4045,
    "ques": 4046,
    "crawfish</w>": 4047,
    "regar": 4048,
    "hesit": 4049,
    "arom": 4050,
    "includes</w>": 4051,
    "thern</w>": 4052,
    "construc": 4053,
    "afterwards</w>": 4054,
    "washes</w>": 4055,
    "throw</w>": 4056,
    "ami": 4057,
    "hopefully</w>": 4058,
    "anim": 4059,
    "lers</w>": 4060,
    "smelling</w>": 4061,
    "secure</w>": 4062,
    "barrier</w>": 4063,
    "bubbl": 4064,
    "soak</w>": 4065,
    "irritated</w>": 4066,
    "heels</w>": 4067,
    "naturally</w>": 4068,
    "ei</w>": 4069,
    "shea</w>": 4070,
    "grip</w>": 4071,
    "slip</w>": 4072,
    "product": 4073,
    "deodor": 4074,
    "exfoliation</w>": 4075,
    "poly": 4076,
    "hydro": 4077,
    "weekends</w>": 4078,
    "rid</w>": 4079,
    "milk": 4080,
    "ug": 4081,
    "alternative</w>": 4082,
    "vehicle</w>": 4083,
    "casino</w>": 4084,
    "powering</w>": 4085,
    "hear": 4086,
    "cracked</w>": 4087,
    "perfection</w>": 4088,
    "trouble</w>": 4089,
    "children</w>": 4090,
    "cooking</w>": 4091,
    "shame</w>": 4092,
    "goods</w>": 4093,
    "band": 4094,
    "bay</w>": 4095,
    "broth</w>": 4096,
    "yesterday</w>": 4097,
    "square</w>": 4098,
    "bil": 4099,
    "adul": 4100,
    "bc</w>": 4101,
    "ading</w>": 4102,
    "nature</w>": 4103,
    "ula</w>": 4104,
    "bakery</w>": 4105,
    "starts</w>": 4106,
    "mushroom</w>": 4107,
    "garden</w>": 4108,
    "earlier</w>": 4109,
    "asted</w>": 4110,
    "hype</w>": 4111,
    "medic": 4112,
    "chee": 4113,
    "beig": 4114,
    "turns</w>": 4115,
    "needless</w>": 4116,
    "enjoyable</w>": 4117,
    "fashi": 4118,
    "lighting</w>": 4119,
    "refill</w>": 4120,
    "omele": 4121,
    "appears</w>": 4122,
    "began</w>": 4123,
    "chicago</w>": 4124,
    "yogur": 4125,
    "starbucks</w>": 4126,
    "frustr": 4127,
    "spinach</w>": 4128,
    "listed</w>": 4129,
    "ot": 4130,
    "visible</w>": 4131,
    "sea</w>": 4132,
    "employee</w>": 4133,
    "post</w>": 4134,
    "shocked</w>": 4135,
    "mainly</w>": 4136,
    "aming</w>": 4137,
    "brew</w>": 4138,
    "edges</w>": 4139,
    "hill</w>": 4140,
    "yo</w>": 4141,
    "alot</w>": 4142,
    "formula</w>": 4143,
    "denti": 4144,
    "dered</w>": 4145,
    "cast": 4146,
    "coarse</w>": 4147,
    "mol": 4148,
    "odor</w>": 4149,
    "coats</w>": 4150,
    "fabric</w>": 4151,
    "curl</w>": 4152,
    "curling</w>": 4153,
    "history</w>": 4154,
    "ea": 4155,
    "locals</w>": 4156,
    "eli": 4157,
    "consistently</w>": 4158,
    "spending</w>": 4159,
    "situation</w>": 4160,
    "savor": 4161,
    "af</w>": 4162,
    "less": 4163,
    "positi": 4164,
    "tree</w>": 4165,
    "locally</w>": 4166,
    "s'</w>": 4167,
    "wei": 4168,
    "insp": 4169,
    "ribs</w>": 4170,
    "fus": 4171,
    "selections</w>": 4172,
    "sely</w>": 4173,
    "ideal</w>": 4174,
    "request</w>": 4175,
    "doubt</w>": 4176,
    "sels</w>": 4177,
    "detail</w>": 4178,
    "unlike</w>": 4179,
    "anced</w>": 4180,
    "regularly</w>": 4181,
    "answ": 4182,
    "ference</w>": 4183,
    "slice</w>": 4184,
    "mous</w>": 4185,
    "leg": 4186,
    "driving</w>": 4187,
    "vol": 4188,
    "regret</w>": 4189,
    "house": 4190,
    "yellow</w>": 4191,
    "luck</w>": 4192,
    "food": 4193,
    "yeah</w>": 4194,
    "jun": 4195,
    "recommending</w>": 4196,
    "goto</w>": 4197,
    "tired</w>": 4198,
    "relief</w>": 4199,
    "mper</w>": 4200,
    "peppers</w>": 4201,
    "roduc": 4202,
    "eventu": 4203,
    "eventually</w>": 4204,
    "explained</w>": 4205,
    "lucky</w>": 4206,
    "chip</w>": 4207,
    "cca</w>": 4208,
    "yogurt</w>": 4209,
    "cking</w>": 4210,
    "ids</w>": 4211,
    "magnetic</w>": 4212,
    "doctor</w>": 4213,
    "reduce</w>": 4214,
    "llas</w>": 4215,
    "clothes</w>": 4216,
    "schedul": 4217,
    "ext": 4218,
    "chall": 4219,
    "icate</w>": 4220,
    "favor</w>": 4221,
    "equi": 4222,
    "almond</w>": 4223,
    "comfort</w>": 4224,
    "designs</w>": 4225,
    "attach": 4226,
    "lan": 4227,
    "skep": 4228,
    "pita</w>": 4229,
    "mini": 4230,
    "vacation</w>": 4231,
    "constantly</w>": 4232,
    "hanging</w>": 4233,
    "styling</w>": 4234,
    "tones</w>": 4235,
    "scrat": 4236,
    "itten</w>": 4237,
    "broken</w>": 4238,
    "saniti": 4239,
    "bus</w>": 4240,
    "hec": 4241,
    "benefit</w>": 4242,
    "oil": 4243,
    "ttes</w>": 4244,
    "banana</w>": 4245,
    "yi</w>": 4246,
    "glow</w>": 4247,
    "floral</w>": 4248,
    "files</w>": 4249,
    "thum": 4250,
    "dropper</w>": 4251,
    "pig": 4252,
    "encil</w>": 4253,
    "eyesha": 4254,
    "rosace": 4255,
    "j</w>": 4256,
    "meet</w>": 4257,
    "grocery</w>": 4258,
    "craft</w>": 4259,
    "carne</w>": 4260,
    "noise</w>": 4261,
    "closer</w>": 4262,
    "stocked</w>": 4263,
    "savory</w>": 4264,
    "peppermill</w>": 4265,
    "guest</w>": 4266,
    "host</w>": 4267,
    "noodle</w>": 4268,
    "stylist</w>": 4269,
    "brother</w>": 4270,
    "ssed</w>": 4271,
    "rush</w>": 4272,
    "fee</w>": 4273,
    "dam": 4274,
    "drin": 4275,
    "ur</w>": 4276,
    "ros</w>": 4277,
    "cent": 4278,
    "lec": 4279,
    "lemonade</w>": 4280,
    "lef": 4281,
    "byo": 4282,
    "alli": 4283,
    "buffal": 4284,
    "buffalo</w>": 4285,
    "push</w>": 4286,
    "trendy</w>": 4287,
    "agreed</w>": 4288,
    "sight</w>": 4289,
    "rand": 4290,
    "touri": 4291,
    "pastri": 4292,
    "pastries</w>": 4293,
    "events</w>": 4294,
    "annoying</w>": 4295,
    "regard": 4296,
    "regardless</w>": 4297,
    "thus</w>": 4298,
    "season</w>": 4299,
    "slide</w>": 4300,
    "span": 4301,
    "claim": 4302,
    "univers": 4303,
    "muse": 4304,
    "ladies</w>": 4305,
    "facility</w>": 4306,
    "prime</w>": 4307,
    "lasted</w>": 4308,
    "scri": 4309,
    "superb</w>": 4310,
    "terrific</w>": 4311,
    "promp": 4312,
    "awkward</w>": 4313,
    "block</w>": 4314,
    "new": 4315,
    "med": 4316,
    "request": 4317,
    "reach</w>": 4318,
    "nut</w>": 4319,
    "becca</w>": 4320,
    "heaven</w>": 4321,
    "frequent</w>": 4322,
    "ample</w>": 4323,
    "mmed</w>": 4324,
    "competiti": 4325,
    "arrive</w>": 4326,
    "mpag": 4327,
    "practic": 4328,
    "mart</w>": 4329,
    "mean": 4330,
    "indu": 4331,
    "trimmer</w>": 4332,
    "skeptical</w>": 4333,
    "thre": 4334,
    "shaped</w>": 4335,
    "preferred</w>": 4336,
    "ist</w>": 4337,
    "trim</w>": 4338,
    "cashier</w>": 4339,
    "atin</w>": 4340,
    "terms</w>": 4341,
    "luxu": 4342,
    "dentist</w>": 4343,
    "pes": 4344,
    "string</w>": 4345,
    "lime</w>": 4346,
    "seal": 4347,
    "device</w>": 4348,
    "silver</w>": 4349,
    "usable</w>": 4350,
    "cat</w>": 4351,
    "wouldnt</w>": 4352,
    "cloths</w>": 4353,
    "buttons</w>": 4354,
    "effects</w>": 4355,
    "dispense</w>": 4356,
    "powerful</w>": 4357,
    "rosacea</w>": 4358,
    "rinses</w>": 4359,
    "hidden</w>": 4360,
    "ational</w>": 4361,
    "effort</w>": 4362,
    "ac</w>": 4363,
    "chun": 4364,
    "comment</w>": 4365,
    "mcdon": 4366,
    "mcdonal": 4367,
    "night": 4368,
    "den": 4369,
    "deter": 4370,
    "peanut</w>": 4371,
    "fare</w>": 4372,
    "damn</w>": 4373,
    "worry</w>": 4374,
    "recommendation</w>": 4375,
    "disapp": 4376,
    "graph": 4377,
    "lefto": 4378,
    "twist</w>": 4379,
    "del</w>": 4380,
    "special": 4381,
    "adults</w>": 4382,
    "melted</w>": 4383,
    "crisp</w>": 4384,
    "stom": 4385,
    "suite</w>": 4386,
    "improve</w>": 4387,
    "perio": 4388,
    "recommendations</w>": 4389,
    "laun": 4390,
    "bed": 4391,
    "jam": 4392,
    "rd</w>": 4393,
    "velvet</w>": 4394,
    "haircut</w>": 4395,
    "oyster</w>": 4396,
    "contacted</w>": 4397,
    "ensure</w>": 4398,
    "loun": 4399,
    "ild</w>": 4400,
    "private</w>": 4401,
    "par</w>": 4402,
    "nicer</w>": 4403,
    "costs</w>": 4404,
    "burns</w>": 4405,
    "ari</w>": 4406,
    "inging</w>": 4407,
    "lives</w>": 4408,
    "mimo": 4409,
    "truck</w>": 4410,
    "conditioning</w>": 4411,
    "en's</w>": 4412,
    "truffle</w>": 4413,
    "holiday</w>": 4414,
    "bit": 4415,
    "harder</w>": 4416,
    "cutting</w>": 4417,
    "wasnt</w>": 4418,
    "ation": 4419,
    "occasi": 4420,
    "hurt</w>": 4421,
    "chair</w>": 4422,
    "male</w>": 4423,
    "wore</w>": 4424,
    "flip</w>": 4425,
    "roots</w>": 4426,
    "smoked</w>": 4427,
    "iring</w>": 4428,
    "luxurious</w>": 4429,
    "neu": 4430,
    "cheap": 4431,
    "iri": 4432,
    "crap</w>": 4433,
    "treatments</w>": 4434,
    "calming</w>": 4435,
    "finger": 4436,
    "cooling</w>": 4437,
    "tweezers</w>": 4438,
    "serums</w>": 4439,
    "antiaging</w>": 4440,
    "glitter</w>": 4441,
    "decide</w>": 4442,
    "expl": 4443,
    "maintain</w>": 4444,
    "anese</w>": 4445,
    "occasions</w>": 4446,
    "ute</w>": 4447,
    "deliver</w>": 4448,
    "quaint</w>": 4449,
    "mechan": 4450,
    "mashed</w>": 4451,
    "ravi": 4452,
    "bomb</w>": 4453,
    "ply</w>": 4454,
    "stated</w>": 4455,
    "ney</w>": 4456,
    "community</w>": 4457,
    "nois": 4458,
    "sci": 4459,
    "cream": 4460,
    "occasion</w>": 4461,
    "schedu": 4462,
    "schedule</w>": 4463,
    "flexible</w>": 4464,
    "fills</w>": 4465,
    "rit": 4466,
    "dough": 4467,
    "micha": 4468,
    "specif": 4469,
    "younger</w>": 4470,
    "dive</w>": 4471,
    "snack</w>": 4472,
    "blue": 4473,
    "shouldn't</w>": 4474,
    "unusual</w>": 4475,
    "scoop</w>": 4476,
    "mark</w>": 4477,
    "pan</w>": 4478,
    "bathrooms</w>": 4479,
    "speed</w>": 4480,
    "rosemary</w>": 4481,
    "exper": 4482,
    "belly</w>": 4483,
    "slaw</w>": 4484,
    "adas</w>": 4485,
    "display</w>": 4486,
    "biscuit</w>": 4487,
    "advice</w>": 4488,
    "worthy</w>": 4489,
    "trash</w>": 4490,
    "ker": 4491,
    "deli</w>": 4492,
    "grand</w>": 4493,
    "dirt</w>": 4494,
    "build</w>": 4495,
    "antic</w>": 4496,
    "filet</w>": 4497,
    "introduc": 4498,
    "adorable</w>": 4499,
    "rushed</w>": 4500,
    "cash</w>": 4501,
    "beware</w>": 4502,
    "sno": 4503,
    "publ": 4504,
    "champag": 4505,
    "champagne</w>": 4506,
    "log": 4507,
    "ging": 4508,
    "iter": 4509,
    "nets</w>": 4510,
    "previously</w>": 4511,
    "organized</w>": 4512,
    "southern</w>": 4513,
    "pub</w>": 4514,
    "lacking</w>": 4515,
    "caught</w>": 4516,
    "suggested</w>": 4517,
    "believ": 4518,
    "colle": 4519,
    "tacky</w>": 4520,
    "win</w>": 4521,
    "sale</w>": 4522,
    "downside</w>": 4523,
    "time": 4524,
    "tan</w>": 4525,
    "cord</w>": 4526,
    "way": 4527,
    "frequently</w>": 4528,
    "child</w>": 4529,
    "ison</w>": 4530,
    "showing</w>": 4531,
    "degre": 4532,
    "det": 4533,
    "applies</w>": 4534,
    "resp": 4535,
    "shades</w>": 4536,
    "ny": 4537,
    "caused</w>": 4538,
    "smoother</w>": 4539,
    "performance</w>": 4540,
    "daught": 4541,
    "daughters</w>": 4542,
    "bows</w>": 4543,
    "boar</w>": 4544,
    "stiff</w>": 4545,
    "flosser</w>": 4546,
    "eyelash</w>": 4547,
    "tight": 4548,
    "tooth</w>": 4549,
    "blan": 4550,
    "mustard</w>": 4551,
    "manu": 4552,
    "lif": 4553,
    "reminded</w>": 4554,
    "like": 4555,
    "courte": 4556,
    "courteous</w>": 4557,
    "ravioli</w>": 4558,
    "english</w>": 4559,
    "laid</w>": 4560,
    "cable</w>": 4561,
    "land</w>": 4562,
    "bites</w>": 4563,
    "superi": 4564,
    "ician</w>": 4565,
    "byob</w>": 4566,
    "a's</w>": 4567,
    "tends</w>": 4568,
    "specifically</w>": 4569,
    "following</w>": 4570,
    "gentle": 4571,
    "exec": 4572,
    "pete</w>": 4573,
    "stern</w>": 4574,
    "towards</w>": 4575,
    "joke</w>": 4576,
    "rab": 4577,
    "tues": 4578,
    "hospitality</w>": 4579,
    "department</w>": 4580,
    "ray</w>": 4581,
    "learned</w>": 4582,
    "thro": 4583,
    "lun": 4584,
    "ranch</w>": 4585,
    "hardly</w>": 4586,
    "joh": 4587,
    "client</w>": 4588,
    "cent</w>": 4589,
    "bang": 4590,
    "kers</w>": 4591,
    "promptly</w>": 4592,
    "liking</w>": 4593,
    "top": 4594,
    "japanese</w>": 4595,
    "gonna</w>": 4596,
    "rental</w>": 4597,
    "kick</w>": 4598,
    "overnight</w>": 4599,
    "harsh</w>": 4600,
    "life": 4601,
    "benefits</w>": 4602,
    "hash</w>": 4603,
    "windows</w>": 4604,
    "specific</w>": 4605,
    "fs</w>": 4606,
    "apartment</w>": 4607,
    "knowing</w>": 4608,
    "words</w>": 4609,
    "omel": 4610,
    "owned</w>": 4611,
    "illed</w>": 4612,
    "pment</w>": 4613,
    "sleep": 4614,
    "healing</w>": 4615,
    "versati": 4616,
    "margarita</w>": 4617,
    "health": 4618,
    "driver</w>": 4619,
    "ath</w>": 4620,
    "thur": 4621,
    "ager</w>": 4622,
    "fer</w>": 4623,
    "radi": 4624,
    "bing</w>": 4625,
    "entirely</w>": 4626,
    "written</w>": 4627,
    "obses": 4628,
    "swa": 4629,
    "thankfully</w>": 4630,
    "compare</w>": 4631,
    "nov": 4632,
    "fec": 4633,
    "zzle</w>": 4634,
    "ear</w>": 4635,
    "ache</w>": 4636,
    "rubber</w>": 4637,
    "accessories</w>": 4638,
    "icial</w>": 4639,
    "sciss": 4640,
    "organi": 4641,
    "leather</w>": 4642,
    "heavily</w>": 4643,
    "groom": 4644,
    "sensitivity</w>": 4645,
    "pen</w>": 4646,
    "uv</w>": 4647,
    "extensions</w>": 4648,
    "neutr": 4649,
    "blend": 4650,
    "eyeshadow</w>": 4651,
    "ecze": 4652,
    "moisturizes</w>": 4653,
    "quartz</w>": 4654,
    "miner": 4655,
    "glycerin</w>": 4656,
    "deodorant</w>": 4657,
    "batteries</w>": 4658,
    "asada</w>": 4659,
    "tortilla</w>": 4660,
    "ffy</w>": 4661,
    "hubby</w>": 4662,
    "bubble</w>": 4663,
    "strawberry</w>": 4664,
    "offering</w>": 4665,
    "inve": 4666,
    "basket</w>": 4667,
    "scale</w>": 4668,
    "styles</w>": 4669,
    "blown</w>": 4670,
    "tro</w>": 4671,
    "inde": 4672,
    "indeed</w>": 4673,
    "wand": 4674,
    "marin": 4675,
    "melt</w>": 4676,
    "soun": 4677,
    "shir": 4678,
    "nel</w>": 4679,
    "repa": 4680,
    "boat</w>": 4681,
    "distance</w>": 4682,
    "ials</w>": 4683,
    "vels</w>": 4684,
    "tasteless</w>": 4685,
    "delish</w>": 4686,
    "steam": 4687,
    "stomach</w>": 4688,
    "hotels</w>": 4689,
    "ath": 4690,
    "enter": 4691,
    "smile</w>": 4692,
    "flavored</w>": 4693,
    "mit": 4694,
    "common</w>": 4695,
    "discoun": 4696,
    "fee": 4697,
    "underwhel": 4698,
    "drill</w>": 4699,
    "holes</w>": 4700,
    "convention</w>": 4701,
    "gin": 4702,
    "sweat</w>": 4703,
    "ry": 4704,
    "sliders</w>": 4705,
    "mix": 4706,
    "side": 4707,
    "views</w>": 4708,
    "togo</w>": 4709,
    "insan": 4710,
    "east</w>": 4711,
    "talked</w>": 4712,
    "ethe</w>": 4713,
    "sucks</w>": 4714,
    "bike</w>": 4715,
    "picking</w>": 4716,
    "mers</w>": 4717,
    "peach</w>": 4718,
    "fu</w>": 4719,
    "suggestions</w>": 4720,
    "describe</w>": 4721,
    "scallo": 4722,
    "keys</w>": 4723,
    "term</w>": 4724,
    "explain</w>": 4725,
    "exchange</w>": 4726,
    "acks</w>": 4727,
    "balance</w>": 4728,
    "carro": 4729,
    "omelet</w>": 4730,
    "rain</w>": 4731,
    "gli": 4732,
    "tail": 4733,
    "dun": 4734,
    "grow</w>": 4735,
    "giant</w>": 4736,
    "distr": 4737,
    "cupcakes</w>": 4738,
    "poor": 4739,
    "minus</w>": 4740,
    "era</w>": 4741,
    "zel</w>": 4742,
    "stock</w>": 4743,
    "arms</w>": 4744,
    "thurs": 4745,
    "gi</w>": 4746,
    "uncomfortable</w>": 4747,
    "sers</w>": 4748,
    "pec": 4749,
    "gel": 4750,
    "surroun": 4751,
    "light": 4752,
    "accident": 4753,
    "hil": 4754,
    "wooden</w>": 4755,
    "risk</w>": 4756,
    "agree</w>": 4757,
    "berries</w>": 4758,
    "andor</w>": 4759,
    "remain": 4760,
    "tured</w>": 4761,
    "claim</w>": 4762,
    "features</w>": 4763,
    "scrubbing</w>": 4764,
    "easy": 4765,
    "mango</w>": 4766,
    "nourishing</w>": 4767,
    "matic</w>": 4768,
    "prevent</w>": 4769,
    "reduced</w>": 4770,
    "removes</w>": 4771,
    "fragrances</w>": 4772,
    "reactions</w>": 4773,
    "surface</w>": 4774,
    "eczema</w>": 4775,
    "theyre</w>": 4776,
    "extrac": 4777,
    "castor</w>": 4778,
    "rebecca</w>": 4779,
    "waffle</w>": 4780,
    "chill</w>": 4781,
    "prote": 4782,
    "meeting</w>": 4783,
    "entr": 4784,
    "obvious</w>": 4785,
    "we'd</w>": 4786,
    "dumpl": 4787,
    "luck": 4788,
    "quant": 4789,
    "earth</w>": 4790,
    "tory</w>": 4791,
    "wery</w>": 4792,
    "overpowering</w>": 4793,
    "improved</w>": 4794,
    "superior</w>": 4795,
    "inviting</w>": 4796,
    "pleasure</w>": 4797,
    "spi": 4798,
    "leftovers</w>": 4799,
    "refun": 4800,
    "mming</w>": 4801,
    "cheesesteak</w>": 4802,
    "thou": 4803,
    "acceptable</w>": 4804,
    "guar": 4805,
    "pancake</w>": 4806,
    "safe": 4807,
    "safety</w>": 4808,
    "museum</w>": 4809,
    "field</w>": 4810,
    "pressed</w>": 4811,
    "eth": 4812,
    "freshly</w>": 4813,
    "vill": 4814,
    "searching</w>": 4815,
    "ancing</w>": 4816,
    "rarely</w>": 4817,
    "rang": 4818,
    "pizzas</w>": 4819,
    "enchil": 4820,
    "worried</w>": 4821,
    "suggestion</w>": 4822,
    "spea": 4823,
    "gluten</w>": 4824,
    "ority</w>": 4825,
    "potential</w>": 4826,
    "pet</w>": 4827,
    "chemicals</w>": 4828,
    "charming</w>": 4829,
    "syr": 4830,
    "lotions</w>": 4831,
    "corn": 4832,
    "incor": 4833,
    "fault</w>": 4834,
    "requested</w>": 4835,
    "human</w>": 4836,
    "flight</w>": 4837,
    "cele": 4838,
    "celebr": 4839,
    "shipping</w>": 4840,
    "sick</w>": 4841,
    "there": 4842,
    "spacious</w>": 4843,
    "answer</w>": 4844,
    "numerous</w>": 4845,
    "eu": 4846,
    "bet</w>": 4847,
    "ay</w>": 4848,
    "pricing</w>": 4849,
    "vid</w>": 4850,
    "public</w>": 4851,
    "itching</w>": 4852,
    "hip": 4853,
    "ignor": 4854,
    "contain</w>": 4855,
    "beignets</w>": 4856,
    "garbage</w>": 4857,
    "aches</w>": 4858,
    "offer": 4859,
    "gged</w>": 4860,
    "painful</w>": 4861,
    "crum": 4862,
    "ko": 4863,
    "unbeliev": 4864,
    "construction</w>": 4865,
    "pointed</w>": 4866,
    "target</w>": 4867,
    "greatest</w>": 4868,
    "nope</w>": 4869,
    "instant</w>": 4870,
    "beads</w>": 4871,
    "wed": 4872,
    "directly</w>": 4873,
    "mile</w>": 4874,
    "edge</w>": 4875,
    "annoyed</w>": 4876,
    "signed</w>": 4877,
    "drove</w>": 4878,
    "gies</w>": 4879,
    "books</w>": 4880,
    "icles</w>": 4881,
    "accidentally</w>": 4882,
    "tably</w>": 4883,
    "soul</w>": 4884,
    "vacu": 4885,
    "consu": 4886,
    "theres</w>": 4887,
    "originally</w>": 4888,
    "grain</w>": 4889,
    "zzy</w>": 4890,
    "ello</w>": 4891,
    "ficial</w>": 4892,
    "learning</w>": 4893,
    "shorter</w>": 4894,
    "paste</w>": 4895,
    "tape</w>": 4896,
    "dew</w>": 4897,
    "click</w>": 4898,
    "blade</w>": 4899,
    "adjustable</w>": 4900,
    "moisturize</w>": 4901,
    "flim": 4902,
    "gels</w>": 4903,
    "collag": 4904,
    "collagen</w>": 4905,
    "rubbing</w>": 4906,
    "wand</w>": 4907,
    "bronzer</w>": 4908,
    "beginning</w>": 4909,
    "grabbed</w>": 4910,
    "groupon</w>": 4911,
    "national</w>": 4912,
    "dom": 4913,
    "vine</w>": 4914,
    "bowls</w>": 4915,
    "custom</w>": 4916,
    "manufac": 4917,
    "croiss": 4918,
    "pep": 4919,
    "ellar</w>": 4920,
    "iest</w>": 4921,
    "anna</w>": 4922,
    "luckily</w>": 4923,
    "members</w>": 4924,
    "informative</w>": 4925,
    "basil</w>": 4926,
    "foc": 4927,
    "advan": 4928,
    "stain": 4929,
    "sas</w>": 4930,
    "apps</w>": 4931,
    "rent</w>": 4932,
    "techn": 4933,
    "ign": 4934,
    "upstairs</w>": 4935,
    "cooler</w>": 4936,
    "michael</w>": 4937,
    "hh</w>": 4938,
    "pedi</w>": 4939,
    "dressed</w>": 4940,
    "low": 4941,
    "mussels</w>": 4942,
    "cookie</w>": 4943,
    "claims</w>": 4944,
    "beds</w>": 4945,
    "relaxed</w>": 4946,
    "cons</w>": 4947,
    "ria</w>": 4948,
    "additional</w>": 4949,
    "heated</w>": 4950,
    "day's</w>": 4951,
    "ffles</w>": 4952,
    "soci": 4953,
    "cha</w>": 4954,
    "dense</w>": 4955,
    "xe</w>": 4956,
    "spices</w>": 4957,
    "goodness</w>": 4958,
    "oppo": 4959,
    "smoking</w>": 4960,
    "dust</w>": 4961,
    "appointments</w>": 4962,
    "individual</w>": 4963,
    "adequ": 4964,
    "waitresses</w>": 4965,
    "timate</w>": 4966,
    "lounge</w>": 4967,
    "watery</w>": 4968,
    "canc": 4969,
    "wri": 4970,
    "syrup</w>": 4971,
    "changing</w>": 4972,
    "runs</w>": 4973,
    "tvs</w>": 4974,
    "bever": 4975,
    "beverages</w>": 4976,
    "candle</w>": 4977,
    "achi": 4978,
    "bru": 4979,
    "appropri": 4980,
    "calam": 4981,
    "calamari</w>": 4982,
    "allowed</w>": 4983,
    "frustrating</w>": 4984,
    "frank": 4985,
    "ple": 4986,
    "handmade</w>": 4987,
    "ginger</w>": 4988,
    "somehow</w>": 4989,
    "hop</w>": 4990,
    "offerings</w>": 4991,
    "contact</w>": 4992,
    "stress</w>": 4993,
    "def</w>": 4994,
    "reviewers</w>": 4995,
    "pickles</w>": 4996,
    "industry</w>": 4997,
    "poorly</w>": 4998,
    "played</w>": 4999,
    "rema": 5000,
    "rot": 5001,
    "hopes</w>": 5002,
    "suppose</w>": 5003,
    "mir": 5004,
    "packs</w>": 5005,
    "reviewer</w>": 5006,
    "res": 5007,
    "fit": 5008,
    "vibr": 5009,
    "colorful</w>": 5010,
    "gging</w>": 5011,
    "mo</w>": 5012,
    "protection</w>": 5013,
    "comfortably</w>": 5014,
    "ian</w>": 5015,
    "initially</w>": 5016,
    "strips</w>": 5017,
    "would've</w>": 5018,
    "magic</w>": 5019,
    "emer": 5020,
    "switch</w>": 5021,
    "overwhelming</w>": 5022,
    "tall</w>": 5023,
    "ew": 5024,
    "gold": 5025,
    "herself</w>": 5026,
    "serious</w>": 5027,
    "video": 5028,
    "tongue</w>": 5029,
    "tattoo": 5030,
    "blends</w>": 5031,
    "sable</w>": 5032,
    "functional</w>": 5033,
    "liar</w>": 5034,
    "sink</w>": 5035,
    "apy</w>": 5036,
    "stear": 5037,
    "bristle</w>": 5038,
    "neutral</w>": 5039,
    "scent": 5040,
    "flimsy</w>": 5041,
    "supple</w>": 5042,
    "easydew</w>": 5043,
    "grass</w>": 5044,
    "ana": 5045,
    "polis</w>": 5046,
    "indul": 5047,
    "chunks</w>": 5048,
    "false</w>": 5049,
    "hell</w>": 5050,
    "proceeded</w>": 5051,
    "overcooked</w>": 5052,
    "fountain</w>": 5053,
    "dumplings</w>": 5054,
    "upper</w>": 5055,
    "ican": 5056,
    "convenience</w>": 5057,
    "bal</w>": 5058,
    "support</w>": 5059,
    "brewery</w>": 5060,
    "meats</w>": 5061,
    "tta</w>": 5062,
    "advantage</w>": 5063,
    "lift</w>": 5064,
    "soooo</w>": 5065,
    "frea": 5066,
    "dut": 5067,
    "comfy</w>": 5068,
    "ketch": 5069,
    "ketchup</w>": 5070,
    "signature</w>": 5071,
    "patty</w>": 5072,
    "usi": 5073,
    "promised</w>": 5074,
    "taining</w>": 5075,
    "pros</w>": 5076,
    "rocks</w>": 5077,
    "useless</w>": 5078,
    "laundry</w>": 5079,
    "elli</w>": 5080,
    "restroom</w>": 5081,
    "set": 5082,
    "wo": 5083,
    "sch": 5084,
    "among</w>": 5085,
    "mate</w>": 5086,
    "enchiladas</w>": 5087,
    "mm</w>": 5088,
    "hey</w>": 5089,
    "lls</w>": 5090,
    "ist": 5091,
    "concern</w>": 5092,
    "meatballs</w>": 5093,
    "ane</w>": 5094,
    "su</w>": 5095,
    "ener</w>": 5096,
    "knowledge</w>": 5097,
    "dos</w>": 5098,
    "shutt": 5099,
    "telling</w>": 5100,
    "ras": 5101,
    "execu": 5102,
    "barbe": 5103,
    "tra</w>": 5104,
    "blocks</w>": 5105,
    "tofu</w>": 5106,
    "wa</w>": 5107,
    "whipped</w>": 5108,
    "za</w>": 5109,
    "clothing</w>": 5110,
    "creme</w>": 5111,
    "accommodate</w>": 5112,
    "gn": 5113,
    "adult</w>": 5114,
    "closing</w>": 5115,
    "martin": 5116,
    "selected</w>": 5117,
    "miles</w>": 5118,
    "jewel": 5119,
    "spee": 5120,
    "register</w>": 5121,
    "anas</w>": 5122,
    "brings</w>": 5123,
    "mediter": 5124,
    "mediterran": 5125,
    "mediterranean</w>": 5126,
    "quesadi": 5127,
    "ina</w>": 5128,
    "tells</w>": 5129,
    "manage": 5130,
    "aroma</w>": 5131,
    "screw</w>": 5132,
    "romantic</w>": 5133,
    "connec": 5134,
    "indic": 5135,
    "shown</w>": 5136,
    "basis</w>": 5137,
    "pro</w>": 5138,
    "training</w>": 5139,
    "challen": 5140,
    "challenge</w>": 5141,
    "sleeping</w>": 5142,
    "allet</w>": 5143,
    "exact</w>": 5144,
    "became</w>": 5145,
    "growing</w>": 5146,
    "face": 5147,
    "nit": 5148,
    "faces</w>": 5149,
    "loss</w>": 5150,
    "tortillas</w>": 5151,
    "aqu": 5152,
    "po</w>": 5153,
    "fle": 5154,
    "indoor</w>": 5155,
    "plug</w>": 5156,
    "shoul": 5157,
    "coloring</w>": 5158,
    "applications</w>": 5159,
    "jal": 5160,
    "exception</w>": 5161,
    "reno": 5162,
    "vated</w>": 5163,
    "teen</w>": 5164,
    "evenly</w>": 5165,
    "reviewing</w>": 5166,
    "obsessed</w>": 5167,
    "microwa": 5168,
    "el's</w>": 5169,
    "camp": 5170,
    "nur": 5171,
    "states</w>": 5172,
    "slipp": 5173,
    "mirac": 5174,
    "carr": 5175,
    "tie</w>": 5176,
    "woo": 5177,
    "cure</w>": 5178,
    "grey</w>": 5179,
    "cats</w>": 5180,
    "chi</w>": 5181,
    "stones</w>": 5182,
    "sealed</w>": 5183,
    "ism</w>": 5184,
    "scissors</w>": 5185,
    "electric</w>": 5186,
    "bubbles</w>": 5187,
    "opinions</w>": 5188,
    "vera</w>": 5189,
    "anytime</w>": 5190,
    "clar": 5191,
    "fiber</w>": 5192,
    "yst": 5193,
    "crown</w>": 5194,
    "familiar</w>": 5195,
    "gum</w>": 5196,
    "shed": 5197,
    "usb</w>": 5198,
    "removal</w>": 5199,
    "sanitizer</w>": 5200,
    "polishes</w>": 5201,
    "protect</w>": 5202,
    "pencil</w>": 5203,
    "lathers</w>": 5204,
    "dissi": 5205,
    "diffuser</w>": 5206,
    "antiox": 5207,
    "antioxid": 5208,
    "damp</w>": 5209,
    "capr": 5210,
    "colog": 5211,
    "visit": 5212,
    "fluffy</w>": 5213,
    "dg": 5214,
    "soups</w>": 5215,
    "edible</w>": 5216,
    "bened": 5217,
    "benedict</w>": 5218,
    "stumbled</w>": 5219,
    "gras</w>": 5220,
    "fel": 5221,
    "protein</w>": 5222,
    "crab": 5223,
    "corpor": 5224,
    "icip": 5225,
    "factory</w>": 5226,
    "funky</w>": 5227,
    "nar": 5228,
    "sub</w>": 5229,
    "ourselves</w>": 5230,
    "memorable</w>": 5231,
    "year": 5232,
    "bone</w>": 5233,
    "samples</w>": 5234,
    "burrit": 5235,
    "burritos</w>": 5236,
    "spir": 5237,
    "stops</w>": 5238,
    "key": 5239,
    "sons</w>": 5240,
    "crack": 5241,
    "burning</w>": 5242,
    "jack": 5243,
    "lobby</w>": 5244,
    "wher": 5245,
    "random</w>": 5246,
    "fore": 5247,
    "comparable</w>": 5248,
    "yard</w>": 5249,
    "mozz": 5250,
    "saved</w>": 5251,
    "weekday</w>": 5252,
    "dad</w>": 5253,
    "onate</w>": 5254,
    "tball</w>": 5255,
    "answered</w>": 5256,
    "broc": 5257,
    "brocco": 5258,
    "broccoli</w>": 5259,
    "hurry</w>": 5260,
    "village</w>": 5261,
    "secur": 5262,
    "security</w>": 5263,
    "tuesday</w>": 5264,
    "groups</w>": 5265,
    "reserved</w>": 5266,
    "they'd</w>": 5267,
    "upscale</w>": 5268,
    "alright</w>": 5269,
    "chal": 5270,
    "ruined</w>": 5271,
    "sage</w>": 5272,
    "bangs</w>": 5273,
    "boba</w>": 5274,
    "sweet": 5275,
    "containers</w>": 5276,
    "tempor": 5277,
    "tered</w>": 5278,
    "delivers</w>": 5279,
    "response</w>": 5280,
    "address</w>": 5281,
    "yout</w>": 5282,
    "hoped</w>": 5283,
    "lacked</w>": 5284,
    "ingy</w>": 5285,
    "addic": 5286,
    "booth</w>": 5287,
    "ida</w>": 5288,
    "classy</w>": 5289,
    "max</w>": 5290,
    "example</w>": 5291,
    "scallops</w>": 5292,
    "shut</w>": 5293,
    "pearl</w>": 5294,
    "browns</w>": 5295,
    "san</w>": 5296,
    "mike</w>": 5297,
    "spoke</w>": 5298,
    "meas": 5299,
    "further</w>": 5300,
    "aching</w>": 5301,
    "jen": 5302,
    "alu": 5303,
    "delicate</w>": 5304,
    "equipment</w>": 5305,
    "scription</w>": 5306,
    "named</w>": 5307,
    "hard": 5308,
    "watched</w>": 5309,
    "theater</w>": 5310,
    "cial</w>": 5311,
    "contr": 5312,
    "videos</w>": 5313,
    "manageable</w>": 5314,
    "batch</w>": 5315,
    "ilities</w>": 5316,
    "grew</w>": 5317,
    "roasted</w>": 5318,
    "impression</w>": 5319,
    "video</w>": 5320,
    "sounds</w>": 5321,
    "thursday</w>": 5322,
    "shoulder</w>": 5323,
    "nam": 5324,
    "coa</w>": 5325,
    "gas</w>": 5326,
    "coal</w>": 5327,
    "mous": 5328,
    "pine": 5329,
    "smu": 5330,
    "tomor": 5331,
    "informed</w>": 5332,
    "innov": 5333,
    "confi": 5334,
    "respect</w>": 5335,
    "built</w>": 5336,
    "managed</w>": 5337,
    "excess</w>": 5338,
    "fea": 5339,
    "blood</w>": 5340,
    "heck</w>": 5341,
    "closure</w>": 5342,
    "pillow</w>": 5343,
    "wraps</w>": 5344,
    "bees</w>": 5345,
    "blended</w>": 5346,
    "tt</w>": 5347,
    "confused</w>": 5348,
    "infused</w>": 5349,
    "os": 5350,
    "lately</w>": 5351,
    "eca": 5352,
    "sen</w>": 5353,
    "clipper</w>": 5354,
    "ghtly</w>": 5355,
    "vent": 5356,
    "pumps</w>": 5357,
    "delu": 5358,
    "cell</w>": 5359,
    "thinner</w>": 5360,
    "tin</w>": 5361,
    "peppermint</w>": 5362,
    "ity": 5363,
    "niec": 5364,
    "pony": 5365,
    "dispo": 5366,
    "versatile</w>": 5367,
    "puffiness</w>": 5368,
    "havent</w>": 5369,
    "blending</w>": 5370,
    "dissip": 5371,
    "exfoliate</w>": 5372,
    "shimmer</w>": 5373,
    "infla": 5374,
    "parab": 5375,
    "brightening</w>": 5376,
    "smooths</w>": 5377,
    "pepti": 5378,
    "glyco": 5379,
    "spf</w>": 5380,
    "acet": 5381,
    "sparkly</w>": 5382,
    "dramatic</w>": 5383,
    "bent</w>": 5384,
    "waitstaff</w>": 5385,
    "indiana": 5386,
    "indianapolis</w>": 5387,
    "suit</w>": 5388,
    "softness</w>": 5389,
    "divine</w>": 5390,
    "tted</w>": 5391,
    "dual</w>": 5392,
    "stands</w>": 5393,
    "dresser</w>": 5394,
    "genuine</w>": 5395,
    "gall": 5396,
    "stellar</w>": 5397,
    "exciting</w>": 5398,
    "pat</w>": 5399,
    "corporate</w>": 5400,
    "exceeded</w>": 5401,
    "weak</w>": 5402,
    "decorated</w>": 5403,
    "train</w>": 5404,
    "draft</w>": 5405,
    "calm</w>": 5406,
    "refri": 5407,
    "refriger": 5408,
    "nuts</w>": 5409,
    "ticket</w>": 5410,
    "allig": 5411,
    "advi": 5412,
    "guaran": 5413,
    "guarante": 5414,
    "strong": 5415,
    "tains</w>": 5416,
    "property</w>": 5417,
    "diet</w>": 5418,
    "period</w>": 5419,
    "phys": 5420,
    "gentleman</w>": 5421,
    "ang</w>": 5422,
    "mayo</w>": 5423,
    "sang": 5424,
    "stin": 5425,
    "presso</w>": 5426,
    "amazed</w>": 5427,
    "waffles</w>": 5428,
    "quo": 5429,
    "kout</w>": 5430,
    "liquor</w>": 5431,
    "eled</w>": 5432,
    "intri": 5433,
    "clin": 5434,
    "mly</w>": 5435,
    "cheeks</w>": 5436,
    "tus</w>": 5437,
    "planning</w>": 5438,
    "barist": 5439,
    "elly</w>": 5440,
    "temporary</w>": 5441,
    "sel</w>": 5442,
    "definite</w>": 5443,
    "waxing</w>": 5444,
    "advance</w>": 5445,
    "shuttle</w>": 5446,
    "cards</w>": 5447,
    "eed</w>": 5448,
    "tries</w>": 5449,
    "cornbread</w>": 5450,
    "barbecu": 5451,
    "upset</w>": 5452,
    "shelf</w>": 5453,
    "florida</w>": 5454,
    "assor": 5455,
    "lease</w>": 5456,
    "buds</w>": 5457,
    "expo": 5458,
    "updated</w>": 5459,
    "tit": 5460,
    "soy</w>": 5461,
    "dipping</w>": 5462,
    "snacks</w>": 5463,
    "rain": 5464,
    "lin</w>": 5465,
    "policy</w>": 5466,
    "depo": 5467,
    "aa": 5468,
    "bananas</w>": 5469,
    "former</w>": 5470,
    "dab</w>": 5471,
    "ignored</w>": 5472,
    "cosmetics</w>": 5473,
    "sharing</w>": 5474,
    "install": 5475,
    "breath": 5476,
    "b's</w>": 5477,
    "dull</w>": 5478,
    "hits</w>": 5479,
    "loaf</w>": 5480,
    "required</w>": 5481,
    "lace</w>": 5482,
    "scheduled</w>": 5483,
    "cab</w>": 5484,
    "puts</w>": 5485,
    "pitch": 5486,
    "intended</w>": 5487,
    "sour": 5488,
    "sooo</w>": 5489,
    "mpy</w>": 5490,
    "spanish</w>": 5491,
    "seasoning</w>": 5492,
    "success</w>": 5493,
    "ine": 5494,
    "iding</w>": 5495,
    "tops</w>": 5496,
    "classes</w>": 5497,
    "crowds</w>": 5498,
    "garage</w>": 5499,
    "toil": 5500,
    "toilet</w>": 5501,
    "duty</w>": 5502,
    "ler": 5503,
    "ures</w>": 5504,
    "aside</w>": 5505,
    "personable</w>": 5506,
    "accord": 5507,
    "present</w>": 5508,
    "lus": 5509,
    "winner</w>": 5510,
    "nal</w>": 5511,
    "dish": 5512,
    "allergies</w>": 5513,
    "rev": 5514,
    "pineapple</w>": 5515,
    "appear</w>": 5516,
    "tomorrow</w>": 5517,
    "companion</w>": 5518,
    "dealt</w>": 5519,
    "arm</w>": 5520,
    "self": 5521,
    "staffed</w>": 5522,
    "desert</w>": 5523,
    "vacuum</w>": 5524,
    "healthier</w>": 5525,
    "omelette</w>": 5526,
    "reads</w>": 5527,
    "pid</w>": 5528,
    "gyros</w>": 5529,
    "carefully</w>": 5530,
    "hin": 5531,
    "fuller</w>": 5532,
    "testing</w>": 5533,
    "cus": 5534,
    "streng": 5535,
    "don</w>": 5536,
    "dissol": 5537,
    "pins</w>": 5538,
    "uu": 5539,
    "stro": 5540,
    "blemi": 5541,
    "forms</w>": 5542,
    "seal</w>": 5543,
    "leak</w>": 5544,
    "flies</w>": 5545,
    "portable</w>": 5546,
    "tattoos</w>": 5547,
    "semi</w>": 5548,
    "charac": 5549,
    "cryst": 5550,
    "painting</w>": 5551,
    "supply</w>": 5552,
    "lumin": 5553,
    "stru": 5554,
    "lay</w>": 5555,
    "stocking</w>": 5556,
    "lient</w>": 5557,
    "complex": 5558,
    "enh": 5559,
    "this": 5560,
    "pale</w>": 5561,
    "metall": 5562,
    "jade</w>": 5563,
    "acrylic</w>": 5564,
    "lipsticks</w>": 5565,
    "adhes": 5566,
    "nozzle</w>": 5567,
    "stain</w>": 5568,
    "jojo": 5569,
    "tangles</w>": 5570,
    "suction</w>": 5571,
    "chemical</w>": 5572,
    "glycol</w>": 5573,
    "ceal": 5574,
    "cealer</w>": 5575,
    "pc": 5576,
    "amazingly</w>": 5577,
    "pad": 5578,
    "gie</w>": 5579,
    "substit": 5580,
    "brows</w>": 5581,
    "hasn't</w>": 5582,
    "express</w>": 5583,
    "flag</w>": 5584,
    "direct</w>": 5585,
    "manufactur": 5586,
    "zone</w>": 5587,
    "croissant</w>": 5588,
    "caes": 5589,
    "penny</w>": 5590,
    "cents</w>": 5591,
    "compu": 5592,
    "computer</w>": 5593,
    "rolling</w>": 5594,
    "icier</w>": 5595,
    "rolled</w>": 5596,
    "artic": 5597,
    "fix": 5598,
    "american": 5599,
    "bis": 5600,
    "arily</w>": 5601,
    "ues</w>": 5602,
    "unable</w>": 5603,
    "sounded</w>": 5604,
    "wonderfully</w>": 5605,
    "dozen</w>": 5606,
    "lie</w>": 5607,
    "icky</w>": 5608,
    "count</w>": 5609,
    "tire</w>": 5610,
    "mad</w>": 5611,
    "chu": 5612,
    "moun": 5613,
    "laugh": 5614,
    "died</w>": 5615,
    "partner</w>": 5616,
    "indy</w>": 5617,
    "creole</w>": 5618,
    "mozzare": 5619,
    "mozzarella</w>": 5620,
    "triti": 5621,
    "listen</w>": 5622,
    "sangria</w>": 5623,
    "washer</w>": 5624,
    "espresso</w>": 5625,
    "lit</w>": 5626,
    "comple": 5627,
    "ave</w>": 5628,
    "gru": 5629,
    "discus": 5630,
    "pas</w>": 5631,
    "dol": 5632,
    "craf": 5633,
    "chat</w>": 5634,
    "cramped</w>": 5635,
    "stud": 5636,
    "beverage</w>": 5637,
    "nap": 5638,
    "caution</w>": 5639,
    "thorough</w>": 5640,
    "final</w>": 5641,
    "ored</w>": 5642,
    "talented</w>": 5643,
    "mur": 5644,
    "bie</w>": 5645,
    "bered</w>": 5646,
    "diners</w>": 5647,
    "judge</w>": 5648,
    "ile": 5649,
    "barbecue</w>": 5650,
    "premi": 5651,
    "shell</w>": 5652,
    "ackno": 5653,
    "acknowle": 5654,
    "wil": 5655,
    "cara": 5656,
    "caramel</w>": 5657,
    "ri</w>": 5658,
    "ounces</w>": 5659,
    "therefore</w>": 5660,
    "letting</w>": 5661,
    "ided</w>": 5662,
    "olo": 5663,
    "shots</w>": 5664,
    "eleg": 5665,
    "jerk</w>": 5666,
    "aspect</w>": 5667,
    "deserves</w>": 5668,
    "wind": 5669,
    "sher": 5670,
    "pillo": 5671,
    "shoes</w>": 5672,
    "foster</w>": 5673,
    "pear</w>": 5674,
    "ga</w>": 5675,
    "carrot</w>": 5676,
    "practically</w>": 5677,
    "selling</w>": 5678,
    "tint</w>": 5679,
    "pra": 5680,
    "soso</w>": 5681,
    "lic": 5682,
    "energy</w>": 5683,
    "xi</w>": 5684,
    "though": 5685,
    "ony</w>": 5686,
    "stickers</w>": 5687,
    "brand": 5688,
    "greatly</w>": 5689,
    "fashion</w>": 5690,
    "nie</w>": 5691,
    "ala</w>": 5692,
    "presented</w>": 5693,
    "drinking</w>": 5694,
    "page</w>": 5695,
    "bridge</w>": 5696,
    "significant</w>": 5697,
    "famous</w>": 5698,
    "scene</w>": 5699,
    "movies</w>": 5700,
    "tors</w>": 5701,
    "complaining</w>": 5702,
    "bf</w>": 5703,
    "feed</w>": 5704,
    "cb": 5705,
    "taver": 5706,
    "wednes": 5707,
    "teen": 5708,
    "starter</w>": 5709,
    "encou": 5710,
    "encoura": 5711,
    "tag</w>": 5712,
    "cel": 5713,
    "neon</w>": 5714,
    "lo</w>": 5715,
    "proces": 5716,
    "elled</w>": 5717,
    "parag": 5718,
    "chr": 5719,
    "fire</w>": 5720,
    "hospital</w>": 5721,
    "appeared</w>": 5722,
    "ensi": 5723,
    "refused</w>": 5724,
    "sup": 5725,
    "aly</w>": 5726,
    "quantity</w>": 5727,
    "shoo": 5728,
    "vibrant</w>": 5729,
    "coworkers</w>": 5730,
    "ero": 5731,
    "cuticle</w>": 5732,
    "bee": 5733,
    "afra": 5734,
    "afraid</w>": 5735,
    "detect</w>": 5736,
    "eno</w>": 5737,
    "vegetable</w>": 5738,
    "session</w>": 5739,
    "ux</w>": 5740,
    "pesto</w>": 5741,
    "urge</w>": 5742,
    "slippery</w>": 5743,
    "irritating</w>": 5744,
    "respec": 5745,
    "palm</w>": 5746,
    "assume</w>": 5747,
    "hooka": 5748,
    "rinsed</w>": 5749,
    "purposes</w>": 5750,
    "sar": 5751,
    "golden</w>": 5752,
    "acted</w>": 5753,
    "cheeseca": 5754,
    "statement</w>": 5755,
    "remaining</w>": 5756,
    "ame</w>": 5757,
    "cord": 5758,
    "carrying</w>": 5759,
    "track</w>": 5760,
    "anti</w>": 5761,
    "scar": 5762,
    "defec": 5763,
    "slow": 5764,
    "sprays</w>": 5765,
    "deluxe</w>": 5766,
    "losing</w>": 5767,
    "handles</w>": 5768,
    "increase</w>": 5769,
    "glove</w>": 5770,
    "scrubs</w>": 5771,
    "holder</w>": 5772,
    "glitt": 5773,
    "card": 5774,
    "cardboard</w>": 5775,
    "itchy</w>": 5776,
    "suit": 5777,
    "artificial</w>": 5778,
    "prop": 5779,
    "breaking</w>": 5780,
    "deeply</w>": 5781,
    "tear</w>": 5782,
    "charcoal</w>": 5783,
    "pads</w>": 5784,
    "veins</w>": 5785,
    "causes</w>": 5786,
    "wavy</w>": 5787,
    "heavier</w>": 5788,
    "scrunchie</w>": 5789,
    "rinsing</w>": 5790,
    "clay</w>": 5791,
    "shampoos</w>": 5792,
    "fibers</w>": 5793,
    "dewy</w>": 5794,
    "moisturizers</w>": 5795,
    "youre</w>": 5796,
    "thinning</w>": 5797,
    "cleanse</w>": 5798,
    "attachments</w>": 5799,
    "terribly</w>": 5800,
    "ribey": 5801,
    "ribeye</w>": 5802,
    "latt": 5803,
    "pants</w>": 5804,
    "bothered</w>": 5805,
    "vable</w>": 5806,
    "bala": 5807,
    "jazz</w>": 5808,
    "promise</w>": 5809,
    "direction</w>": 5810,
    "wder</w>": 5811,
    "cracks</w>": 5812,
    "position</w>": 5813,
    "ee</w>": 5814,
    "grounds</w>": 5815,
    "knock</w>": 5816,
    "socks</w>": 5817,
    "impec": 5818,
    "apology</w>": 5819,
    "utto</w>": 5820,
    "reco": 5821,
    "refills</w>": 5822,
    "parmes": 5823,
    "parmesan</w>": 5824,
    "eggplant</w>": 5825,
    "smoothie</w>": 5826,
    "refreshed</w>": 5827,
    "importantly</w>": 5828,
    "significantly</w>": 5829,
    "blew</w>": 5830,
    "technician</w>": 5831,
    "sometime</w>": 5832,
    "mouth": 5833,
    "kar": 5834,
    "babies</w>": 5835,
    "communic": 5836,
    "headed</w>": 5837,
    "calling</w>": 5838,
    "inten": 5839,
    "levels</w>": 5840,
    "guarantee</w>": 5841,
    "drunk</w>": 5842,
    "blueberry</w>": 5843,
    "specialty</w>": 5844,
    "details</w>": 5845,
    "er's</w>": 5846,
    "treats</w>": 5847,
    "sand</w>": 5848,
    "warmer</w>": 5849,
    "generic</w>": 5850,
    "intrigu": 5851,
    "football</w>": 5852,
    "patients</w>": 5853,
    "dream</w>": 5854,
    "sooner</w>": 5855,
    "du</w>": 5856,
    "badly</w>": 5857,
    "deck</w>": 5858,
    "kins</w>": 5859,
    "sprouts</w>": 5860,
    "culinary</w>": 5861,
    "eats</w>": 5862,
    "encoun": 5863,
    "buns</w>": 5864,
    "fty</w>": 5865,
    "tax</w>": 5866,
    "trick</w>": 5867,
    "kid": 5868,
    "remem": 5869,
    "afr": 5870,
    "jerse": 5871,
    "layout</w>": 5872,
    "joe</w>": 5873,
    "highlight</w>": 5874,
    "labe": 5875,
    "label</w>": 5876,
    "tucked</w>": 5877,
    "ank</w>": 5878,
    "courses</w>": 5879,
    "receipt</w>": 5880,
    "gate</w>": 5881,
    "arrival</w>": 5882,
    "signs</w>": 5883,
    "elegant</w>": 5884,
    "gno": 5885,
    "repeat</w>": 5886,
    "cob": 5887,
    "sliced</w>": 5888,
    "tickets</w>": 5889,
    "jewelry</w>": 5890,
    "carri": 5891,
    "account</w>": 5892,
    "here's</w>": 5893,
    "faj": 5894,
    "posted</w>": 5895,
    "yor": 5896,
    "preference</w>": 5897,
    "gradu": 5898,
    "extras</w>": 5899,
    "wild</w>": 5900,
    "regarding</w>": 5901,
    "charm</w>": 5902,
    "getic</w>": 5903,
    "loy": 5904,
    "connected</w>": 5905,
    "sequ": 5906,
    "flat": 5907,
    "cupcake</w>": 5908,
    "coated</w>": 5909,
    "rip</w>": 5910,
    "manner</w>": 5911,
    "model</w>": 5912,
    "honey": 5913,
    "cran": 5914,
    "tom</w>": 5915,
    "liness</w>": 5916,
    "enter</w>": 5917,
    "river</w>": 5918,
    "threw</w>": 5919,
    "rabbit</w>": 5920,
    "attempt</w>": 5921,
    "neath</w>": 5922,
    "facilities</w>": 5923,
    "tavern</w>": 5924,
    "satisfying</w>": 5925,
    "wednesday</w>": 5926,
    "unpleasant</w>": 5927,
    "viet": 5928,
    "vietnam": 5929,
    "vietnamese</w>": 5930,
    "fl</w>": 5931,
    "ami</w>": 5932,
    "panini</w>": 5933,
    "surrounding</w>": 5934,
    "faint</w>": 5935,
    "evid": 5936,
    "boys</w>": 5937,
    "con</w>": 5938,
    "unbelievable</w>": 5939,
    "soooo": 5940,
    "interest</w>": 5941,
    "chedd": 5942,
    "undercooked</w>": 5943,
    "conci": 5944,
    "comparison</w>": 5945,
    "tis": 5946,
    "degree</w>": 5947,
    "pamper": 5948,
    "appropriate</w>": 5949,
    "expert</w>": 5950,
    "ween</w>": 5951,
    "rasp": 5952,
    "hesitate</w>": 5953,
    "wake</w>": 5954,
    "aki</w>": 5955,
    "grate": 5956,
    "grateful</w>": 5957,
    "boo</w>": 5958,
    "linger</w>": 5959,
    "immediate</w>": 5960,
    "stun": 5961,
    "chefs</w>": 5962,
    "currently</w>": 5963,
    "minimal</w>": 5964,
    "discounted</w>": 5965,
    "nyc</w>": 5966,
    "dental</w>": 5967,
    "thering</w>": 5968,
    "wax": 5969,
    "luke</w>": 5970,
    "cheesecake</w>": 5971,
    "tied</w>": 5972,
    "hide</w>": 5973,
    "screens</w>": 5974,
    "thing": 5975,
    "controls</w>": 5976,
    "intense</w>": 5977,
    "soaked</w>": 5978,
    "invol": 5979,
    "organizer</w>": 5980,
    "ada": 5981,
    "headache</w>": 5982,
    "should": 5983,
    "shoulders</w>": 5984,
    "marks</w>": 5985,
    "patter": 5986,
    "smoothing</w>": 5987,
    "ated": 5988,
    "fur</w>": 5989,
    "lightest</w>": 5990,
    "require</w>": 5991,
    "amoun": 5992,
    "stronger</w>": 5993,
    "bundle</w>": 5994,
    "faded</w>": 5995,
    "spat": 5996,
    "herbal</w>": 5997,
    "dryness</w>": 5998,
    "elastic</w>": 5999,
    "videoid": 6000,
    "sprayer</w>": 6001,
    "jojoba</w>": 6002,
    "mineral</w>": 6003,
    "frizzy</w>": 6004,
    "chest</w>": 6005,
    "cologne</w>": 6006,
    "cleansers</w>": 6007,
    "poly</w>": 6008,
    "los</w>": 6009,
    "snap</w>": 6010,
    "substitute</w>": 6011,
    "enfree</w>": 6012,
    "vic": 6013,
    "pump": 6014,
    "checkin</w>": 6015,
    "eight</w>": 6016,
    "minimum</w>": 6017,
    "breaded</w>": 6018,
    "failed</w>": 6019,
    "worker</w>": 6020,
    "ben</w>": 6021,
    "articho": 6022,
    "genuin": 6023,
    "genuinely</w>": 6024,
    "initial</w>": 6025,
    "chowder</w>": 6026,
    "bisque</w>": 6027,
    "buttery</w>": 6028,
    "content</w>": 6029,
    "grown</w>": 6030,
    "island</w>": 6031,
    "allerg": 6032,
    "eared</w>": 6033,
    "tires</w>": 6034,
    "ara</w>": 6035,
    "milkshake</w>": 6036,
    "dedic": 6037,
    "stainless</w>": 6038,
    "steel</w>": 6039,
    "sake</w>": 6040,
    "eclec": 6041,
    "eclectic</w>": 6042,
    "outer</w>": 6043,
    "nies</w>": 6044,
    "plant": 6045,
    "mber</w>": 6046,
    "deta": 6047,
    "nobody</w>": 6048,
    "lap": 6049,
    "scen": 6050,
    "bless</w>": 6051,
    "door": 6052,
    "strongly</w>": 6053,
    "frame</w>": 6054,
    "tious</w>": 6055,
    "cone</w>": 6056,
    "dance</w>": 6057,
    "anyways</w>": 6058,
    "eastern</w>": 6059,
    "balanced</w>": 6060,
    "medium": 6061,
    "university</w>": 6062,
    "steam</w>": 6063,
    "timely</w>": 6064,
    "underwhelming</w>": 6065,
    "highlights</w>": 6066,
    "conference</w>": 6067,
    "hass": 6068,
    "bedroom</w>": 6069,
    "gues": 6070,
    "checkout</w>": 6071,
    "esti": 6072,
    "goodies</w>": 6073,
    "haha</w>": 6074,
    "price": 6075,
    "ot</w>": 6076,
    "trout</w>": 6077,
    "plants</w>": 6078,
    "xim": 6079,
    "ann": 6080,
    "holl": 6081,
    "raving</w>": 6082,
    "intimate</w>": 6083,
    "booths</w>": 6084,
    "varieties</w>": 6085,
    "termin": 6086,
    "tray</w>": 6087,
    "kil": 6088,
    "embar": 6089,
    "py</w>": 6090,
    "suck</w>": 6091,
    "him": 6092,
    "incorrec": 6093,
    "cares</w>": 6094,
    "ultra</w>": 6095,
    "dang": 6096,
    "pier</w>": 6097,
    "alcohol": 6098,
    "jec": 6099,
    "remind</w>": 6100,
    "salted</w>": 6101,
    "spoon</w>": 6102,
    "crunch</w>": 6103,
    "ku": 6104,
    "pregn": 6105,
    "compon": 6106,
    "teas</w>": 6107,
    "numbers</w>": 6108,
    "bree": 6109,
    "ai": 6110,
    "associ": 6111,
    "festi": 6112,
    "gour": 6113,
    "reliable</w>": 6114,
    "equally</w>": 6115,
    "wiped</w>": 6116,
    "lined</w>": 6117,
    "pillows</w>": 6118,
    "peo": 6119,
    "ury</w>": 6120,
    "hoc": 6121,
    "cheeseburger</w>": 6122,
    "sampler</w>": 6123,
    "north</w>": 6124,
    "pepperoni</w>": 6125,
    "hung</w>": 6126,
    "walmart</w>": 6127,
    "meaning</w>": 6128,
    "greet</w>": 6129,
    "ured</w>": 6130,
    "minor</w>": 6131,
    "extensive</w>": 6132,
    "weekly</w>": 6133,
    "requires</w>": 6134,
    "art": 6135,
    "flaky</w>": 6136,
    "tec": 6137,
    "shaved</w>": 6138,
    "mcdonald's</w>": 6139,
    "clue</w>": 6140,
    "inser": 6141,
    "stopping</w>": 6142,
    "college</w>": 6143,
    "pical</w>": 6144,
    "dealing</w>": 6145,
    "raised</w>": 6146,
    "toes</w>": 6147,
    "confusing</w>": 6148,
    "coupon</w>": 6149,
    "deals</w>": 6150,
    "draw": 6151,
    "sky</w>": 6152,
    "commer": 6153,
    "furnit": 6154,
    "furniture</w>": 6155,
    "lifting</w>": 6156,
    "wind</w>": 6157,
    "atic</w>": 6158,
    "proper</w>": 6159,
    "occasional</w>": 6160,
    "bling</w>": 6161,
    "yuck</w>": 6162,
    "pay": 6163,
    "clients</w>": 6164,
    "lover</w>": 6165,
    "boring</w>": 6166,
    "verse</w>": 6167,
    "springs</w>": 6168,
    "histor": 6169,
    "cheddar</w>": 6170,
    "qual": 6171,
    "fitness</w>": 6172,
    "spin</w>": 6173,
    "locker</w>": 6174,
    "esi</w>": 6175,
    "touching</w>": 6176,
    "rubbed</w>": 6177,
    "handled</w>": 6178,
    "batter</w>": 6179,
    "chor": 6180,
    "hallo": 6181,
    "halloween</w>": 6182,
    "tangle</w>": 6183,
    "grease</w>": 6184,
    "ples</w>": 6185,
    "ident": 6186,
    "deposit</w>": 6187,
    "sem": 6188,
    "miracle</w>": 6189,
    "inn</w>": 6190,
    "bio": 6191,
    "stunning</w>": 6192,
    "cheapest</w>": 6193,
    "ythe</w>": 6194,
    "pleasing</w>": 6195,
    "usa</w>": 6196,
    "appeal": 6197,
    "resort</w>": 6198,
    "stories</w>": 6199,
    "finishing</w>": 6200,
    "rr": 6201,
    "orn</w>": 6202,
    "hookah</w>": 6203,
    "cheeses</w>": 6204,
    "inch</w>": 6205,
    "mousse</w>": 6206,
    "oven</w>": 6207,
    "gnoc": 6208,
    "underneath</w>": 6209,
    "boar": 6210,
    "bend</w>": 6211,
    "ho</w>": 6212,
    "vendor</w>": 6213,
    "rubbery</w>": 6214,
    "leg</w>": 6215,
    "reviewed</w>": 6216,
    "alp": 6217,
    "accur": 6218,
    "bility</w>": 6219,
    "cushi": 6220,
    "grooming</w>": 6221,
    "emergen": 6222,
    "hook</w>": 6223,
    "towel": 6224,
    "circles</w>": 6225,
    "metho": 6226,
    "hairspray</w>": 6227,
    "strugg": 6228,
    "encils</w>": 6229,
    "tthe</w>": 6230,
    "bald</w>": 6231,
    "ises</w>": 6232,
    "theme</w>": 6233,
    "bombs</w>": 6234,
    "niece</w>": 6235,
    "glued</w>": 6236,
    "cosmetic</w>": 6237,
    "metallic</w>": 6238,
    "sulf": 6239,
    "brushing</w>": 6240,
    "softens</w>": 6241,
    "elastic": 6242,
    "mollient</w>": 6243,
    "firming</w>": 6244,
    "blender</w>": 6245,
    "shedding</w>": 6246,
    "ethis</w>": 6247,
    "shimm": 6248,
    "bathing</w>": 6249,
    "hemp</w>": 6250,
    "unscented</w>": 6251,
    "hydrox": 6252,
    "heal</w>": 6253,
    "curler</w>": 6254,
    "itthe</w>": 6255,
    "tangled</w>": 6256,
    "concealer</w>": 6257,
    "toen": 6258,
    "toena": 6259,
    "polygel</w>": 6260,
    "condition": 6261,
    "bundles</w>": 6262,
    "diy</w>": 6263,
    "explore</w>": 6264,
    "veal</w>": 6265,
    "everyone's</w>": 6266,
    "domin": 6267,
    "impress</w>": 6268,
    "latte</w>": 6269,
    "holy</w>": 6270,
    "pumpkin</w>": 6271,
    "cabbage</w>": 6272,
    "select</w>": 6273,
    "entering</w>": 6274,
    "bagel</w>": 6275,
    "manufacturer</w>": 6276,
    "collec": 6277,
    "valet</w>": 6278,
    "las</w>": 6279,
    "mode</w>": 6280,
    "elevator</w>": 6281,
    "restaurant": 6282,
    "balaya</w>": 6283,
    "fellow</w>": 6284,
    "staple</w>": 6285,
    "peak</w>": 6286,
    "necessarily</w>": 6287,
    "member": 6288,
    "itted</w>": 6289,
    "gaz": 6290,
    "impeccable</w>": 6291,
    "connois": 6292,
    "connoisse": 6293,
    "focus</w>": 6294,
    "prosci": 6295,
    "prosciutto</w>": 6296,
    "husband": 6297,
    "husband's</w>": 6298,
    "shakes</w>": 6299,
    "dedicated</w>": 6300,
    "opens</w>": 6301,
    "sells</w>": 6302,
    "mushy</w>": 6303,
    "angel": 6304,
    "artist</w>": 6305,
    "aceful</w>": 6306,
    "refrigerator</w>": 6307,
    "shred": 6308,
    "place": 6309,
    "kill</w>": 6310,
    "flying</w>": 6311,
    "bugs</w>": 6312,
    "corners</w>": 6313,
    "land": 6314,
    "kinks</w>": 6315,
    "granted</w>": 6316,
    "breading</w>": 6317,
    "feta</w>": 6318,
    "plum": 6319,
    "tritip</w>": 6320,
    "heavenly</w>": 6321,
    "reception</w>": 6322,
    "even": 6323,
    "smoky</w>": 6324,
    "enth": 6325,
    "enthusi": 6326,
    "afford</w>": 6327,
    "pour</w>": 6328,
    "itters</w>": 6329,
    "dle</w>": 6330,
    "couldnt</w>": 6331,
    "skimp": 6332,
    "pricy</w>": 6333,
    "dryers</w>": 6334,
    "dancing</w>": 6335,
    "vegetarians</w>": 6336,
    "hassle</w>": 6337,
    "exist": 6338,
    "locked</w>": 6339,
    "trips</w>": 6340,
    "raved</w>": 6341,
    "tapas</w>": 6342,
    "fry</w>": 6343,
    "blt</w>": 6344,
    "array</w>": 6345,
    "diag": 6346,
    "miso</w>": 6347,
    "brighter</w>": 6348,
    "students</w>": 6349,
    "refer": 6350,
    "gal</w>": 6351,
    "refl": 6352,
    "straw</w>": 6353,
    "peas</w>": 6354,
    "morn": 6355,
    "route</w>": 6356,
    "load</w>": 6357,
    "lay": 6358,
    "ano</w>": 6359,
    "sla": 6360,
    "half": 6361,
    "error</w>": 6362,
    "john</w>": 6363,
    "esses</w>": 6364,
    "handed</w>": 6365,
    "decently</w>": 6366,
    "dangerous</w>": 6367,
    "tively</w>": 6368,
    "dged</w>": 6369,
    "caesar</w>": 6370,
    "atters</w>": 6371,
    "complex</w>": 6372,
    "notes</w>": 6373,
    "bringing</w>": 6374,
    "anticip": 6375,
    "rave</w>": 6376,
    "mimosa</w>": 6377,
    "vineg": 6378,
    "vinegar</w>": 6379,
    "pastry</w>": 6380,
    "icians</w>": 6381,
    "combinations</w>": 6382,
    "shield</w>": 6383,
    "ceiling</w>": 6384,
    "atives</w>": 6385,
    "paired</w>": 6386,
    "york</w>": 6387,
    "hockey</w>": 6388,
    "razors</w>": 6389,
    "parm</w>": 6390,
    "pea</w>": 6391,
    "otes</w>": 6392,
    "leaking</w>": 6393,
    "kale</w>": 6394,
    "secre": 6395,
    "certi": 6396,
    "suppor": 6397,
    "bumps</w>": 6398,
    "dim</w>": 6399,
    "neighb": 6400,
    "ili": 6401,
    "teri": 6402,
    "sco</w>": 6403,
    "decorative</w>": 6404,
    "larg": 6405,
    "sket": 6406,
    "burned</w>": 6407,
    "brews</w>": 6408,
    "promo": 6409,
    "correctly</w>": 6410,
    "planned</w>": 6411,
    "complained</w>": 6412,
    "families</w>": 6413,
    "guage</w>": 6414,
    "todd": 6415,
    "competitive</w>": 6416,
    "insul": 6417,
    "confir": 6418,
    "lion</w>": 6419,
    "upgra": 6420,
    "jam</w>": 6421,
    "remains</w>": 6422,
    "delicious": 6423,
    "profession": 6424,
    "squash</w>": 6425,
    "burnt</w>": 6426,
    "lab</w>": 6427,
    "kic": 6428,
    "ori": 6429,
    "sport</w>": 6430,
    "names</w>": 6431,
    "massages</w>": 6432,
    "eria</w>": 6433,
    "reception": 6434,
    "bras": 6435,
    "arch": 6436,
    "ape": 6437,
    "autom": 6438,
    "sits</w>": 6439,
    "sprin": 6440,
    "pecan</w>": 6441,
    "son's</w>": 6442,
    "joe's</w>": 6443,
    "ion": 6444,
    "fast": 6445,
    "gelato</w>": 6446,
    "dness</w>": 6447,
    "memories</w>": 6448,
    "texas</w>": 6449,
    "vita": 6450,
    "pore</w>": 6451,
    "chic</w>": 6452,
    "stle</w>": 6453,
    "concier": 6454,
    "concierge</w>": 6455,
    "toss</w>": 6456,
    "pets</w>": 6457,
    "stamp</w>": 6458,
    "chop</w>": 6459,
    "assist</w>": 6460,
    "bacter": 6461,
    "sol</w>": 6462,
    "daugh": 6463,
    "daughter": 6464,
    "trial</w>": 6465,
    "knots</w>": 6466,
    "lia</w>": 6467,
    "physical</w>": 6468,
    "elimin": 6469,
    "success": 6470,
    "hat</w>": 6471,
    "ts": 6472,
    "nicks</w>": 6473,
    "causing</w>": 6474,
    "bt": 6475,
    "btw</w>": 6476,
    "breath</w>": 6477,
    "ague</w>": 6478,
    "resulting</w>": 6479,
    "tile</w>": 6480,
    "hoo</w>": 6481,
    "appealing</w>": 6482,
    "skins</w>": 6483,
    "ance": 6484,
    "gnocchi</w>": 6485,
    "magical</w>": 6486,
    "bird</w>": 6487,
    "sesame</w>": 6488,
    "horri": 6489,
    "beginner</w>": 6490,
    "accurate</w>": 6491,
    "slowly</w>": 6492,
    "remini": 6493,
    "sus</w>": 6494,
    "concerns</w>": 6495,
    "thumbs</w>": 6496,
    "sof": 6497,
    "traff": 6498,
    "traffic</w>": 6499,
    "conditions</w>": 6500,
    "keratin</w>": 6501,
    "hydrate</w>": 6502,
    "move": 6503,
    "resin</w>": 6504,
    "ca</w>": 6505,
    "shr": 6506,
    "stylish</w>": 6507,
    "wear": 6508,
    "locking</w>": 6509,
    "tested</w>": 6510,
    "tanning</w>": 6511,
    "curve</w>": 6512,
    "method</w>": 6513,
    "manual</w>": 6514,
    "cocoa</w>": 6515,
    "tubes</w>": 6516,
    "ingthe</w>": 6517,
    "slick</w>": 6518,
    "emollient</w>": 6519,
    "sha</w>": 6520,
    "weigh": 6521,
    "covid</w>": 6522,
    "detangling</w>": 6523,
    "tines</w>": 6524,
    "adhesive</w>": 6525,
    "blush</w>": 6526,
    "complexion</w>": 6527,
    "scrubber</w>": 6528,
    "mud</w>": 6529,
    "brighten</w>": 6530,
    "repurchase</w>": 6531,
    "ingredient": 6532,
    "listing</w>": 6533,
    "ting": 6534,
    "blackheads</w>": 6535,
    "rating": 6536,
    "pcs</w>": 6537,
    "ponytail</w>": 6538,
    "chewy</w>": 6539,
    "fail</w>": 6540,
    "caram": 6541,
    "knowledg": 6542,
    "knowledgable</w>": 6543,
    "glutenfree</w>": 6544,
    "brow</w>": 6545,
    "mcdonalds</w>": 6546,
    "assist": 6547,
    "waiters</w>": 6548,
    "hearing</w>": 6549,
    "lied</w>": 6550,
    "closet</w>": 6551,
    "muff": 6552,
    "entious</w>": 6553,
    "conv": 6554,
    "shift</w>": 6555,
    "jum": 6556,
    "internet</w>": 6557,
    "floors</w>": 6558,
    "coke</w>": 6559,
    "cape</w>": 6560,
    "court": 6561,
    "rustic</w>": 6562,
    "sb</w>": 6563,
    "membership</w>": 6564,
    "ph</w>": 6565,
    "info</w>": 6566,
    "pricier</w>": 6567,
    "disappeared</w>": 6568,
    "boiled</w>": 6569,
    "recog": 6570,
    "recogni": 6571,
    "prep</w>": 6572,
    "shirts</w>": 6573,
    "sweets</w>": 6574,
    "peaceful</w>": 6575,
    "barrel</w>": 6576,
    "apologize</w>": 6577,
    "ball": 6578,
    "cheesesteaks</w>": 6579,
    "chuan</w>": 6580,
    "shredded</w>": 6581,
    "manage</w>": 6582,
    "properties</w>": 6583,
    "communication</w>": 6584,
    "vings</w>": 6585,
    "ject</w>": 6586,
    "materials</w>": 6587,
    "background</w>": 6588,
    "humid</w>": 6589,
    "sashi": 6590,
    "sashimi</w>": 6591,
    "finds</w>": 6592,
    "yelpers</w>": 6593,
    "susp": 6594,
    "caro": 6595,
    "kle</w>": 6596,
    "macar": 6597,
    "recipes</w>": 6598,
    "destin": 6599,
    "ila</w>": 6600,
    "flow</w>": 6601,
    "busin": 6602,
    "whatso": 6603,
    "whatsoever</w>": 6604,
    "friend's</w>": 6605,
    "mat</w>": 6606,
    "question": 6607,
    "camer": 6608,
    "ormous</w>": 6609,
    "drawer</w>": 6610,
    "arrang": 6611,
    "plenti": 6612,
    "plentiful</w>": 6613,
    "ours</w>": 6614,
    "grouper</w>": 6615,
    "created</w>": 6616,
    "unnecessary</w>": 6617,
    "jambalaya</w>": 6618,
    "labeled</w>": 6619,
    "caj": 6620,
    "cajun</w>": 6621,
    "unt</w>": 6622,
    "beha": 6623,
    "four": 6624,
    "taste": 6625,
    "stin</w>": 6626,
    "seven</w>": 6627,
    "constant</w>": 6628,
    "jelly</w>": 6629,
    "cle</w>": 6630,
    "foodie</w>": 6631,
    "stew</w>": 6632,
    "vities</w>": 6633,
    "hence</w>": 6634,
    "companies</w>": 6635,
    "nicest</w>": 6636,
    "mocha</w>": 6637,
    "insane</w>": 6638,
    "remembered</w>": 6639,
    "luke": 6640,
    "chile</w>": 6641,
    "rowing</w>": 6642,
    "nerv": 6643,
    "stage</w>": 6644,
    "ition</w>": 6645,
    "embarras": 6646,
    "han</w>": 6647,
    "allergy</w>": 6648,
    "introduced</w>": 6649,
    "kabo": 6650,
    "assured</w>": 6651,
    "himself</w>": 6652,
    "urban</w>": 6653,
    "honda</w>": 6654,
    "adjust</w>": 6655,
    "wawa</w>": 6656,
    "sum": 6657,
    "summary</w>": 6658,
    "braised</w>": 6659,
    "lee</w>": 6660,
    "trained</w>": 6661,
    "tionally</w>": 6662,
    "steamed</w>": 6663,
    "platters</w>": 6664,
    "bank</w>": 6665,
    "bummed</w>": 6666,
    "reference</w>": 6667,
    "ologi": 6668,
    "assortment</w>": 6669,
    "reduction</w>": 6670,
    "active</w>": 6671,
    "punch</w>": 6672,
    "lunch": 6673,
    "i's</w>": 6674,
    "gourmet</w>": 6675,
    "show": 6676,
    "recipe</w>": 6677,
    "mother": 6678,
    "deduc": 6679,
    "chains</w>": 6680,
    "usion</w>": 6681,
    "rancher": 6682,
    "ington</w>": 6683,
    "ordinary</w>": 6684,
    "ye</w>": 6685,
    "insi": 6686,
    "ola</w>": 6687,
    "agh": 6688,
    "marinated</w>": 6689,
    "cum": 6690,
    "hunt</w>": 6691,
    "warm": 6692,
    "seam": 6693,
    "bottom": 6694,
    "gho": 6695,
    "spring": 6696,
    "pina</w>": 6697,
    "requests</w>": 6698,
    "in'</w>": 6699,
    "tech</w>": 6700,
    "bear</w>": 6701,
    "upd": 6702,
    "coc": 6703,
    "drain</w>": 6704,
    "coating</w>": 6705,
    "status</w>": 6706,
    "hable</w>": 6707,
    "occasionally</w>": 6708,
    "district</w>": 6709,
    "zzled</w>": 6710,
    "dig</w>": 6711,
    "wro": 6712,
    "wrote</w>": 6713,
    "language</w>": 6714,
    "crappy</w>": 6715,
    "arriving</w>": 6716,
    "salons</w>": 6717,
    "assuming</w>": 6718,
    "watered</w>": 6719,
    "ulty</w>": 6720,
    "virtu": 6721,
    "upgraded</w>": 6722,
    "entially</w>": 6723,
    "print</w>": 6724,
    "idi": 6725,
    "cruise</w>": 6726,
    "quir": 6727,
    "toler": 6728,
    "mimosas</w>": 6729,
    "heading</w>": 6730,
    "unhappy</w>": 6731,
    "steak": 6732,
    "image</w>": 6733,
    "choosing</w>": 6734,
    "chaat</w>": 6735,
    "jo</w>": 6736,
    "tours</w>": 6737,
    "loop</w>": 6738,
    "suited</w>": 6739,
    "packing</w>": 6740,
    "ization</w>": 6741,
    "charges</w>": 6742,
    "receptionist</w>": 6743,
    "styled</w>": 6744,
    "britt": 6745,
    "trav": 6746,
    "regards</w>": 6747,
    "trader</w>": 6748,
    "graphic</w>": 6749,
    "fala": 6750,
    "falafe": 6751,
    "falafel</w>": 6752,
    "em</w>": 6753,
    "fold</w>": 6754,
    "adequate</w>": 6755,
    "prepar": 6756,
    "noisy</w>": 6757,
    "sorts</w>": 6758,
    "ignore</w>": 6759,
    "vitamins</w>": 6760,
    "vod": 6761,
    "vodka</w>": 6762,
    "phor": 6763,
    "hall": 6764,
    "freezer</w>": 6765,
    "microwave</w>": 6766,
    "backs</w>": 6767,
    "warning</w>": 6768,
    "regul": 6769,
    "standards</w>": 6770,
    "llo</w>": 6771,
    "filthy</w>": 6772,
    "vents</w>": 6773,
    "yours</w>": 6774,
    "ul</w>": 6775,
    "fian": 6776,
    "fianc</w>": 6777,
    "choriz": 6778,
    "chorizo</w>": 6779,
    "on's</w>": 6780,
    "needing</w>": 6781,
    "processed</w>": 6782,
    "series</w>": 6783,
    "circular</w>": 6784,
    "tained</w>": 6785,
    "pin</w>": 6786,
    "justi": 6787,
    "twenty</w>": 6788,
    "darn</w>": 6789,
    "never": 6790,
    "spic": 6791,
    "bam": 6792,
    "zar": 6793,
    "exhi": 6794,
    "attend": 6795,
    "dislike</w>": 6796,
    "balcon": 6797,
    "considered</w>": 6798,
    "owner": 6799,
    "isi": 6800,
    "ssy</w>": 6801,
    "wi</w>": 6802,
    "ethi": 6803,
    "ethiop": 6804,
    "ethiopian</w>": 6805,
    "esthe": 6806,
    "scrambled</w>": 6807,
    "crew</w>": 6808,
    "aa</w>": 6809,
    "downhill</w>": 6810,
    "profile</w>": 6811,
    "iles</w>": 6812,
    "deb": 6813,
    "popped</w>": 6814,
    "narrow</w>": 6815,
    "exter": 6816,
    "bachi</w>": 6817,
    "itary</w>": 6818,
    "grin": 6819,
    "pher": 6820,
    "reminiscent</w>": 6821,
    "shapes</w>": 6822,
    "leading</w>": 6823,
    "attend</w>": 6824,
    "invest": 6825,
    "powered</w>": 6826,
    "jet</w>": 6827,
    "chapp": 6828,
    "motion</w>": 6829,
    "sens": 6830,
    "runny</w>": 6831,
    "painted</w>": 6832,
    "queen</w>": 6833,
    "quet</w>": 6834,
    "amounts</w>": 6835,
    "ihop</w>": 6836,
    "minty</w>": 6837,
    "china</w>": 6838,
    "resc": 6839,
    "rescue</w>": 6840,
    "tes</w>": 6841,
    "elbows</w>": 6842,
    "thumb</w>": 6843,
    "pig</w>": 6844,
    "wiping</w>": 6845,
    "grandma</w>": 6846,
    "chin</w>": 6847,
    "gua</w>": 6848,
    "disposable</w>": 6849,
    "packet</w>": 6850,
    "heats</w>": 6851,
    "pouch</w>": 6852,
    "curlers</w>": 6853,
    "spatula</w>": 6854,
    "towele": 6855,
    "rosehip</w>": 6856,
    "cordless</w>": 6857,
    "length": 6858,
    "xxi</w>": 6859,
    "cruel": 6860,
    "boost</w>": 6861,
    "washcloth</w>": 6862,
    "foaming</w>": 6863,
    "radiant</w>": 6864,
    "botan": 6865,
    "aero": 6866,
    "polish": 6867,
    "soothes</w>": 6868,
    "sunflower</w>": 6869,
    "cells</w>": 6870,
    "hazel</w>": 6871,
    "mascaras</w>": 6872,
    "hex": 6873,
    "ness": 6874,
    "palmit": 6875,
    "costu": 6876,
    "pigmented</w>": 6877,
    "cos": 6878,
    "opa": 6879,
    "opaque</w>": 6880,
    "claris": 6881,
    "clarisonic</w>": 6882,
    "eves</w>": 6883,
    "caramel": 6884,
    "kidding</w>": 6885,
    "ura</w>": 6886,
    "ocean</w>": 6887,
    "entre</w>": 6888,
    "slot</w>": 6889,
    "pretentious</w>": 6890,
    "spoiled</w>": 6891,
    "happily</w>": 6892,
    "eys</w>": 6893,
    "artichoke</w>": 6894,
    "cil": 6895,
    "cilan": 6896,
    "cilantro</w>": 6897,
    "hearty</w>": 6898,
    "ouring</w>": 6899,
    "granite</w>": 6900,
    "magaz": 6901,
    "oring</w>": 6902,
    "drinker</w>": 6903,
    "open": 6904,
    "nut": 6905,
    "chetta</w>": 6906,
    "blah</w>": 6907,
    "court</w>": 6908,
    "surprising</w>": 6909,
    "le's</w>": 6910,
    "straightforward</w>": 6911,
    "odd": 6912,
    "replacing</w>": 6913,
    "sze": 6914,
    "szechuan</w>": 6915,
    "alligator</w>": 6916,
    "ising</w>": 6917,
    "born</w>": 6918,
    "roof</w>": 6919,
    "horr": 6920,
    "mani": 6921,
    "bounc": 6922,
    "tourist</w>": 6923,
    "strike</w>": 6924,
    "unacceptable</w>": 6925,
    "tourists</w>": 6926,
    "spor": 6927,
    "maple</w>": 6928,
    "mardi</w>": 6929,
    "tz": 6930,
    "cross</w>": 6931,
    "destination</w>": 6932,
    "marri": 6933,
    "feed": 6934,
    "quired</w>": 6935,
    "skimpy</w>": 6936,
    "tv": 6937,
    "tv's</w>": 6938,
    "short": 6939,
    "vermic": 6940,
    "vermicelli</w>": 6941,
    "beet</w>": 6942,
    "bread": 6943,
    "welcom": 6944,
    "welcomed</w>": 6945,
    "joining</w>": 6946,
    "cart</w>": 6947,
    "tho</w>": 6948,
    "cherry</w>": 6949,
    "fen": 6950,
    "arran": 6951,
    "arrange": 6952,
    "ences</w>": 6953,
    "ruin</w>": 6954,
    "lil</w>": 6955,
    "pple</w>": 6956,
    "placing</w>": 6957,
    "advent": 6958,
    "clinic</w>": 6959,
    "sis</w>": 6960,
    "behavi": 6961,
    "dinners</w>": 6962,
    "opposed</w>": 6963,
    "insanely</w>": 6964,
    "vintage</w>": 6965,
    "plays</w>": 6966,
    "das</w>": 6967,
    "fed</w>": 6968,
    "sisters</w>": 6969,
    "encountered</w>": 6970,
    "korea</w>": 6971,
    "steal</w>": 6972,
    "pride</w>": 6973,
    "brun": 6974,
    "ize</w>": 6975,
    "terminal</w>": 6976,
    "tony</w>": 6977,
    "fortunate</w>": 6978,
    "anda</w>": 6979,
    "nervous</w>": 6980,
    "saving</w>": 6981,
    "dynasty</w>": 6982,
    "yoga</w>": 6983,
    "lifetime</w>": 6984,
    "excuse</w>": 6985,
    "pled</w>": 6986,
    "premium</w>": 6987,
    "settings</w>": 6988,
    "majority</w>": 6989,
    "alcoholic</w>": 6990,
    "loin</w>": 6991,
    "touched</w>": 6992,
    "everybody</w>": 6993,
    "entered</w>": 6994,
    "tennes": 6995,
    "clam</w>": 6996,
    "tart": 6997,
    "parked</w>": 6998,
    "unprofessional</w>": 6999,
    "smar": 7000,
    "determin": 7001,
    "elds</w>": 7002,
    "ologist</w>": 7003,
    "olives</w>": 7004,
    "overwhelmed</w>": 7005,
    "euro": 7006,
    "laugh</w>": 7007,
    "groceries</w>": 7008,
    "swiss</w>": 7009,
    "festival</w>": 7010,
    "artists</w>": 7011,
    "highest</w>": 7012,
    "sucked</w>": 7013,
    "shoe</w>": 7014,
    "pee": 7015,
    "breathable</w>": 7016,
    "client": 7017,
    "ele</w>": 7018,
    "starving</w>": 7019,
    "houses</w>": 7020,
    "drun": 7021,
    "mation</w>": 7022,
    "hooked</w>": 7023,
    "neighbors</w>": 7024,
    "ellini</w>": 7025,
    "fool</w>": 7026,
    "dude</w>": 7027,
    "sco": 7028,
    "coles": 7029,
    "coleslaw</w>": 7030,
    "phones</w>": 7031,
    "concoc": 7032,
    "prescription</w>": 7033,
    "order": 7034,
    "ripped</w>": 7035,
    "perman": 7036,
    "cleanliness</w>": 7037,
    "ety</w>": 7038,
    "van</w>": 7039,
    "table": 7040,
    "dan": 7041,
    "creating</w>": 7042,
    "dresses</w>": 7043,
    "shadows</w>": 7044,
    "pickup</w>": 7045,
    "separately</w>": 7046,
    "flavorless</w>": 7047,
    "won</w>": 7048,
    "upgrade</w>": 7049,
    "strands</w>": 7050,
    "ced</w>": 7051,
    "icity</w>": 7052,
    "mistakes</w>": 7053,
    "improves</w>": 7054,
    "eager</w>": 7055,
    "till</w>": 7056,
    "activity</w>": 7057,
    "according</w>": 7058,
    "transfer</w>": 7059,
    "jump</w>": 7060,
    "workout</w>": 7061,
    "providing</w>": 7062,
    "uring</w>": 7063,
    "ugly</w>": 7064,
    "minimi": 7065,
    "coast</w>": 7066,
    "archit": 7067,
    "cere": 7068,
    "buttermilk</w>": 7069,
    "bli": 7070,
    "chris</w>": 7071,
    "li's</w>": 7072,
    "lovers</w>": 7073,
    "ouse</w>": 7074,
    "lness</w>": 7075,
    "bagels</w>": 7076,
    "housekeeping</w>": 7077,
    "tank</w>": 7078,
    "calls</w>": 7079,
    "fond</w>": 7080,
    "backed</w>": 7081,
    "distur": 7082,
    "stac": 7083,
    "cooks</w>": 7084,
    "thous": 7085,
    "thousand</w>": 7086,
    "anci": 7087,
    "sam's</w>": 7088,
    "news</w>": 7089,
    "child": 7090,
    "refund</w>": 7091,
    "similarly</w>": 7092,
    "quesadilla</w>": 7093,
    "bled</w>": 7094,
    "sue</w>": 7095,
    "triple</w>": 7096,
    "jack</w>": 7097,
    "bin": 7098,
    "pupp": 7099,
    "slam": 7100,
    "campus</w>": 7101,
    "lingu": 7102,
    "tless</w>": 7103,
    "score</w>": 7104,
    "raspberry</w>": 7105,
    "fav</w>": 7106,
    "splurge</w>": 7107,
    "buck</w>": 7108,
    "tak": 7109,
    "octop": 7110,
    "octopus</w>": 7111,
    "pom": 7112,
    "glazed</w>": 7113,
    "gloves</w>": 7114,
    "theless</w>": 7115,
    "successful</w>": 7116,
    "bang</w>": 7117,
    "bamboo</w>": 7118,
    "ile</w>": 7119,
    "saves</w>": 7120,
    "auto</w>": 7121,
    "barber</w>": 7122,
    "gon</w>": 7123,
    "ok": 7124,
    "suits</w>": 7125,
    "ib": 7126,
    "falls</w>": 7127,
    "econ": 7128,
    "gin</w>": 7129,
    "yay</w>": 7130,
    "concentr": 7131,
    "mani</w>": 7132,
    "legit</w>": 7133,
    "luster</w>": 7134,
    "bark</w>": 7135,
    "anx": 7136,
    "kf": 7137,
    "aggre": 7138,
    "aged</w>": 7139,
    "yr</w>": 7140,
    "forth</w>": 7141,
    "happening</w>": 7142,
    "wheel</w>": 7143,
    "fade</w>": 7144,
    "att</w>": 7145,
    "ancy</w>": 7146,
    "trigger</w>": 7147,
    "massaging</w>": 7148,
    "substanti": 7149,
    "venture</w>": 7150,
    "able": 7151,
    "environment": 7152,
    "married</w>": 7153,
    "marke": 7154,
    "famil": 7155,
    "ml</w>": 7156,
    "bride</w>": 7157,
    "becoming</w>": 7158,
    "cuticles</w>": 7159,
    "lean": 7160,
    "install</w>": 7161,
    "involved</w>": 7162,
    "educ": 7163,
    "pic</w>": 7164,
    "managers</w>": 7165,
    "anella</w>": 7166,
    "pral": 7167,
    "glad": 7168,
    "gladly</w>": 7169,
    "ects</w>": 7170,
    "solve</w>": 7171,
    "searched</w>": 7172,
    "female</w>": 7173,
    "fai": 7174,
    "toward</w>": 7175,
    "chap": 7176,
    "shaves</w>": 7177,
    "lacks</w>": 7178,
    "turning</w>": 7179,
    "identical</w>": 7180,
    "bles</w>": 7181,
    "satin</w>": 7182,
    "rhin": 7183,
    "rhinest": 7184,
    "distri": 7185,
    "distribu": 7186,
    "pushing</w>": 7187,
    "puppy</w>": 7188,
    "reaction</w>": 7189,
    "ug</w>": 7190,
    "perform</w>": 7191,
    "trimming</w>": 7192,
    "polishing</w>": 7193,
    "pha": 7194,
    "static</w>": 7195,
    "model": 7196,
    "sque": 7197,
    "leaked</w>": 7198,
    "containing</w>": 7199,
    "straightener</w>": 7200,
    "massager</w>": 7201,
    "pulls</w>": 7202,
    "detangles</w>": 7203,
    "wrist</w>": 7204,
    "suds</w>": 7205,
    "applicators</w>": 7206,
    "spraying</w>": 7207,
    "dissipates</w>": 7208,
    "glides</w>": 7209,
    "carriers</w>": 7210,
    "reservo": 7211,
    "reservoir</w>": 7212,
    "puffy</w>": 7213,
    "femin": 7214,
    "feminine</w>": 7215,
    "centella</w>": 7216,
    "verall</w>": 7217,
    "scars</w>": 7218,
    "reapply</w>": 7219,
    "perfumes</w>": 7220,
    "benz": 7221,
    "hyaluronate</w>": 7222,
    "ensis</w>": 7223,
    "abras": 7224,
    "ediol</w>": 7225,
    "atica</w>": 7226,
    "egf</w>": 7227,
    "stencils</w>": 7228,
    "butterflies</w>": 7229,
    "patch</w>": 7230,
    "granddaughter</w>": 7231,
    "cleanses</w>": 7232,
    "acetone</w>": 7233,
    "sparkle</w>": 7234,
    "snail</w>": 7235,
    "ewg</w>": 7236,
    "cac": 7237,
    "stl</w>": 7238,
    "smash": 7239,
    "speciali": 7240,
    "diam": 7241,
    "brushed</w>": 7242,
    "task</w>": 7243,
    "politely</w>": 7244,
    "bottled</w>": 7245,
    "stale</w>": 7246,
    "thinks</w>": 7247,
    "personality</w>": 7248,
    "salad": 7249,
    "glor": 7250,
    "tribu": 7251,
    "rown</w>": 7252,
    "connoisseur</w>": 7253,
    "bison</w>": 7254,
    "dely</w>": 7255,
    "birds</w>": 7256,
    "marinara</w>": 7257,
    "milkshakes</w>": 7258,
    "trio</w>": 7259,
    "photograph": 7260,
    "ena</w>": 7261,
    "varied</w>": 7262,
    "inspection</w>": 7263,
    "jac": 7264,
    "cracker</w>": 7265,
    "fuss</w>": 7266,
    "alley</w>": 7267,
    "jackson</w>": 7268,
    "noo": 7269,
    "refunded</w>": 7270,
    "confirm</w>": 7271,
    "reached</w>": 7272,
    "endous</w>": 7273,
    "bold</w>": 7274,
    "lamps</w>": 7275,
    "lugg": 7276,
    "luggage</w>": 7277,
    "dem": 7278,
    "indulge</w>": 7279,
    "serie</w>": 7280,
    "accommodations</w>": 7281,
    "balsam": 7282,
    "balsamic</w>": 7283,
    "suspect</w>": 7284,
    "evenings</w>": 7285,
    "book": 7286,
    "lete</w>": 7287,
    "mildly</w>": 7288,
    "devel": 7289,
    "feedback</w>": 7290,
    "suppose": 7291,
    "tegr": 7292,
    "lasag": 7293,
    "nic</w>": 7294,
    "existent</w>": 7295,
    "guessing</w>": 7296,
    "arranged</w>": 7297,
    "toasted</w>": 7298,
    "horser": 7299,
    "adish</w>": 7300,
    "chopped</w>": 7301,
    "improvements</w>": 7302,
    "bor</w>": 7303,
    "calor": 7304,
    "lunches</w>": 7305,
    "message</w>": 7306,
    "grac": 7307,
    "buck": 7308,
    "monde</w>": 7309,
    "ius</w>": 7310,
    "caring</w>": 7311,
    "cities</w>": 7312,
    "sweethe": 7313,
    "sweetheart</w>": 7314,
    "lists</w>": 7315,
    "bob</w>": 7316,
    "student</w>": 7317,
    "baristas</w>": 7318,
    "sloppy</w>": 7319,
    "sweetness</w>": 7320,
    "yland</w>": 7321,
    "napkins</w>": 7322,
    "greasy": 7323,
    "parties</w>": 7324,
    "kat": 7325,
    "vary</w>": 7326,
    "mornings</w>": 7327,
    "fluid</w>": 7328,
    "ander</w>": 7329,
    "farmers</w>": 7330,
    "sau": 7331,
    "throwing</w>": 7332,
    "skil": 7333,
    "jersey</w>": 7334,
    "piano</w>": 7335,
    "songs</w>": 7336,
    "offensive</w>": 7337,
    "ado</w>": 7338,
    "amen": 7339,
    "kabob</w>": 7340,
    "enced</w>": 7341,
    "incorrect</w>": 7342,
    "passes</w>": 7343,
    "pies</w>": 7344,
    "stepped</w>": 7345,
    "droo": 7346,
    "hoag": 7347,
    "international</w>": 7348,
    "wanna</w>": 7349,
    "apple": 7350,
    "catfish</w>": 7351,
    "piping</w>": 7352,
    "lli": 7353,
    "web</w>": 7354,
    "tto</w>": 7355,
    "crack</w>": 7356,
    "squeezed</w>": 7357,
    "hel</w>": 7358,
    "exceptionally</w>": 7359,
    "pregnant</w>": 7360,
    "tennessee</w>": 7361,
    "lb</w>": 7362,
    "mei</w>": 7363,
    "boot</w>": 7364,
    "chatting</w>": 7365,
    "fees</w>": 7366,
    "attended</w>": 7367,
    "moon</w>": 7368,
    "herbs</w>": 7369,
    "rainy</w>": 7370,
    "windshield</w>": 7371,
    "suffici": 7372,
    "snob</w>": 7373,
    "hitting</w>": 7374,
    "evos</w>": 7375,
    "july</w>": 7376,
    "paper": 7377,
    "clientele</w>": 7378,
    "energetic</w>": 7379,
    "outra": 7380,
    "packets</w>": 7381,
    "text</w>": 7382,
    "ghost</w>": 7383,
    "mansion</w>": 7384,
    "gal": 7385,
    "teriya": 7386,
    "teriyaki</w>": 7387,
    "resist</w>": 7388,
    "packages</w>": 7389,
    "understand": 7390,
    "pitchers</w>": 7391,
    "listening</w>": 7392,
    "walnut</w>": 7393,
    "marsh": 7394,
    "cheesy</w>": 7395,
    "phar": 7396,
    "pharmac": 7397,
    "wallet</w>": 7398,
    "portioned</w>": 7399,
    "dined</w>": 7400,
    "sest</w>": 7401,
    "crave</w>": 7402,
    "thir": 7403,
    "ridiculously</w>": 7404,
    "silly</w>": 7405,
    "anni": 7406,
    "annivers": 7407,
    "anniversary</w>": 7408,
    "tropical</w>": 7409,
    "listened</w>": 7410,
    "itty</w>": 7411,
    "slept</w>": 7412,
    "vey</w>": 7413,
    "rep": 7414,
    "answering</w>": 7415,
    "aters</w>": 7416,
    "overdone</w>": 7417,
    "vour": 7418,
    "opposite</w>": 7419,
    "covering</w>": 7420,
    "efficiently</w>": 7421,
    "pretzel</w>": 7422,
    "noticing</w>": 7423,
    "shirt</w>": 7424,
    "stadium</w>": 7425,
    "pairs</w>": 7426,
    "matched</w>": 7427,
    "an's</w>": 7428,
    "cbd</w>": 7429,
    "buff</w>": 7430,
    "justice</w>": 7431,
    "mies</w>": 7432,
    "ipa</w>": 7433,
    "uneven</w>": 7434,
    "gf</w>": 7435,
    "cow": 7436,
    "somebody</w>": 7437,
    "gotta</w>": 7438,
    "otic</w>": 7439,
    "starters</w>": 7440,
    "holidays</w>": 7441,
    "queso</w>": 7442,
    "fajitas</w>": 7443,
    "medicine</w>": 7444,
    "damaging</w>": 7445,
    "dye</w>": 7446,
    "straighten</w>": 7447,
    "curled</w>": 7448,
    "architec": 7449,
    "architecture</w>": 7450,
    "jalape": 7451,
    "dig": 7452,
    "sbra": 7453,
    "fryer</w>": 7454,
    "nom": 7455,
    "scratch</w>": 7456,
    "bottomless</w>": 7457,
    "macul": 7458,
    "ay": 7459,
    "ata</w>": 7460,
    "lian</w>": 7461,
    "jumped</w>": 7462,
    "smokey</w>": 7463,
    "sca": 7464,
    "martini</w>": 7465,
    "hipster</w>": 7466,
    "delivering</w>": 7467,
    "eeee": 7468,
    "tter": 7469,
    "popcorn</w>": 7470,
    "wider</w>": 7471,
    "smart</w>": 7472,
    "tony's</w>": 7473,
    "tas": 7474,
    "chuck</w>": 7475,
    "contrast</w>": 7476,
    "hilton</w>": 7477,
    "spagh": 7478,
    "daughter's</w>": 7479,
    "pampered</w>": 7480,
    "factor</w>": 7481,
    "puppies</w>": 7482,
    "hour": 7483,
    "sparks</w>": 7484,
    "dom</w>": 7485,
    "pushed</w>": 7486,
    "sbur": 7487,
    "touring</w>": 7488,
    "conversations</w>": 7489,
    "clams</w>": 7490,
    "flaw": 7491,
    "nurse</w>": 7492,
    "confid": 7493,
    "plantains</w>": 7494,
    "seeking</w>": 7495,
    "takoy": 7496,
    "takoyaki</w>": 7497,
    "freshest</w>": 7498,
    "doughy</w>": 7499,
    "nevertheless</w>": 7500,
    "lastly</w>": 7501,
    "longest</w>": 7502,
    "op</w>": 7503,
    "itter</w>": 7504,
    "marked</w>": 7505,
    "ille</w>": 7506,
    "lighted</w>": 7507,
    "hats</w>": 7508,
    "topping</w>": 7509,
    "comments</w>": 7510,
    "temp</w>": 7511,
    "sac": 7512,
    "lazy</w>": 7513,
    "ases</w>": 7514,
    "muri": 7515,
    "muriel's</w>": 7516,
    "rou": 7517,
    "meatloaf</w>": 7518,
    "ckets</w>": 7519,
    "fraction</w>": 7520,
    "seeds</w>": 7521,
    "county</w>": 7522,
    "lying</w>": 7523,
    "remain</w>": 7524,
    "impati": 7525,
    "switch": 7526,
    "children's</w>": 7527,
    "influ": 7528,
    "strength</w>": 7529,
    "mallow</w>": 7530,
    "dark": 7531,
    "complic": 7532,
    "pony</w>": 7533,
    "joints</w>": 7534,
    "iti</w>": 7535,
    "brown": 7536,
    "post": 7537,
    "touch": 7538,
    "push": 7539,
    "hyatt</w>": 7540,
    "lly</w>": 7541,
    "harv": 7542,
    "root</w>": 7543,
    "prep": 7544,
    "substance</w>": 7545,
    "look": 7546,
    "doll</w>": 7547,
    "poured</w>": 7548,
    "hello</w>": 7549,
    "tests</w>": 7550,
    "hibachi</w>": 7551,
    "desired</w>": 7552,
    "wheat</w>": 7553,
    "wondered</w>": 7554,
    "edit</w>": 7555,
    "dio</w>": 7556,
    "rese": 7557,
    "contents</w>": 7558,
    "stored</w>": 7559,
    "clumpy</w>": 7560,
    "linguine</w>": 7561,
    "haun": 7562,
    "buyer</w>": 7563,
    "lor": 7564,
    "soaking</w>": 7565,
    "geor": 7566,
    "friendly": 7567,
    "tears</w>": 7568,
    "offic": 7569,
    "passing</w>": 7570,
    "ati</w>": 7571,
    "tiki</w>": 7572,
    "commercial</w>": 7573,
    "curious</w>": 7574,
    "facials</w>": 7575,
    "mom's</w>": 7576,
    "devices</w>": 7577,
    "iphone</w>": 7578,
    "acrylics</w>": 7579,
    "investment</w>": 7580,
    "cious</w>": 7581,
    "kne": 7582,
    "socc": 7583,
    "soccer</w>": 7584,
    "tame</w>": 7585,
    "transl": 7586,
    "happier</w>": 7587,
    "dreamy</w>": 7588,
    "phora</w>": 7589,
    "bucket</w>": 7590,
    "symp": 7591,
    "atro": 7592,
    "decoration</w>": 7593,
    "sensation</w>": 7594,
    "ingit</w>": 7595,
    "peeled</w>": 7596,
    "bare</w>": 7597,
    "versus</w>": 7598,
    "character</w>": 7599,
    "magnet</w>": 7600,
    "mixing</w>": 7601,
    "ers": 7602,
    "acts</w>": 7603,
    "ones": 7604,
    "keychain</w>": 7605,
    "hairdresser</w>": 7606,
    "oat": 7607,
    "oatmeal</w>": 7608,
    "stressed</w>": 7609,
    "mun": 7610,
    "velve": 7611,
    "velvety</w>": 7612,
    "sleek</w>": 7613,
    "sweating</w>": 7614,
    "therapy</w>": 7615,
    "stretched</w>": 7616,
    "universal</w>": 7617,
    "reuse</w>": 7618,
    "trimm": 7619,
    "soaks</w>": 7620,
    "lingers</w>": 7621,
    "cell": 7622,
    "users</w>": 7623,
    "stripped</w>": 7624,
    "pictured</w>": 7625,
    "prone</w>": 7626,
    "elasticity</w>": 7627,
    "exfoliator</w>": 7628,
    "gloss</w>": 7629,
    "pigment</w>": 7630,
    "brush": 7631,
    "shower": 7632,
    "attach</w>": 7633,
    "suitable</w>": 7634,
    "accessory</w>": 7635,
    "removable</w>": 7636,
    "shimmery</w>": 7637,
    "aggra": 7638,
    "reusable</w>": 7639,
    "itthanks</w>": 7640,
    "acin": 7641,
    "acinami": 7642,
    "bulky</w>": 7643,
    "alumin": 7644,
    "aluminum</w>": 7645,
    "wonders</w>": 7646,
    "scraper</w>": 7647,
    "dges</w>": 7648,
    "stickiness</w>": 7649,
    "becomes</w>": 7650,
    "mechanism</w>": 7651,
    "toothbrushes</w>": 7652,
    "sticker</w>": 7653,
    "arent</w>": 7654,
    "braid</w>": 7655,
    "phenox": 7656,
    "phenoxye": 7657,
    "phenoxyethan": 7658,
    "phenoxyethanol</w>": 7659,
    "cerami": 7660,
    "ylene</w>": 7661,
    "asiatica</w>": 7662,
    "toco": 7663,
    "tocopher": 7664,
    "tear": 7665,
    "antioxidant</w>": 7666,
    "shrink</w>": 7667,
    "toothpaste</w>": 7668,
    "fingernails</w>": 7669,
    "easil": 7670,
    "crystals</w>": 7671,
    "vei</w>": 7672,
    "mask": 7673,
    "mister</w>": 7674,
    "ratingfive</w>": 7675,
    "itll</w>": 7676,
    "hassoul</w>": 7677,
    "quicker</w>": 7678,
    "it'll</w>": 7679,
    "bleu</w>": 7680,
    "gent</w>": 7681,
    "fragrant</w>": 7682,
    "asis</w>": 7683,
    "dare</w>": 7684,
    "someone's</w>": 7685,
    "recall</w>": 7686,
    "related</w>": 7687,
    "vegas</w>": 7688,
    "advertising</w>": 7689,
    "tus": 7690,
    "coworker</w>": 7691,
    "convinc": 7692,
    "convinced</w>": 7693,
    "gallo</w>": 7694,
    "drawn</w>": 7695,
    "settled</w>": 7696,
    "rushing</w>": 7697,
    "ideas</w>": 7698,
    "brothers</w>": 7699,
    "herb</w>": 7700,
    "glorious</w>": 7701,
    "shells</w>": 7702,
    "sc</w>": 7703,
    "acme</w>": 7704,
    "depends</w>": 7705,
    "magazine</w>": 7706,
    "crepes</w>": 7707,
    "drive": 7708,
    "rudely</w>": 7709,
    "bruschetta</w>": 7710,
    "identi": 7711,
    "fication</w>": 7712,
    "tum": 7713,
    "pons</w>": 7714,
    "ugh</w>": 7715,
    "earthy</w>": 7716,
    "plantation</w>": 7717,
    "freezing</w>": 7718,
    "appt</w>": 7719,
    "laptop</w>": 7720,
    "mainten": 7721,
    "sum</w>": 7722,
    "gol": 7723,
    "patience</w>": 7724,
    "bakla": 7725,
    "baklava</w>": 7726,
    "eness</w>": 7727,
    "warran": 7728,
    "mud": 7729,
    "blast</w>": 7730,
    "sales": 7731,
    "wow": 7732,
    "ratings</w>": 7733,
    "explan": 7734,
    "whats</w>": 7735,
    "supposedly</w>": 7736,
    "reheated</w>": 7737,
    "disin": 7738,
    "loads</w>": 7739,
    "equal</w>": 7740,
    "conveniently</w>": 7741,
    "dog": 7742,
    "broad</w>": 7743,
    "iche</w>": 7744,
    "thoughtful</w>": 7745,
    "freaking</w>": 7746,
    "wis": 7747,
    "eli</w>": 7748,
    "pastas</w>": 7749,
    "horseradish</w>": 7750,
    "slider</w>": 7751,
    "intrigued</w>": 7752,
    "candies</w>": 7753,
    "mixture</w>": 7754,
    "steps</w>": 7755,
    "diagno": 7756,
    "behavior</w>": 7757,
    "unfriendly</w>": 7758,
    "fts</w>": 7759,
    "appet": 7760,
    "nick</w>": 7761,
    "creates</w>": 7762,
    "john": 7763,
    "volcan": 7764,
    "volcano</w>": 7765,
    "cactus</w>": 7766,
    "bull": 7767,
    "whose</w>": 7768,
    "adequately</w>": 7769,
    "priority</w>": 7770,
    "expand": 7771,
    "ich": 7772,
    "fashioned</w>": 7773,
    "japan</w>": 7774,
    "jeff": 7775,
    "wasted</w>": 7776,
    "couch</w>": 7777,
    "complimented</w>": 7778,
    "allyou": 7779,
    "allyoucan": 7780,
    "omelets</w>": 7781,
    "delight</w>": 7782,
    "poop</w>": 7783,
    "chipo": 7784,
    "chipotle</w>": 7785,
    "pint</w>": 7786,
    "entrance</w>": 7787,
    "mind": 7788,
    "wrists</w>": 7789,
    "casser": 7790,
    "casserole</w>": 7791,
    "executive</w>": 7792,
    "char</w>": 7793,
    "inconvenience</w>": 7794,
    "businesses</w>": 7795,
    "princ": 7796,
    "ji": 7797,
    "spaces</w>": 7798,
    "chim": 7799,
    "hatt": 7800,
    "drank</w>": 7801,
    "sir": 7802,
    "lukewarm</w>": 7803,
    "plaza</w>": 7804,
    "cler": 7805,
    "liber": 7806,
    "sunset</w>": 7807,
    "riso": 7808,
    "tract</w>": 7809,
    "deserve</w>": 7810,
    "caramelized</w>": 7811,
    "pist": 7812,
    "pistachi": 7813,
    "custard</w>": 7814,
    "kudos</w>": 7815,
    "ied</w>": 7816,
    "cole</w>": 7817,
    "angry</w>": 7818,
    "warned</w>": 7819,
    "yu": 7820,
    "guard</w>": 7821,
    "title</w>": 7822,
    "occurr": 7823,
    "stled</w>": 7824,
    "tangy</w>": 7825,
    "whit": 7826,
    "visitors</w>": 7827,
    "vendors</w>": 7828,
    "franklin</w>": 7829,
    "dumb</w>": 7830,
    "atm</w>": 7831,
    "sherat": 7832,
    "people": 7833,
    "eater</w>": 7834,
    "navi": 7835,
    "gradually</w>": 7836,
    "swear</w>": 7837,
    "huevos</w>": 7838,
    "rancheros</w>": 7839,
    "swim</w>": 7840,
    "kick": 7841,
    "pathetic</w>": 7842,
    "frankly</w>": 7843,
    "accepted</w>": 7844,
    "installed</w>": 7845,
    "hesitant</w>": 7846,
    "bitter</w>": 7847,
    "dgement</w>": 7848,
    "cast</w>": 7849,
    "quarters</w>": 7850,
    "tort": 7851,
    "stitch": 7852,
    "sheer</w>": 7853,
    "cleaners</w>": 7854,
    "laughed</w>": 7855,
    "fitting</w>": 7856,
    "charred</w>": 7857,
    "evalu": 7858,
    "despina</w>": 7859,
    "endless</w>": 7860,
    "say": 7861,
    "thrown</w>": 7862,
    "ky": 7863,
    "bachel": 7864,
    "bachelore": 7865,
    "bachelorette</w>": 7866,
    "delight": 7867,
    "juices</w>": 7868,
    "cider</w>": 7869,
    "seasons</w>": 7870,
    "fresher</w>": 7871,
    "seit": 7872,
    "seitan</w>": 7873,
    "assumed</w>": 7874,
    "downstairs</w>": 7875,
    "dill</w>": 7876,
    "shortly</w>": 7877,
    "stuffing</w>": 7878,
    "closest</w>": 7879,
    "beat": 7880,
    "ip": 7881,
    "girlfriends</w>": 7882,
    "strang": 7883,
    "confirmation</w>": 7884,
    "avoiding</w>": 7885,
    "snow</w>": 7886,
    "road": 7887,
    "social</w>": 7888,
    "height</w>": 7889,
    "flakes</w>": 7890,
    "suites</w>": 7891,
    "taps</w>": 7892,
    "men's</w>": 7893,
    "gust</w>": 7894,
    "strom": 7895,
    "alty</w>": 7896,
    "mass</w>": 7897,
    "gle</w>": 7898,
    "alas</w>": 7899,
    "homey</w>": 7900,
    "fireplace</w>": 7901,
    "nab": 7902,
    "melon</w>": 7903,
    "toe</w>": 7904,
    "joined</w>": 7905,
    "courty": 7906,
    "realistic</w>": 7907,
    "scheduling</w>": 7908,
    "shipped</w>": 7909,
    "assistance</w>": 7910,
    "ema": 7911,
    "moderately</w>": 7912,
    "consc": 7913,
    "try": 7914,
    "accompan": 7915,
    "perm</w>": 7916,
    "sbraga</w>": 7917,
    "attempts</w>": 7918,
    "paint": 7919,
    "assigned</w>": 7920,
    "fiance</w>": 7921,
    "cauli": 7922,
    "immacul": 7923,
    "german</w>": 7924,
    "var": 7925,
    "elbow</w>": 7926,
    "asparag": 7927,
    "asparagus</w>": 7928,
    "fat": 7929,
    "cky</w>": 7930,
    "dump</w>": 7931,
    "supple": 7932,
    "accept</w>": 7933,
    "cranberry</w>": 7934,
    "newest</w>": 7935,
    "capre": 7936,
    "caprese</w>": 7937,
    "complementary</w>": 7938,
    "ali</w>": 7939,
    "explaining</w>": 7940,
    "jour": 7941,
    "planet</w>": 7942,
    "dollo": 7943,
    "regulars</w>": 7944,
    "panera</w>": 7945,
    "women's</w>": 7946,
    "thoughts</w>": 7947,
    "animal</w>": 7948,
    "occu": 7949,
    "ritt": 7950,
    "ritten": 7951,
    "rittenhouse</w>": 7952,
    "overbe": 7953,
    "chou": 7954,
    "splash</w>": 7955,
    "bud</w>": 7956,
    "limp</w>": 7957,
    "crus": 7958,
    "ra</w>": 7959,
    "brides": 7960,
    "bridesma": 7961,
    "spaghet": 7962,
    "spaghetti</w>": 7963,
    "blowing</w>": 7964,
    "bacteria</w>": 7965,
    "celebrate</w>": 7966,
    "telev": 7967,
    "televi": 7968,
    "boneless</w>": 7969,
    "spilled</w>": 7970,
    "kn": 7971,
    "tab</w>": 7972,
    "marys</w>": 7973,
    "weights</w>": 7974,
    "stant</w>": 7975,
    "central</w>": 7976,
    "guit": 7977,
    "chur": 7978,
    "sured</w>": 7979,
    "confidence</w>": 7980,
    "lush</w>": 7981,
    "sf</w>": 7982,
    "challeng": 7983,
    "battered</w>": 7984,
    "squid</w>": 7985,
    "jalapeo</w>": 7986,
    "pickled</w>": 7987,
    "pun": 7988,
    "miser": 7989,
    "miserable</w>": 7990,
    "degrees</w>": 7991,
    "justify</w>": 7992,
    "pamper</w>": 7993,
    "ribb": 7994,
    "oured</w>": 7995,
    "lemongrass</w>": 7996,
    "ups</w>": 7997,
    "wasab": 7998,
    "wasabi</w>": 7999,
    "irish</w>": 8000,
    "carib": 8001,
    "caribbean</w>": 8002,
    "flights</w>": 8003,
    "brewer": 8004,
    "minimize</w>": 8005,
    "usive</w>": 8006,
    "copper</w>": 8007,
    "ghting</w>": 8008,
    "stupid</w>": 8009,
    "bre</w>": 8010,
    "underwhelmed</w>": 8011,
    "confident</w>": 8012,
    "source</w>": 8013,
    "moments</w>": 8014,
    "repairs</w>": 8015,
    "native</w>": 8016,
    "pi</w>": 8017,
    "balcony</w>": 8018,
    "extend</w>": 8019,
    "understanding</w>": 8020,
    "catering</w>": 8021,
    "skir": 8022,
    "mand": 8023,
    "lack": 8024,
    "lackluster</w>": 8025,
    "saff": 8026,
    "butch": 8027,
    "kfc</w>": 8028,
    "pia</w>": 8029,
    "maki</w>": 8030,
    "childhood</w>": 8031,
    "clear": 8032,
    "louisi": 8033,
    "pools</w>": 8034,
    "ja</w>": 8035,
    "moderate</w>": 8036,
    "operate</w>": 8037,
    "flea</w>": 8038,
    "cheerful</w>": 8039,
    "purchases</w>": 8040,
    "commented</w>": 8041,
    "harvest</w>": 8042,
    "mission</w>": 8043,
    "maintaining</w>": 8044,
    "prepare</w>": 8045,
    "substantial</w>": 8046,
    "fill": 8047,
    "rad": 8048,
    "garni": 8049,
    "alia</w>": 8050,
    "determine</w>": 8051,
    "ong": 8052,
    "roy": 8053,
    "mmm</w>": 8054,
    "nowhere</w>": 8055,
    "license</w>": 8056,
    "gun": 8057,
    "weir": 8058,
    "meter</w>": 8059,
    "genic</w>": 8060,
    "vand": 8061,
    "stink</w>": 8062,
    "flas": 8063,
    "chosen</w>": 8064,
    "whoever</w>": 8065,
    "mingly</w>": 8066,
    "apologized</w>": 8067,
    "labor</w>": 8068,
    "sprayed</w>": 8069,
    "ec</w>": 8070,
    "gummy</w>": 8071,
    "emergency</w>": 8072,
    "unusable</w>": 8073,
    "inconsistent</w>": 8074,
    "corned</w>": 8075,
    "approached</w>": 8076,
    "worth": 8077,
    "aly": 8078,
    "gat": 8079,
    "chapped</w>": 8080,
    "moroc": 8081,
    "hygi": 8082,
    "relax": 8083,
    "hefty</w>": 8084,
    "duo</w>": 8085,
    "massive</w>": 8086,
    "arious</w>": 8087,
    "belt</w>": 8088,
    "sal</w>": 8089,
    "sephora</w>": 8090,
    "movement</w>": 8091,
    "exterior</w>": 8092,
    "ole": 8093,
    "sooooo</w>": 8094,
    "powers</w>": 8095,
    "cases</w>": 8096,
    "beginners</w>": 8097,
    "kes": 8098,
    "deciding</w>": 8099,
    "concert</w>": 8100,
    "outfit</w>": 8101,
    "quit</w>": 8102,
    "sher</w>": 8103,
    "accident</w>": 8104,
    "shatt": 8105,
    "eners</w>": 8106,
    "dripping</w>": 8107,
    "chili's</w>": 8108,
    "breaks</w>": 8109,
    "ceram": 8110,
    "ceramic</w>": 8111,
    "stown</w>": 8112,
    "mbles</w>": 8113,
    "directed</w>": 8114,
    "ium</w>": 8115,
    "ady</w>": 8116,
    "reds</w>": 8117,
    "charge": 8118,
    "blocking</w>": 8119,
    "themed</w>": 8120,
    "clearing</w>": 8121,
    "activated</w>": 8122,
    "adjustment</w>": 8123,
    "hyde</w>": 8124,
    "boxed</w>": 8125,
    "charger</w>": 8126,
    "precise</w>": 8127,
    "produced</w>": 8128,
    "magnific": 8129,
    "kis": 8130,
    "saf": 8131,
    "permanent</w>": 8132,
    "acids</w>": 8133,
    "amp": 8134,
    "fight</w>": 8135,
    "grime</w>": 8136,
    "longev": 8137,
    "longevity</w>": 8138,
    "ensity</w>": 8139,
    "tightening</w>": 8140,
    "eas</w>": 8141,
    "velcr": 8142,
    "velcro</w>": 8143,
    "timer</w>": 8144,
    "protected</w>": 8145,
    "adhere</w>": 8146,
    "crease</w>": 8147,
    "blenders</w>": 8148,
    "strap</w>": 8149,
    "forehead</w>": 8150,
    "odors</w>": 8151,
    "envel": 8152,
    "envelop": 8153,
    "chapstick</w>": 8154,
    "adap": 8155,
    "adapter</w>": 8156,
    "iso": 8157,
    "niacinami": 8158,
    "repairing</w>": 8159,
    "nongreasy</w>": 8160,
    "soothe</w>": 8161,
    "smoothed</w>": 8162,
    "foundations</w>": 8163,
    "struggle</w>": 8164,
    "soapy</w>": 8165,
    "blemishes</w>": 8166,
    "invi": 8167,
    "invigor": 8168,
    "antioxidants</w>": 8169,
    "spreads</w>": 8170,
    "soften</w>": 8171,
    "dupe</w>": 8172,
    "smudge</w>": 8173,
    "flaking</w>": 8174,
    "norel": 8175,
    "aqua</w>": 8176,
    "peptide</w>": 8177,
    "ingredients": 8178,
    "parfu": 8179,
    "gluta": 8180,
    "sheen</w>": 8181,
    "stearate</w>": 8182,
    "alum</w>": 8183,
    "extract": 8184,
    "xan": 8185,
    "moisturiz": 8186,
    "palmitate</w>": 8187,
    "cica</w>": 8188,
    "glyceryl</w>": 8189,
    "liqui": 8190,
    "costume</w>": 8191,
    "pouf</w>": 8192,
    "squea": 8193,
    "breakage</w>": 8194,
    "stencil</w>": 8195,
    "protective</w>": 8196,
    "conditioners</w>": 8197,
    "kits</w>": 8198,
    "crme</w>": 8199,
    "curing</w>": 8200,
    "harm": 8201,
    "barrette</w>": 8202,
    "images</w>": 8203,
    "models</w>": 8204,
    "innovations</w>": 8205,
    "ghassoul</w>": 8206,
    "nj</w>": 8207,
    "tery</w>": 8208,
    "modi": 8209,
    "oran</w>": 8210,
    "diamond</w>": 8211,
    "shout</w>": 8212,
    "slower</w>": 8213,
    "chai</w>": 8214,
    "kev": 8215,
    "kevin</w>": 8216,
    "noted</w>": 8217,
    "most": 8218,
    "muffin</w>": 8219,
    "reply</w>": 8220,
    "transaction</w>": 8221,
    "salts</w>": 8222,
    "could've</w>": 8223,
    "fianc": 8224,
    "americanized</w>": 8225,
    "shell": 8226,
    "trays</w>": 8227,
    "ver's</w>": 8228,
    "acting</w>": 8229,
    "hib": 8230,
    "expectation</w>": 8231,
    "asha": 8232,
    "additionally</w>": 8233,
    "hire</w>": 8234,
    "ham": 8235,
    "allergic</w>": 8236,
    "year's</w>": 8237,
    "chances</w>": 8238,
    "clock</w>": 8239,
    "perfor": 8240,
    "smoothies</w>": 8241,
    "candy</w>": 8242,
    "angel</w>": 8243,
    "plans</w>": 8244,
    "missi": 8245,
    "align": 8246,
    "inspec": 8247,
    "coupons</w>": 8248,
    "chinat": 8249,
    "chinatown</w>": 8250,
    "oke</w>": 8251,
    "mountain</w>": 8252,
    "swimming</w>": 8253,
    "apri": 8254,
    "april</w>": 8255,
    "fies</w>": 8256,
    "advised</w>": 8257,
    "accustom": 8258,
    "accustomed</w>": 8259,
    "sex": 8260,
    "maintenance</w>": 8261,
    "broad": 8262,
    "infer": 8263,
    "michel": 8264,
    "com</w>": 8265,
    "attending</w>": 8266,
    "arug": 8267,
    "arugula</w>": 8268,
    "warranty</w>": 8269,
    "build": 8270,
    "lisa</w>": 8271,
    "entertaining</w>": 8272,
    "macaroni</w>": 8273,
    "inedible</w>": 8274,
    "tequ": 8275,
    "tequila</w>": 8276,
    "oldest</w>": 8277,
    "baking</w>": 8278,
    "jobs</w>": 8279,
    "considerably</w>": 8280,
    "kid's</w>": 8281,
    "tables": 8282,
    "inquired</w>": 8283,
    "questionable</w>": 8284,
    "washers</w>": 8285,
    "cleared</w>": 8286,
    "joy</w>": 8287,
    "alike</w>": 8288,
    "restrooms</w>": 8289,
    "woke</w>": 8290,
    "investi": 8291,
    "rati": 8292,
    "candied</w>": 8293,
    "fave</w>": 8294,
    "tempting</w>": 8295,
    "fennel</w>": 8296,
    "estimate</w>": 8297,
    "conver": 8298,
    "engaging</w>": 8299,
    "alfre": 8300,
    "alfredo</w>": 8301,
    "bake</w>": 8302,
    "it'd</w>": 8303,
    "calories</w>": 8304,
    "gus</w>": 8305,
    "primary</w>": 8306,
    "painless</w>": 8307,
    "genius</w>": 8308,
    "flair</w>": 8309,
    "cutest</w>": 8310,
    "corrected</w>": 8311,
    "sodas</w>": 8312,
    "naan</w>": 8313,
    "cali</w>": 8314,
    "trol": 8315,
    "responsi": 8316,
    "eep</w>": 8317,
    "depend": 8318,
    "bab</w>": 8319,
    "katsu</w>": 8320,
    "booking</w>": 8321,
    "june</w>": 8322,
    "hertz</w>": 8323,
    "carpet</w>": 8324,
    "au</w>": 8325,
    "dc": 8326,
    "inspired</w>": 8327,
    "buddy</w>": 8328,
    "african</w>": 8329,
    "sections</w>": 8330,
    "big": 8331,
    "sandwhich</w>": 8332,
    "rise</w>": 8333,
    "rell": 8334,
    "enos</w>": 8335,
    "race</w>": 8336,
    "unfortunate</w>": 8337,
    "circle</w>": 8338,
    "hated</w>": 8339,
    "tox": 8340,
    "layered</w>": 8341,
    "gripe</w>": 8342,
    "subpar</w>": 8343,
    "song</w>": 8344,
    "atl": 8345,
    "gnon</w>": 8346,
    "aven": 8347,
    "avenue</w>": 8348,
    "ci</w>": 8349,
    "amenities</w>": 8350,
    "toile": 8351,
    "lame</w>": 8352,
    "winery</w>": 8353,
    "eries</w>": 8354,
    "veg</w>": 8355,
    "ai</w>": 8356,
    "manhatt": 8357,
    "comparing</w>": 8358,
    "waters</w>": 8359,
    "profit</w>": 8360,
    "sirloin</w>": 8361,
    "deserved</w>": 8362,
    "thanks": 8363,
    "thanksgiving</w>": 8364,
    "clerk</w>": 8365,
    "guil": 8366,
    "tings</w>": 8367,
    "risotto</w>": 8368,
    "farm</w>": 8369,
    "zzling</w>": 8370,
    "almonds</w>": 8371,
    "instance</w>": 8372,
    "bummer</w>": 8373,
    "tik": 8374,
    "closes</w>": 8375,
    "release</w>": 8376,
    "sunda": 8377,
    "times": 8378,
    "multi</w>": 8379,
    "desire</w>": 8380,
    "omy</w>": 8381,
    "instructed</w>": 8382,
    "wandering</w>": 8383,
    "enched</w>": 8384,
    "breeze</w>": 8385,
    "allowing</w>": 8386,
    "martinis</w>": 8387,
    "incorpor": 8388,
    "sat": 8389,
    "ew</w>": 8390,
    "semi": 8391,
    "straightened</w>": 8392,
    "cobb</w>": 8393,
    "thy": 8394,
    "bague": 8395,
    "mble</w>": 8396,
    "quote</w>": 8397,
    "passion</w>": 8398,
    "memorial</w>": 8399,
    "fli": 8400,
    "hall</w>": 8401,
    "force</w>": 8402,
    "alternatives</w>": 8403,
    "groo": 8404,
    "ghty</w>": 8405,
    "answers</w>": 8406,
    "lasagna</w>": 8407,
    "allyoucaneat</w>": 8408,
    "bler</w>": 8409,
    "quesadillas</w>": 8410,
    "quotes</w>": 8411,
    "bye</w>": 8412,
    "insisted</w>": 8413,
    "eaters</w>": 8414,
    "headaches</w>": 8415,
    "improving</w>": 8416,
    "urs</w>": 8417,
    "drunken</w>": 8418,
    "outrage": 8419,
    "aka</w>": 8420,
    "kni": 8421,
    "knife</w>": 8422,
    "mein</w>": 8423,
    "increased</w>": 8424,
    "ques</w>": 8425,
    "privac": 8426,
    "privacy</w>": 8427,
    "crafted</w>": 8428,
    "expi": 8429,
    "induc": 8430,
    "gown</w>": 8431,
    "performed</w>": 8432,
    "techni": 8433,
    "anybody</w>": 8434,
    "understandable</w>": 8435,
    "armp": 8436,
    "newly</w>": 8437,
    "lous": 8438,
    "lousy</w>": 8439,
    "fulness</w>": 8440,
    "brownie</w>": 8441,
    "primar": 8442,
    "primarily</w>": 8443,
    "mari": 8444,
    "conn": 8445,
    "sketch</w>": 8446,
    "weed</w>": 8447,
    "etary</w>": 8448,
    "fussy</w>": 8449,
    "ico</w>": 8450,
    "beaten</w>": 8451,
    "decorating</w>": 8452,
    "uct": 8453,
    "jenna</w>": 8454,
    "gems</w>": 8455,
    "sian</w>": 8456,
    "remar": 8457,
    "kable</w>": 8458,
    "eter": 8459,
    "pod</w>": 8460,
    "closely</w>": 8461,
    "eag": 8462,
    "favour": 8463,
    "dissa": 8464,
    "august</w>": 8465,
    "combined</w>": 8466,
    "ffe</w>": 8467,
    "sed": 8468,
    "base": 8469,
    "professionals</w>": 8470,
    "tarpon</w>": 8471,
    "sticking</w>": 8472,
    "speedy</w>": 8473,
    "screaming</w>": 8474,
    "pedicures</w>": 8475,
    "uri": 8476,
    "insur": 8477,
    "insurance</w>": 8478,
    "everytime</w>": 8479,
    "rango": 8480,
    "deliciousness</w>": 8481,
    "filed</w>": 8482,
    "steakhouse</w>": 8483,
    "boise</w>": 8484,
    "fif": 8485,
    "transfer": 8486,
    "banh</w>": 8487,
    "courtyard</w>": 8488,
    "exer": 8489,
    "satisfactory</w>": 8490,
    "pickle</w>": 8491,
    "caffe": 8492,
    "taqu": 8493,
    "mattre": 8494,
    "brassy</w>": 8495,
    "achieve</w>": 8496,
    "manly</w>": 8497,
    "dave</w>": 8498,
    "bj": 8499,
    "periods</w>": 8500,
    "sprink": 8501,
    "poached</w>": 8502,
    "ucks</w>": 8503,
    "singing</w>": 8504,
    "casin": 8505,
    "snar": 8506,
    "undertones</w>": 8507,
    "bouti": 8508,
    "tedly</w>": 8509,
    "anth": 8510,
    "cauliflower</w>": 8511,
    "manay": 8512,
    "manayunk</w>": 8513,
    "tok": 8514,
    "gooey</w>": 8515,
    "poblan": 8516,
    "pairing</w>": 8517,
    "revitali": 8518,
    "fatty</w>": 8519,
    "lively</w>": 8520,
    "boats</w>": 8521,
    "brick</w>": 8522,
    "varies</w>": 8523,
    "inal</w>": 8524,
    "tering</w>": 8525,
    "record</w>": 8526,
    "hen": 8527,
    "vul": 8528,
    "journey</w>": 8529,
    "gui": 8530,
    "wondering</w>": 8531,
    "ectable</w>": 8532,
    "franci": 8533,
    "francisco</w>": 8534,
    "eline</w>": 8535,
    "outfits</w>": 8536,
    "byo</w>": 8537,
    "overbearing</w>": 8538,
    "gom": 8539,
    "pics</w>": 8540,
    "rum</w>": 8541,
    "surely</w>": 8542,
    "tele": 8543,
    "understaffed</w>": 8544,
    "flush</w>": 8545,
    "mum</w>": 8546,
    "advise</w>": 8547,
    "america</w>": 8548,
    "retro</w>": 8549,
    "peter": 8550,
    "faced</w>": 8551,
    "innovative</w>": 8552,
    "flawless</w>": 8553,
    "decem": 8554,
    "december</w>": 8555,
    "encourage</w>": 8556,
    "frank</w>": 8557,
    "sidewalk</w>": 8558,
    "fier</w>": 8559,
    "barista</w>": 8560,
    "wing": 8561,
    "holders</w>": 8562,
    "indicate</w>": 8563,
    "compliment</w>": 8564,
    "flowing</w>": 8565,
    "tossed</w>": 8566,
    "skipped</w>": 8567,
    "rul": 8568,
    "feather</w>": 8569,
    "conta": 8570,
    "youth</w>": 8571,
    "bent": 8572,
    "ribbon</w>": 8573,
    "seasonal</w>": 8574,
    "basement</w>": 8575,
    "esse</w>": 8576,
    "shit</w>": 8577,
    "zip": 8578,
    "delaware</w>": 8579,
    "alle": 8580,
    "cray": 8581,
    "bento</w>": 8582,
    "ott</w>": 8583,
    "gou": 8584,
    "pallet</w>": 8585,
    "stress": 8586,
    "counter": 8587,
    "ds": 8588,
    "river": 8589,
    "nashvil": 8590,
    "tics</w>": 8591,
    "woods</w>": 8592,
    "highlighted</w>": 8593,
    "code</w>": 8594,
    "rainbow</w>": 8595,
    "surprises</w>": 8596,
    "driven</w>": 8597,
    "boss</w>": 8598,
    "whisp": 8599,
    "debr": 8600,
    "debris</w>": 8601,
    "senses</w>": 8602,
    "shoot</w>": 8603,
    "courtes": 8604,
    "deviled</w>": 8605,
    "breads</w>": 8606,
    "categ": 8607,
    "manages</w>": 8608,
    "cal</w>": 8609,
    "dying</w>": 8610,
    "tune</w>": 8611,
    "pressing</w>": 8612,
    "france</w>": 8613,
    "valent": 8614,
    "continues</w>": 8615,
    "sri": 8616,
    "aggres": 8617,
    "devoured</w>": 8618,
    "remained</w>": 8619,
    "louisiana</w>": 8620,
    "impatient</w>": 8621,
    "strawberries</w>": 8622,
    "scrape</w>": 8623,
    "anda": 8624,
    "switched</w>": 8625,
    "camping</w>": 8626,
    "marshmallow</w>": 8627,
    "yuc": 8628,
    "hundre": 8629,
    "hundreds</w>": 8630,
    "tina</w>": 8631,
    "ingu": 8632,
    "visu": 8633,
    "mold</w>": 8634,
    "ung</w>": 8635,
    "smiles</w>": 8636,
    "stal": 8637,
    "hm": 8638,
    "largest</w>": 8639,
    "fyi</w>": 8640,
    "cd</w>": 8641,
    "tightly</w>": 8642,
    "passen": 8643,
    "blond</w>": 8644,
    "len</w>": 8645,
    "uti": 8646,
    "ripple</w>": 8647,
    "dair": 8648,
    "amin": 8649,
    "fridays</w>": 8650,
    "roughly</w>": 8651,
    "horribly</w>": 8652,
    "rounds</w>": 8653,
    "whip</w>": 8654,
    "easiest</w>": 8655,
    "ock</w>": 8656,
    "ggs</w>": 8657,
    "lock": 8658,
    "matches</w>": 8659,
    "errands</w>": 8660,
    "overheard</w>": 8661,
    "slammed</w>": 8662,
    "versions</w>": 8663,
    "mbling</w>": 8664,
    "clump</w>": 8665,
    "chicken": 8666,
    "repor": 8667,
    "reported</w>": 8668,
    "jones</w>": 8669,
    "haunted</w>": 8670,
    "cles</w>": 8671,
    "slipped</w>": 8672,
    "amped</w>": 8673,
    "oddly</w>": 8674,
    "arts</w>": 8675,
    "animo</w>": 8676,
    "pound</w>": 8677,
    "seemingly</w>": 8678,
    "flexibility</w>": 8679,
    "teens</w>": 8680,
    "ped": 8681,
    "stubb": 8682,
    "stubborn</w>": 8683,
    "tim</w>": 8684,
    "reorder</w>": 8685,
    "rod</w>": 8686,
    "attest</w>": 8687,
    "oli": 8688,
    "waist</w>": 8689,
    "survi": 8690,
    "greater</w>": 8691,
    "ind": 8692,
    "daytime</w>": 8693,
    "gary</w>": 8694,
    "afterward</w>": 8695,
    "butt</w>": 8696,
    "master</w>": 8697,
    "halo</w>": 8698,
    "frizz</w>": 8699,
    "opr": 8700,
    "hilarious</w>": 8701,
    "shelves</w>": 8702,
    "veter": 8703,
    "hiding</w>": 8704,
    "chiro": 8705,
    "spouse</w>": 8706,
    "snag</w>": 8707,
    "paul</w>": 8708,
    "propan": 8709,
    "faith</w>": 8710,
    "stics</w>": 8711,
    "stock": 8712,
    "sweat": 8713,
    "pains</w>": 8714,
    "iration</w>": 8715,
    "cautious</w>": 8716,
    "green": 8717,
    "limon": 8718,
    "fruity</w>": 8719,
    "adju": 8720,
    "freeze</w>": 8721,
    "trimmed</w>": 8722,
    "guitar</w>": 8723,
    "truth</w>": 8724,
    "tified</w>": 8725,
    "ii": 8726,
    "toddlers</w>": 8727,
    "repeated": 8728,
    "repeatedly</w>": 8729,
    "ously": 8730,
    "these": 8731,
    "cater</w>": 8732,
    "ni</w>": 8733,
    "belle": 8734,
    "mex</w>": 8735,
    "foil</w>": 8736,
    "stev": 8737,
    "lesson</w>": 8738,
    "deeper</w>": 8739,
    "ming": 8740,
    "schla": 8741,
    "bottle": 8742,
    "thankful</w>": 8743,
    "logy</w>": 8744,
    "backing</w>": 8745,
    "euc": 8746,
    "cakey</w>": 8747,
    "petals</w>": 8748,
    "detac": 8749,
    "lon</w>": 8750,
    "steady</w>": 8751,
    "ghted</w>": 8752,
    "visibly</w>": 8753,
    "dery</w>": 8754,
    "grabbing</w>": 8755,
    "baby's</w>": 8756,
    "feathers</w>": 8757,
    "sies</w>": 8758,
    "pp</w>": 8759,
    "prints</w>": 8760,
    "irons</w>": 8761,
    "veness</w>": 8762,
    "cough</w>": 8763,
    "rachel</w>": 8764,
    "animals</w>": 8765,
    "nicu</w>": 8766,
    "nurses</w>": 8767,
    "spreading</w>": 8768,
    "fragi": 8769,
    "fragile</w>": 8770,
    "better": 8771,
    "magnets</w>": 8772,
    "styro": 8773,
    "styrofoam</w>": 8774,
    "cros": 8775,
    "scraping</w>": 8776,
    "boxing</w>": 8777,
    "wire</w>": 8778,
    "dia": 8779,
    "bleach</w>": 8780,
    "develop": 8781,
    "angle</w>": 8782,
    "esthis</w>": 8783,
    "speeds</w>": 8784,
    "trimmers</w>": 8785,
    "grit</w>": 8786,
    "formulation</w>": 8787,
    "breathe</w>": 8788,
    "reverse</w>": 8789,
    "impur": 8790,
    "asin": 8791,
    "sparse</w>": 8792,
    "review": 8793,
    "continuous</w>": 8794,
    "drug": 8795,
    "drugstore</w>": 8796,
    "'m</w>": 8797,
    "mia</w>": 8798,
    "ture": 8799,
    "haired</w>": 8800,
    "hose</w>": 8801,
    "sulfate</w>": 8802,
    "formal": 8803,
    "formalde": 8804,
    "formaldehyde</w>": 8805,
    "stuffer</w>": 8806,
    "gums</w>": 8807,
    "puff</w>": 8808,
    "extension</w>": 8809,
    "faux</w>": 8810,
    "towelettes</w>": 8811,
    "sni": 8812,
    "glosses</w>": 8813,
    "straps</w>": 8814,
    "peels</w>": 8815,
    "floss</w>": 8816,
    "likethis</w>": 8817,
    "angled</w>": 8818,
    "vethe</w>": 8819,
    "patchou": 8820,
    "alyp": 8821,
    "alyptus</w>": 8822,
    "stitching</w>": 8823,
    "wellmade</w>": 8824,
    "particles</w>": 8825,
    "secu": 8826,
    "securely</w>": 8827,
    "prevents</w>": 8828,
    "paraben</w>": 8829,
    "cruelty</w>": 8830,
    "niacinamide</w>": 8831,
    "inflamm": 8832,
    "parched</w>": 8833,
    "stretchy</w>": 8834,
    "eyelid</w>": 8835,
    "botanical</w>": 8836,
    "skinthe</w>": 8837,
    "folla": 8838,
    "follain</w>": 8839,
    "waves</w>": 8840,
    "mitt</w>": 8841,
    "norelco</w>": 8842,
    "sore</w>": 8843,
    "pearls</w>": 8844,
    "derm": 8845,
    "subscription</w>": 8846,
    "degra": 8847,
    "sorb": 8848,
    "ceramides</w>": 8849,
    "redness": 8850,
    "kbeauty</w>": 8851,
    "clumps</w>": 8852,
    "buty": 8853,
    "capryl": 8854,
    "salic": 8855,
    "ranc": 8856,
    "rancid</w>": 8857,
    "pron": 8858,
    "aden": 8859,
    "osine</w>": 8860,
    "chet</w>": 8861,
    "weight": 8862,
    "peptides</w>": 8863,
    "stimul": 8864,
    "glycol": 8865,
    "officin": 8866,
    "toned</w>": 8867,
    "tocopherol</w>": 8868,
    "emul": 8869,
    "witch</w>": 8870,
    "ne's</w>": 8871,
    "hairline</w>": 8872,
    "ingi</w>": 8873,
    "nyl": 8874,
    "nylon</w>": 8875,
    "braiding</w>": 8876,
    "inner</w>": 8877,
    "abrasive</w>": 8878,
    "decol": 8879,
    "skini</w>": 8880,
    "squeaky</w>": 8881,
    "clumping</w>": 8882,
    "popping</w>": 8883,
    "mattes</w>": 8884,
    "glitters</w>": 8885,
    "defective</w>": 8886,
    "drier</w>": 8887,
    "toenail</w>": 8888,
    "liquids</w>": 8889,
    "erthe</w>": 8890,
    "bees": 8891,
    "roller": 8892,
    "breakouts</w>": 8893,
    "bubbling</w>": 8894,
    "uv": 8895,
    "naturals</w>": 8896,
    "sheds</w>": 8897,
    "stamper</w>": 8898,
    "stamping</w>": 8899,
    "loofa": 8900,
    "loofah</w>": 8901,
    "cheaply</w>": 8902,
    "retina</w>": 8903,
    "ceme": 8904,
    "cemetery</w>": 8905,
    "easter</w>": 8906,
    "forest</w>": 8907,
    "sonoran</w>": 8908,
    "eeds</w>": 8909,
    "victor": 8910,
    "tempura</w>": 8911,
    "geared</w>": 8912,
    "tusc": 8913,
    "tuscany</w>": 8914,
    "tower</w>": 8915,
    "featured</w>": 8916,
    "bathtub</w>": 8917,
    "sinks</w>": 8918,
    "blank</w>": 8919,
    "carte</w>": 8920,
    "pico</w>": 8921,
    "whar": 8922,
    "audi": 8923,
    "bsc</w>": 8924,
    "ggers</w>": 8925,
    "keen</w>": 8926,
    "committed</w>": 8927,
    "y'": 8928,
    "exploring</w>": 8929,
    "itted": 8930,
    "ittedly</w>": 8931,
    "refuse</w>": 8932,
    "cured</w>": 8933,
    "turtle</w>": 8934,
    "boards</w>": 8935,
    "spiral</w>": 8936,
    "seek</w>": 8937,
    "alignment</w>": 8938,
    "sinc": 8939,
    "sincere</w>": 8940,
    "feder": 8941,
    "federal</w>": 8942,
    "chick</w>": 8943,
    "fig</w>": 8944,
    "nook</w>": 8945,
    "laughing</w>": 8946,
    "smiling</w>": 8947,
    "alligators</w>": 8948,
    "bella</w>": 8949,
    "hardest</w>": 8950,
    "detailing</w>": 8951,
    "sexy</w>": 8952,
    "hhh</w>": 8953,
    "bulbs</w>": 8954,
    "project</w>": 8955,
    "supplies</w>": 8956,
    "bouncer</w>": 8957,
    "libr": 8958,
    "scrump": 8959,
    "scrumptious</w>": 8960,
    "tour": 8961,
    "sampling</w>": 8962,
    "earned</w>": 8963,
    "chunky</w>": 8964,
    "tzat": 8965,
    "tzatzi": 8966,
    "fas": 8967,
    "va": 8968,
    "rel</w>": 8969,
    "vending</w>": 8970,
    "wee</w>": 8971,
    "unlimited</w>": 8972,
    "raves</w>": 8973,
    "rabe</w>": 8974,
    "explanation</w>": 8975,
    "detailed</w>": 8976,
    "today's</w>": 8977,
    "world": 8978,
    "intensive</w>": 8979,
    "setup</w>": 8980,
    "separated</w>": 8981,
    "adjoining</w>": 8982,
    "ratio</w>": 8983,
    "tart</w>": 8984,
    "carolin": 8985,
    "gator</w>": 8986,
    "memory</w>": 8987,
    "bench</w>": 8988,
    "aunt</w>": 8989,
    "chatted</w>": 8990,
    "culture</w>": 8991,
    "sev": 8992,
    "cvs</w>": 8993,
    "drafts</w>": 8994,
    "appetite</w>": 8995,
    "foie</w>": 8996,
    "beignet</w>": 8997,
    "frills</w>": 8998,
    "ais": 8999,
    "walks</w>": 9000,
    "refer</w>": 9001,
    "referred</w>": 9002,
    "bran": 9003,
    "fruits</w>": 9004,
    "gear</w>": 9005,
    "mechanics</w>": 9006,
    "responsible</w>": 9007,
    "enta</w>": 9008,
    "tender": 9009,
    "precisely</w>": 9010,
    "anyone's</w>": 9011,
    "overlooking</w>": 9012,
    "evol": 9013,
    "baker</w>": 9014,
    "adore</w>": 9015,
    "police</w>": 9016,
    "franchi": 9017,
    "handful</w>": 9018,
    "camera</w>": 9019,
    "scul": 9020,
    "sculp": 9021,
    "kra": 9022,
    "kraut</w>": 9023,
    "south": 9024,
    "pile</w>": 9025,
    "breakfa": 9026,
    "peanuts</w>": 9027,
    "ellas</w>": 9028,
    "represent": 9029,
    "poboy</w>": 9030,
    "essions</w>": 9031,
    "questioned</w>": 9032,
    "depot</w>": 9033,
    "bee's</w>": 9034,
    "same": 9035,
    "ffee</w>": 9036,
    "guilty</w>": 9037,
    "meetings</w>": 9038,
    "facing</w>": 9039,
    "pistachio</w>": 9040,
    "napkin</w>": 9041,
    "components</w>": 9042,
    "slimy</w>": 9043,
    "bk</w>": 9044,
    "responded</w>": 9045,
    "travels</w>": 9046,
    "markets</w>": 9047,
    "sundae</w>": 9048,
    "knocking</w>": 9049,
    "determined</w>": 9050,
    "stating</w>": 9051,
    "drenched</w>": 9052,
    "iris</w>": 9053,
    "competition</w>": 9054,
    "anticipated</w>": 9055,
    "vinai": 9056,
    "vinaigre": 9057,
    "vinaigrette</w>": 9058,
    "creati": 9059,
    "gul": 9060,
    "sorbet</w>": 9061,
    "thyme</w>": 9062,
    "edmon": 9063,
    "ces</w>": 9064,
    "dreams</w>": 9065,
    "attractions</w>": 9066,
    "technic": 9067,
    "grace</w>": 9068,
    "declined</w>": 9069,
    "sufficient</w>": 9070,
    "switching</w>": 9071,
    "union</w>": 9072,
    "runner</w>": 9073,
    "inj": 9074,
    "mats</w>": 9075,
    "place's</w>": 9076,
    "wontons</w>": 9077,
    "arity</w>": 9078,
    "cobbler</w>": 9079,
    "meets</w>": 9080,
    "sorted</w>": 9081,
    "invest</w>": 9082,
    "cig": 9083,
    "cigare": 9084,
    "edom</w>": 9085,
    "secret</w>": 9086,
    "realizing</w>": 9087,
    "certific": 9088,
    "fork</w>": 9089,
    "loyal</w>": 9090,
    "cancel</w>": 9091,
    "popul": 9092,
    "warmth</w>": 9093,
    "supporting</w>": 9094,
    "agu": 9095,
    "refilled</w>": 9096,
    "reaching</w>": 9097,
    "latest</w>": 9098,
    "silver": 9099,
    "asm</w>": 9100,
    "tortellini</w>": 9101,
    "master": 9102,
    "stitchit</w>": 9103,
    "turn": 9104,
    "sequins</w>": 9105,
    "honesty</w>": 9106,
    "who's</w>": 9107,
    "inti": 9108,
    "intimid": 9109,
    "neighboring</w>": 9110,
    "killed</w>": 9111,
    "bi</w>": 9112,
    "armpits</w>": 9113,
    "five": 9114,
    "wrapping</w>": 9115,
    "shout": 9116,
    "kyle</w>": 9117,
    "united</w>": 9118,
    "ko</w>": 9119,
[...]
