{
  "vocab_size": 16000,
  "token2id": {
    "<PAD>": 0,
    "<UNK>": 1,
    "<BOS>": 2,
    "<EOS>": 3,
    "<SEP>": 4,
    "<MASK>": 5,
    "'": 6,
    "/": 7,
    "<": 8,
    ">": 9,
    "a": 10,
    "b": 11,
    "c": 12,
    "d": 13,
    "e": 14,
    "f": 15,
    "g": 16,
    "h": 17,
    "i": 18,
    "j": 19,
    "k": 20,
    "l": 21,
    "m": 22,
    "n": 23,
    "o": 24,
    "p": 25,
    "q": 26,
    "r": 27,
    "s": 28,
    "t": 29,
    "u": 30,
    "v": 31,
    "w": 32,
    "x": 33,
    "y": 34,
    "z": 35,
    "</": 36,
    "</w": 37,
    "</w>": 38,
    "e</w>": 39,
    "t</w>": 40,
    "th": 41,
    "s</w>": 42,
    "d</w>": 43,
    "y</w>": 44,
    "er": 45,
    "in": 46,
    "an": 47,
    "the</w>": 48,
    "o</w>": 49,
    "or": 50,
    "ou": 51,
    "on": 52,
    "en": 53,
    "and</w>": 54,
    "re": 55,
    "al": 56,
    "g</w>": 57,
    "ed</w>": 58,
    "ar": 59,
    "er</w>": 60,
    "ing</w>": 61,
    "is</w>": 62,
    "to</w>": 63,
    "st": 64,
    "ic": 65,
    "at</w>": 66,
    "f</w>": 67,
    "as</w>": 68,
    "l</w>": 69,
    "it</w>": 70,
    "or</w>": 71,
    "ly</w>": 72,
    "it": 73,
    "oo": 74,
    "ha": 75,
    "es</w>": 76,
    "om": 77,
    "ve</w>": 78,
    "at": 79,
    "on</w>": 80,
    "ac": 81,
    "in</w>": 82,
    "h</w>": 83,
    "of</w>": 84,
    "the": 85,
    "k</w>": 86,
    "was</w>": 87,
    "us": 88,
    "el": 89,
    "wi": 90,
    "for</w>": 91,
    "bu": 92,
    "le</w>": 93,
    "as": 94,
    "en</w>": 95,
    "wh": 96,
    "no": 97,
    "be": 98,
    "th</w>": 99,
    "this</w>": 100,
    "ri": 101,
    "my</w>": 102,
    "ere</w>": 103,
    "m</w>": 104,
    "ti": 105,
    "you": 106,
    "li": 107,
    "p</w>": 108,
    "ver": 109,
    "lo": 110,
    "an</w>": 111,
    "r</w>": 112,
    "ood</w>": 113,
    "es": 114,
    "ch": 115,
    "di": 116,
    "but</w>": 117,
    "with</w>": 118,
    "me</w>": 119,
    "that</w>": 120,
    "ab": 121,
    "ro": 122,
    "ur": 123,
    "ec": 124,
    "pl": 125,
    "so</w>": 126,
    "w</w>": 127,
    "ke</w>": 128,
    "gh": 129,
    "ma": 130,
    "not</w>": 131,
    "ice</w>": 132,
    "you</w>": 133,
    "gre": 134,
    "a</w>": 135,
    "are</w>": 136,
    "et</w>": 137,
    "they</w>": 138,
    "ld</w>": 139,
    "ex": 140,
    "have</w>": 141,
    "sh": 142,
    "com": 143,
    "se</w>": 144,
    "si": 145,
    "out</w>": 146,
    "'t</w>": 147,
    "ta": 148,
    "un": 149,
    "ay</w>": 150,
    "we</w>": 151,
    "al</w>": 152,
    "all</w>": 153,
    "uc": 154,
    "st</w>": 155,
    "ll</w>": 156,
    "very</w>": 157,
    "great</w>": 158,
    "ent</w>": 159,
    "ally</w>": 160,
    "to": 161,
    "ee": 162,
    "'s</w>": 163,
    "one</w>": 164,
    "good</w>": 165,
    "pp": 166,
    "ev": 167,
    "tt": 168,
    "ght</w>": 169,
    "be</w>": 170,
    "le": 171,
    "ca": 172,
    "co": 173,
    "had</w>": 174,
    "sp": 175,
    "ar</w>": 176,
    "ho": 177,
    "ts</w>": 178,
    "av": 179,
    "ould</w>": 180,
    "ad": 181,
    "sa": 182,
    "tr": 183,
    "qu": 184,
    "like</w>": 185,
    "ust</w>": 186,
    "ag": 187,
    "do": 188,
    "were</w>": 189,
    "ser": 190,
    "pro": 191,
    "fr": 192,
    "fi": 193,
    "de</w>": 194,
    "ore</w>": 195,
    "wor": 196,
    "ff": 197,
    "se": 198,
    "per": 199,
    "mo": 200,
    "ace</w>": 201,
    "use</w>": 202,
    "bo": 203,
    "ther</w>": 204,
    "wa": 205,
    "ir</w>": 206,
    "som": 207,
    "n</w>": 208,
    "i'": 209,
    "just</w>": 210,
    "food</w>": 211,
    "me": 212,
    "ce</w>": 213,
    "if</w>": 214,
    "our</w>": 215,
    "go": 216,
    "po": 217,
    "su": 218,
    "up</w>": 219,
    "mi": 220,
    "fin": 221,
    "vi": 222,
    "ks</w>": 223,
    "oun": 224,
    "able</w>": 225,
    "ds</w>": 226,
    "thing</w>": 227,
    "ad</w>": 228,
    "ack</w>": 229,
    "ati": 230,
    "ell</w>": 231,
    "place</w>": 232,
    "serv": 233,
    "n't</w>": 234,
    "om</w>": 235,
    "ers</w>": 236,
    "king</w>": 237,
    "ne": 238,
    "de": 239,
    "fri": 240,
    "hi": 241,
    "gh</w>": 242,
    "fu": 243,
    "tast": 244,
    "get</w>": 245,
    "men": 246,
    "pre": 247,
    "there</w>": 248,
    "ter</w>": 249,
    "af": 250,
    "pr": 251,
    "ked</w>": 252,
    "fl": 253,
    "we": 254,
    "con": 255,
    "ely</w>": 256,
    "ord": 257,
    "when</w>": 258,
    "it's</w>": 259,
    "ant</w>": 260,
    "would</w>": 261,
    "ever</w>": 262,
    "from</w>": 263,
    "ted</w>": 264,
    "time</w>": 265,
    "sh</w>": 266,
    "ich</w>": 267,
    "will</w>": 268,
    "really</w>": 269,
    "here</w>": 270,
    "ic</w>": 271,
    "ast</w>": 272,
    "love</w>": 273,
    "them</w>": 274,
    "op": 275,
    "these</w>": 276,
    "ough</w>": 277,
    "ra": 278,
    "ate</w>": 279,
    "other</w>": 280,
    "gi": 281,
    "can</w>": 282,
    "more</w>": 283,
    "so": 284,
    "eas": 285,
    "ys</w>": 286,
    "ess</w>": 287,
    "sm": 288,
    "lit": 289,
    "ous</w>": 290,
    "loo": 291,
    "he": 292,
    "ch</w>": 293,
    "ing": 294,
    "well</w>": 295,
    "ge</w>": 296,
    "ded</w>": 297,
    "no</w>": 298,
    "nice</w>": 299,
    "your</w>": 300,
    "don": 301,
    "dr": 302,
    "cu": 303,
    "back</w>": 304,
    "pe": 305,
    "ure</w>": 306,
    "ll": 307,
    "about</w>": 308,
    "day</w>": 309,
    "what</w>": 310,
    "bi": 311,
    "some</w>": 312,
    "which</w>": 313,
    "any</w>": 314,
    "go</w>": 315,
    "wn</w>": 316,
    "ai": 317,
    "and": 318,
    "also</w>": 319,
    "te": 320,
    "br": 321,
    "ite</w>": 322,
    "service</w>": 323,
    "duc": 324,
    "ge": 325,
    "am</w>": 326,
    "ons</w>": 327,
    "del": 328,
    "their</w>": 329,
    "am": 330,
    "has</w>": 331,
    "par": 332,
    "tle</w>": 333,
    "for": 334,
    "frien": 335,
    "uch</w>": 336,
    "only</w>": 337,
    "too</w>": 338,
    "fre": 339,
    "flav": 340,
    "che": 341,
    "us</w>": 342,
    "fe": 343,
    "ick": 344,
    "do</w>": 345,
    "than</w>": 346,
    "ity</w>": 347,
    "min": 348,
    "ars</w>": 349,
    "ful</w>": 350,
    "cause</w>": 351,
    "way</w>": 352,
    "now</w>": 353,
    "been</w>": 354,
    "its</w>": 355,
    "ound</w>": 356,
    "little</w>": 357,
    "tion</w>": 358,
    "lu": 359,
    "ong</w>": 360,
    "by</w>": 361,
    "because</w>": 362,
    "pu": 363,
    "produc": 364,
    "ps</w>": 365,
    "gu": 366,
    "pi": 367,
    "ation</w>": 368,
    "ter": 369,
    "gr": 370,
    "sta": 371,
    "dn't</w>": 372,
    "ell": 373,
    "tly</w>": 374,
    "ff</w>": 375,
    "best</w>": 376,
    "ink</w>": 377,
    "ici": 378,
    "ver</w>": 379,
    "mp": 380,
    "ered</w>": 381,
    "got</w>": 382,
    "even</w>": 383,
    "ard</w>": 384,
    "don't</w>": 385,
    "sal": 386,
    "bre": 387,
    "ain</w>": 388,
    "jo": 389,
    "cre": 390,
    "ty</w>": 391,
    "much</w>": 392,
    "tter</w>": 393,
    "after</w>": 394,
    "some": 395,
    "ect</w>": 396,
    "eci": 397,
    "made</w>": 398,
    "side</w>": 399,
    "ved</w>": 400,
    "he</w>": 401,
    "re</w>": 402,
    "sed</w>": 403,
    "ine</w>": 404,
    "i'm</w>": 405,
    "ten": 406,
    "ama": 407,
    "perf": 408,
    "she</w>": 409,
    "coo": 410,
    "commen": 411,
    "fir": 412,
    "ye": 413,
    "wat": 414,
    "col": 415,
    "les</w>": 416,
    "i've</w>": 417,
    "sti": 418,
    "cr": 419,
    "ight</w>": 420,
    "ms</w>": 421,
    "recommen": 422,
    "app": 423,
    "rec": 424,
    "tw": 425,
    "tri": 426,
    "ings</w>": 427,
    "b</w>": 428,
    "product</w>": 429,
    "ying</w>": 430,
    "sel": 431,
    "ba": 432,
    "all": 433,
    "red</w>": 434,
    "try</w>": 435,
    "loc": 436,
    "kes</w>": 437,
    "delici": 438,
    "ever": 439,
    "is": 440,
    "bl": 441,
    "ought</w>": 442,
    "every": 443,
    "first</w>": 444,
    "make</w>": 445,
    "amaz": 446,
    "exc": 447,
    "cha": 448,
    "mon": 449,
    "ast": 450,
    "did</w>": 451,
    "delicious</w>": 452,
    "ways</w>": 453,
    "better</w>": 454,
    "ick</w>": 455,
    "ki": 456,
    "der</w>": 457,
    "price</w>": 458,
    "cou": 459,
    "ence</w>": 460,
    "ke": 461,
    "table</w>": 462,
    "ger</w>": 463,
    "exp": 464,
    "ome</w>": 465,
    "des": 466,
    "defin": 467,
    "most</w>": 468,
    "can": 469,
    "per</w>": 470,
    "over</w>": 471,
    "ft</w>": 472,
    "au": 473,
    "flavor</w>": 474,
    "again</w>": 475,
    "ordered</w>": 476,
    "ality</w>": 477,
    "tu": 478,
    "could</w>": 479,
    "definit": 480,
    "dly</w>": 481,
    "always</w>": 482,
    "tty</w>": 483,
    "definitely</w>": 484,
    "cle": 485,
    "off</w>": 486,
    "used</w>": 487,
    "der": 488,
    "ated</w>": 489,
    "ding</w>": 490,
    "taste</w>": 491,
    "hel": 492,
    "how</w>": 493,
    "any": 494,
    "te</w>": 495,
    "sho": 496,
    "whi": 497,
    "staur": 498,
    "vie": 499,
    "restaur": 500,
    "right</w>": 501,
    "order</w>": 502,
    "pretty</w>": 503,
    "new</w>": 504,
    "came</w>": 505,
    "str": 506,
    "hair</w>": 507,
    "ment</w>": 508,
    "quality</w>": 509,
    "didn't</w>": 510,
    "see": 511,
    "ste": 512,
    "iti": 513,
    "easy</w>": 514,
    "x</w>": 515,
    "two</w>": 516,
    "ting</w>": 517,
    "then</w>": 518,
    "ble</w>": 519,
    "bur": 520,
    "id</w>": 521,
    "over": 522,
    "roo": 523,
    "come</w>": 524,
    "car": 525,
    "ffe": 526,
    "work</w>": 527,
    "never</w>": 528,
    "cho": 529,
    "peri": 530,
    "recommend</w>": 531,
    "bit</w>": 532,
    "perfect</w>": 533,
    "tur": 534,
    "diff": 535,
    "small</w>": 536,
    "tre": 537,
    "while</w>": 538,
    "wee": 539,
    "ack": 540,
    "wait": 541,
    "happ": 542,
    "aff</w>": 543,
    "ner</w>": 544,
    "age</w>": 545,
    "sure</w>": 546,
    "staff</w>": 547,
    "ve": 548,
    "won": 549,
    "though</w>": 550,
    "tim": 551,
    "ating</w>": 552,
    "um": 553,
    "friendly</w>": 554,
    "ss</w>": 555,
    "ze</w>": 556,
    "im": 557,
    "aw": 558,
    "pric": 559,
    "u</w>": 560,
    "still</w>": 561,
    "amazing</w>": 562,
    "was": 563,
    "revie": 564,
    "coffe": 565,
    "est</w>": 566,
    "chick": 567,
    "experi": 568,
    "long</w>": 569,
    "il": 570,
    "ving</w>": 571,
    "where</w>": 572,
    "fore</w>": 573,
    "water</w>": 574,
    "think</w>": 575,
    "ach</w>": 576,
    "fresh</w>": 577,
    "ese</w>": 578,
    "ul": 579,
    "want</w>": 580,
    "coffee</w>": 581,
    "too": 582,
    "i</w>": 583,
    "chicken</w>": 584,
    "zz": 585,
    "her</w>": 586,
    "ws</w>": 587,
    "went</w>": 588,
    "before</w>": 589,
    "din": 590,
    "sc": 591,
    "ople</w>": 592,
    "people</w>": 593,
    "pur": 594,
    "restaurant</w>": 595,
    "going</w>": 596,
    "know</w>": 597,
    "who</w>": 598,
    "por": 599,
    "down</w>": 600,
    "pa": 601,
    "pe</w>": 602,
    "fa": 603,
    "lot</w>": 604,
    "few</w>": 605,
    "times</w>": 606,
    "eel</w>": 607,
    "fav": 608,
    "kee": 609,
    "ves</w>": 610,
    "'re</w>": 611,
    "unch</w>": 612,
    "prob": 613,
    "bott": 614,
    "around</w>": 615,
    "ppo": 616,
    "un</w>": 617,
    "differ": 618,
    "ey</w>": 619,
    "end</w>": 620,
    "ors</w>": 621,
    "take</w>": 622,
    "enjo": 623,
    "mar": 624,
    "less</w>": 625,
    "ry</w>": 626,
    "fast</w>": 627,
    "ir": 628,
    "man": 629,
    "bar</w>": 630,
    "see</w>": 631,
    "ue</w>": 632,
    "minu": 633,
    "sin": 634,
    "need</w>": 635,
    "lar": 636,
    "find</w>": 637,
    "menu</w>": 638,
    "tions</w>": 639,
    "dec": 640,
    "stars</w>": 641,
    "hou": 642,
    "fe</w>": 643,
    "star": 644,
    "enough</w>": 645,
    "into</w>": 646,
    "say</w>": 647,
    "eat</w>": 648,
    "out": 649,
    "tried</w>": 650,
    "many</w>": 651,
    "experience</w>": 652,
    "stu": 653,
    "are": 654,
    "with": 655,
    "sauc": 656,
    "favor": 657,
    "excell": 658,
    "something</w>": 659,
    "swe": 660,
    "night</w>": 661,
    "tting</w>": 662,
    "brea": 663,
    "buy</w>": 664,
    "ance</w>": 665,
    "excellent</w>": 666,
    "every</w>": 667,
    "everything</w>": 668,
    "dy</w>": 669,
    "gl": 670,
    "low</w>": 671,
    "il</w>": 672,
    "does</w>": 673,
    "tes</w>": 674,
    "since</w>": 675,
    "nee": 676,
    "int</w>": 677,
    "cas": 678,
    "bro": 679,
    "clo": 680,
    "sha": 681,
    "ei": 682,
    "wait</w>": 683,
    "feel</w>": 684,
    "room</w>": 685,
    "light</w>": 686,
    "sto": 687,
    "works</w>": 688,
    "put</w>": 689,
    "last</w>": 690,
    "pri": 691,
    "give</w>": 692,
    "wal": 693,
    "happy</w>": 694,
    "both</w>": 695,
    "kin": 696,
    "ning</w>": 697,
    "wan": 698,
    "pres": 699,
    "said</w>": 700,
    "can't</w>": 701,
    "bas": 702,
    "worth</w>": 703,
    "tea</w>": 704,
    "ther": 705,
    "ven": 706,
    "purcha": 707,
    "la": 708,
    "high": 709,
    "disa": 710,
    "cheese</w>": 711,
    "bad</w>": 712,
    "looking</w>": 713,
    "super</w>": 714,
    "ans</w>": 715,
    "favorite</w>": 716,
    "different</w>": 717,
    "chi": 718,
    "self</w>": 719,
    "another</w>": 720,
    "size</w>": 721,
    "sou": 722,
    "being</w>": 723,
    "vis": 724,
    "does": 725,
    "onal</w>": 726,
    "ple</w>": 727,
    "drin": 728,
    "sec": 729,
    "hot</w>": 730,
    "speci": 731,
    "pped</w>": 732,
    "sauce</w>": 733,
    "ave</w>": 734,
    "minutes</w>": 735,
    "compl": 736,
    "um</w>": 737,
    "pleas": 738,
    "ol": 739,
    "awes": 740,
    "thr": 741,
    "big</w>": 742,
    "pizz": 743,
    "bag</w>": 744,
    "sweet</w>": 745,
    "ably</w>": 746,
    "disappo": 747,
    "est": 748,
    "took</w>": 749,
    "stom": 750,
    "ari": 751,
    "off": 752,
    "using</w>": 753,
    "plac": 754,
    "awesome</w>": 755,
    "sk": 756,
    "look</w>": 757,
    "tac": 758,
    "area</w>": 759,
    "cor": 760,
    "gg": 761,
    "ext</w>": 762,
    "top</w>": 763,
    "son</w>": 764,
    "comp": 765,
    "ned</w>": 766,
    "spo": 767,
    "comfor": 768,
    "mp</w>": 769,
    "pic": 770,
    "meal</w>": 771,
    "war": 772,
    "up": 773,
    "ite": 774,
    "actu": 775,
    "ig": 776,
    "read": 777,
    "keep</w>": 778,
    "next</w>": 779,
    "band</w>": 780,
    "without</w>": 781,
    "ligh": 782,
    "reas": 783,
    "bus": 784,
    "tic": 785,
    "bought</w>": 786,
    "mat": 787,
    "disappoin": 788,
    "sur": 789,
    "tely</w>": 790,
    "cl": 791,
    "old</w>": 792,
    "found</w>": 793,
    "ni": 794,
    "custom": 795,
    "da": 796,
    "years</w>": 797,
    "should</w>": 798,
    "set</w>": 799,
    "ber</w>": 800,
    "clean</w>": 801,
    "sive</w>": 802,
    "ands</w>": 803,
    "lunch</w>": 804,
    "drink</w>": 805,
    "pizza</w>": 806,
    "how": 807,
    "yed</w>": 808,
    "bar": 809,
    "makes</w>": 810,
    "gar": 811,
    "same</w>": 812,
    "clu": 813,
    "sand": 814,
    "ph": 815,
    "wanted</w>": 816,
    "hard</w>": 817,
    "however</w>": 818,
    "his</w>": 819,
    "home</w>": 820,
    "hu": 821,
    "ldn't</w>": 822,
    "ju": 823,
    "chec": 824,
    "ection</w>": 825,
    "wasn't</w>": 826,
    "als</w>": 827,
    "dri": 828,
    "things</w>": 829,
    "ak</w>": 830,
    "ort</w>": 831,
    "mus": 832,
    "that": 833,
    "tasty</w>": 834,
    "fac": 835,
    "med</w>": 836,
    "rs</w>": 837,
    "char": 838,
    "gen": 839,
    "sandw": 840,
    "lled</w>": 841,
    "cer": 842,
    "expec": 843,
    "ents</w>": 844,
    "lar</w>": 845,
    "ture</w>": 846,
    "salad</w>": 847,
    "doesn't</w>": 848,
    "nt</w>": 849,
    "each</w>": 850,
    "el</w>": 851,
    "chan": 852,
    "burger</w>": 853,
    "large</w>": 854,
    "break": 855,
    "lly</w>": 856,
    "els</w>": 857,
    "e's</w>": 858,
    "ty": 859,
    "free</w>": 860,
    "far</w>": 861,
    "dur": 862,
    "sing</w>": 863,
    "fit</w>": 864,
    "friend</w>": 865,
    "line</w>": 866,
    "stra": 867,
    "store</w>": 868,
    "actually</w>": 869,
    "low": 870,
    "wonder": 871,
    "drinks</w>": 872,
    "once</w>": 873,
    "dinner</w>": 874,
    "ls</w>": 875,
    "cur": 876,
    "ap</w>": 877,
    "hus": 878,
    "sn": 879,
    "ame</w>": 880,
    "usu": 881,
    "nothing</w>": 882,
    "away</w>": 883,
    "help": 884,
    "hal": 885,
    "bel": 886,
    "tho": 887,
    "thought</w>": 888,
    "solu": 889,
    "retur": 890,
    "ses</w>": 891,
    "loved</w>": 892,
    "easi": 893,
    "sl": 894,
    "pt</w>": 895,
    "may": 896,
    "skin</w>": 897,
    "highly</w>": 898,
    "overall</w>": 899,
    "thre": 900,
    "ali": 901,
    "pack": 902,
    "fami": 903,
    "quite</w>": 904,
    "through</w>": 905,
    "tive</w>": 906,
    "ru": 907,
    "you're</w>": 908,
    "wr": 909,
    "getting</w>": 910,
    "fan": 911,
    "ond</w>": 912,
    "comfortable</w>": 913,
    "appe": 914,
    "hon": 915,
    "ap": 916,
    "cri": 917,
    "full</w>": 918,
    "review</w>": 919,
    "tain": 920,
    "ount</w>": 921,
    "ok</w>": 922,
    "ten</w>": 923,
    "ut</w>": 924,
    "deci": 925,
    "fun</w>": 926,
    "location</w>": 927,
    "sug": 928,
    "anything</w>": 929,
    "chocol": 930,
    "they": 931,
    "ately</w>": 932,
    "arri": 933,
    "than": 934,
    "money</w>": 935,
    "tin": 936,
    "bottle</w>": 937,
    "ently</w>": 938,
    "mas": 939,
    "deli": 940,
    "breakfast</w>": 941,
    "probably</w>": 942,
    "high</w>": 943,
    "medi": 944,
    "tab": 945,
    "ber": 946,
    "color</w>": 947,
    "wonderful</w>": 948,
    "that's</w>": 949,
    "add": 950,
    "asked</w>": 951,
    "cream</w>": 952,
    "beer</w>": 953,
    "stre": 954,
    "those</w>": 955,
    "comes</w>": 956,
    "told</w>": 957,
    "hes</w>": 958,
    "ain": 959,
    "consi": 960,
    "absolu": 961,
    "hand": 962,
    "husband</w>": 963,
    "c</w>": 964,
    "days</w>": 965,
    "part</w>": 966,
    "bread</w>": 967,
    "ass</w>": 968,
    "ready</w>": 969,
    "pping</w>": 970,
    "kno": 971,
    "kind</w>": 972,
    "ey": 973,
    "val": 974,
    "beau": 975,
    "dry</w>": 976,
    "gri": 977,
    "spic": 978,
    "atur": 979,
    "fine</w>": 980,
    "ations</w>": 981,
    "ies</w>": 982,
    "atmo": 983,
    "fries</w>": 984,
    "atmosp": 985,
    "extr": 986,
    "fish</w>": 987,
    "ow": 988,
    "inter": 989,
    "brus": 990,
    "chocolate</w>": 991,
    "atmosphere</w>": 992,
    "bs</w>": 993,
    "who": 994,
    "mor": 995,
    "almost</w>": 996,
    "soft</w>": 997,
    "ent": 998,
    "inside</w>": 999,
    "cour": 1000,
    "having</w>": 1001,
    "maybe</w>": 1002,
    "os</w>": 1003,
    "left</w>": 1004,
    "needed</w>": 1005,
    "dis": 1006,
    "arly</w>": 1007,
    "recei": 1008,
    "let</w>": 1009,
    "prices</w>": 1010,
    "ensive</w>": 1011,
    "shri": 1012,
    "vari": 1013,
    "ness</w>": 1014,
    "fried</w>": 1015,
    "town</w>": 1016,
    "three</w>": 1017,
    "ous": 1018,
    "pan": 1019,
    "des</w>": 1020,
    "sty": 1021,
    "disappointed</w>": 1022,
    "proble": 1023,
    "house</w>": 1024,
    "coming</w>": 1025,
    "zed</w>": 1026,
    "ster</w>": 1027,
    "looks</w>": 1028,
    "seems</w>": 1029,
    "ab</w>": 1030,
    "pow": 1031,
    "kids</w>": 1032,
    "open</w>": 1033,
    "done</w>": 1034,
    "family</w>": 1035,
    "half</w>": 1036,
    "win": 1037,
    "piec": 1038,
    "shrimp</w>": 1039,
    "why</w>": 1040,
    "stuff</w>": 1041,
    "regu": 1042,
    "expensive</w>": 1043,
    "cold</w>": 1044,
    "ood": 1045,
    "hour</w>": 1046,
    "ci": 1047,
    "mm": 1048,
    "flavor": 1049,
    "inclu": 1050,
    "may</w>": 1051,
    "stand": 1052,
    "enti": 1053,
    "manag": 1054,
    "friends</w>": 1055,
    "beauti": 1056,
    "stor": 1057,
    "absolutely</w>": 1058,
    "usually</w>": 1059,
    "add</w>": 1060,
    "tun": 1061,
    "sever": 1062,
    "own</w>": 1063,
    "quick</w>": 1064,
    "lat": 1065,
    "special</w>": 1066,
    "box</w>": 1067,
    "such</w>": 1068,
    "visit</w>": 1069,
    "i'd</w>": 1070,
    "res</w>": 1071,
    "boo": 1072,
    "wish</w>": 1073,
    "hi</w>": 1074,
    "sandwich</w>": 1075,
    "esp": 1076,
    "ck": 1077,
    "rice</w>": 1078,
    "atten": 1079,
    "sion</w>": 1080,
    "ited</w>": 1081,
    "phi": 1082,
    "nai": 1083,
    "especi": 1084,
    "ones</w>": 1085,
    "especially</w>": 1086,
    "customer</w>": 1087,
    "door</w>": 1088,
    "ats</w>": 1089,
    "smoo": 1090,
    "pac": 1091,
    "several</w>": 1092,
    "i'll</w>": 1093,
    "spot</w>": 1094,
    "reviews</w>": 1095,
    "mil": 1096,
    "du": 1097,
    "dish</w>": 1098,
    "couple</w>": 1099,
    "enjoy</w>": 1100,
    "outside</w>": 1101,
    "issu": 1102,
    "dar": 1103,
    "oil</w>": 1104,
    "simp": 1105,
    "server</w>": 1106,
    "ering</w>": 1107,
    "et": 1108,
    "ion</w>": 1109,
    "row": 1110,
    "year</w>": 1111,
    "surpri": 1112,
    "huge</w>": 1113,
    "heav": 1114,
    "gave</w>": 1115,
    "qui": 1116,
    "oc": 1117,
    "past": 1118,
    "selection</w>": 1119,
    "whole</w>": 1120,
    "during</w>": 1121,
    "call": 1122,
    "check</w>": 1123,
    "fantast": 1124,
    "else</w>": 1125,
    "cooked</w>": 1126,
    "ress</w>": 1127,
    "heal": 1128,
    "trying</w>": 1129,
    "everyone</w>": 1130,
    "twe": 1131,
    "help</w>": 1132,
    "places</w>": 1133,
    "nor": 1134,
    "must</w>": 1135,
    "head</w>": 1136,
    "rible</w>": 1137,
    "fron": 1138,
    "extra</w>": 1139,
    "job</w>": 1140,
    "fantastic</w>": 1141,
    "enc": 1142,
    "ously</w>": 1143,
    "five</w>": 1144,
    "pos": 1145,
    "decent</w>": 1146,
    "arrived</w>": 1147,
    "stay</w>": 1148,
    "dd": 1149,
    "iness</w>": 1150,
    "quick": 1151,
    "purchase</w>": 1152,
    "gredi": 1153,
    "real</w>": 1154,
    "decided</w>": 1155,
    "meat</w>": 1156,
    "cool</w>": 1157,
    "shi": 1158,
    "week</w>": 1159,
    "enjoyed</w>": 1160,
    "might</w>": 1161,
    "date</w>": 1162,
    "mac": 1163,
    "ingredi": 1164,
    "car</w>": 1165,
    "ess": 1166,
    "looked</w>": 1167,
    "perfec": 1168,
    "brand</w>": 1169,
    "lls</w>": 1170,
    "least</w>": 1171,
    "items</w>": 1172,
    "sus": 1173,
    "live</w>": 1174,
    "emp": 1175,
    "care</w>": 1176,
    "won't</w>": 1177,
    "spr": 1178,
    "sugar</w>": 1179,
    "cake</w>": 1180,
    "beautiful</w>": 1181,
    "front</w>": 1182,
    "bb": 1183,
    "him</w>": 1184,
    "elt</w>": 1185,
    "face</w>": 1186,
    "veg": 1187,
    "easily</w>": 1188,
    "impres": 1189,
    "ened</w>": 1190,
    "sted</w>": 1191,
    "tables</w>": 1192,
    "soup</w>": 1193,
    "mely</w>": 1194,
    "loves</w>": 1195,
    "ping</w>": 1196,
    "second</w>": 1197,
    "igh": 1198,
    "tasted</w>": 1199,
    "deal</w>": 1200,
    "ged</w>": 1201,
    "ates</w>": 1202,
    "gs</w>": 1203,
    "star</w>": 1204,
    "under": 1205,
    "shes</w>": 1206,
    "ani": 1207,
    "ky</w>": 1208,
    "ran": 1209,
    "cup</w>": 1210,
    "yet</w>": 1211,
    "comple": 1212,
    "hand</w>": 1213,
    "cut</w>": 1214,
    "hed</w>": 1215,
    "astic</w>": 1216,
    "'ll</w>": 1217,
    "isn't</w>": 1218,
    "fol": 1219,
    "pack</w>": 1220,
    "wou": 1221,
    "bac": 1222,
    "expected</w>": 1223,
    "cra": 1224,
    "til</w>": 1225,
    "lon": 1226,
    "'ve</w>": 1227,
    "hold</w>": 1228,
    "tastes</w>": 1229,
    "extre": 1230,
    "flavors</w>": 1231,
    "bri": 1232,
    "quickly</w>": 1233,
    "perfectly</w>": 1234,
    "amount</w>": 1235,
    "dic": 1236,
    "ition</w>": 1237,
    "ary</w>": 1238,
    "sun": 1239,
    "ening</w>": 1240,
    "helpful</w>": 1241,
    "itch": 1242,
    "augh": 1243,
    "hours</w>": 1244,
    "regular</w>": 1245,
    "ask</w>": 1246,
    "dont</w>": 1247,
    "nu": 1248,
    "reason": 1249,
    "spicy</w>": 1250,
    "seas": 1251,
    "foo": 1252,
    "local</w>": 1253,
    "strong</w>": 1254,
    "options</w>": 1255,
    "liked</w>": 1256,
    "my": 1257,
    "until</w>": 1258,
    "wine</w>": 1259,
    "grou": 1260,
    "inste": 1261,
    "tel</w>": 1262,
    "coun": 1263,
    "close</w>": 1264,
    "they're</w>": 1265,
    "tell</w>": 1266,
    "fully</w>": 1267,
    "cute</w>": 1268,
    "cheap</w>": 1269,
    "either</w>": 1270,
    "making</w>": 1271,
    "ef</w>": 1272,
    "mem": 1273,
    "wn": 1274,
    "instead</w>": 1275,
    "fru": 1276,
    "eating</w>": 1277,
    "hol": 1278,
    "extremely</w>": 1279,
    "ative</w>": 1280,
    "reci": 1281,
    "sushi</w>": 1282,
    "cal": 1283,
    "ball</w>": 1284,
    "stop</w>": 1285,
    "value</w>": 1286,
    "led</w>": 1287,
    "point</w>": 1288,
    "served</w>": 1289,
    "hotel</w>": 1290,
    "hor": 1291,
    "eng": 1292,
    "received</w>": 1293,
    "tex": 1294,
    "problem</w>": 1295,
    "ths</w>": 1296,
    "varie": 1297,
    "thers</w>": 1298,
    "exac": 1299,
    "fun": 1300,
    "ce": 1301,
    "return</w>": 1302,
    "desser": 1303,
    "mu": 1304,
    "products</w>": 1305,
    "someone</w>": 1306,
    "tou": 1307,
    "dishes</w>": 1308,
    "couldn't</w>": 1309,
    "org": 1310,
    "ingredients</w>": 1311,
    "nic": 1312,
    "tot": 1313,
    "priced</w>": 1314,
    "lid</w>": 1315,
    "busy</w>": 1316,
    "ants</w>": 1317,
    "mon</w>": 1318,
    "clean": 1319,
    "black</w>": 1320,
    "vers</w>": 1321,
    "ery</w>": 1322,
    "smell</w>": 1323,
    "felt</w>": 1324,
    "purchased</w>": 1325,
    "steak</w>": 1326,
    "warm</w>": 1327,
    "ells</w>": 1328,
    "vely</w>": 1329,
    "sor": 1330,
    "waitress</w>": 1331,
    "pers": 1332,
    "wife</w>": 1333,
    "bag": 1334,
    "finally</w>": 1335,
    "started</w>": 1336,
    "bike</w>": 1337,
    "eff": 1338,
    "que</w>": 1339,
    "work": 1340,
    "sit": 1341,
    "ok": 1342,
    "plus</w>": 1343,
    "pork</w>": 1344,
    "daugh": 1345,
    "gift</w>": 1346,
    "gers</w>": 1347,
    "lling</w>": 1348,
    "case</w>": 1349,
    "called</w>": 1350,
    "plastic</w>": 1351,
    "person</w>": 1352,
    "'</w>": 1353,
    "added</w>": 1354,
    "ken</w>": 1355,
    "tment</w>": 1356,
    "ench</w>": 1357,
    "tiz": 1358,
    "remo": 1359,
    "pper</w>": 1360,
    "gir": 1361,
    "thy</w>": 1362,
    "lots</w>": 1363,
    "sli": 1364,
    "sy": 1365,
    "eg": 1366,
    "stur": 1367,
    "ices</w>": 1368,
    "wrong</w>": 1369,
    "thick</w>": 1370,
    "appetiz": 1371,
    "there's</w>": 1372,
    "ads</w>": 1373,
    "tom": 1374,
    "style</w>": 1375,
    "gener": 1376,
    "seem</w>": 1377,
    "although</w>": 1378,
    "week": 1379,
    "pai": 1380,
    "worked</w>": 1381,
    "choo": 1382,
    "da</w>": 1383,
    "ago</w>": 1384,
    "pref": 1385,
    "en't</w>": 1386,
    "stand</w>": 1387,
    "seemed</w>": 1388,
    "flo": 1389,
    "cli": 1390,
    "working</w>": 1391,
    "lin": 1392,
    "hands</w>": 1393,
    "bed</w>": 1394,
    "vege": 1395,
    "lla</w>": 1396,
    "pay</w>": 1397,
    "myself</w>": 1398,
    "ven</w>": 1399,
    "sati": 1400,
    "ban": 1401,
    "verage</w>": 1402,
    "sit</w>": 1403,
    "incre": 1404,
    "tal": 1405,
    "ican</w>": 1406,
    "sen": 1407,
    "fan</w>": 1408,
    "green</w>": 1409,
    "oned</w>": 1410,
    "gets</w>": 1411,
    "dre": 1412,
    "mag": 1413,
    "under</w>": 1414,
    "struc": 1415,
    "gra": 1416,
    "z</w>": 1417,
    "show": 1418,
    "eling</w>": 1419,
    "variety</w>": 1420,
    "desig": 1421,
    "yel": 1422,
    "ck</w>": 1423,
    "ail": 1424,
    "han": 1425,
    "city</w>": 1426,
    "leave</w>": 1427,
    "sub": 1428,
    "conven": 1429,
    "toge": 1430,
    "ato": 1431,
    "pes</w>": 1432,
    "course</w>": 1433,
    "gro": 1434,
    "brush</w>": 1435,
    "anyone</w>": 1436,
    "pared</w>": 1437,
    "already</w>": 1438,
    "white</w>": 1439,
    "shop</w>": 1440,
    "li</w>": 1441,
    "beef</w>": 1442,
    "cakes</w>": 1443,
    "of": 1444,
    "yes</w>": 1445,
    "bat": 1446,
    "ed": 1447,
    "lou": 1448,
    "fini": 1449,
    "yum": 1450,
    "business</w>": 1451,
    "sing": 1452,
    "alls</w>": 1453,
    "provi": 1454,
    "others</w>": 1455,
    "tru": 1456,
    "uck</w>": 1457,
    "har": 1458,
    "item</w>": 1459,
    "waiting</w>": 1460,
    "blu": 1461,
    "needs</w>": 1462,
    "fits</w>": 1463,
    "body</w>": 1464,
    "packag": 1465,
    "together</w>": 1466,
    "read</w>": 1467,
    "exactly</w>": 1468,
    "natur": 1469,
    "ant": 1470,
    "short</w>": 1471,
    "inst": 1472,
    "xed</w>": 1473,
    "longer</w>": 1474,
    "ments</w>": 1475,
    "amazon</w>": 1476,
    "down": 1477,
    "okay</w>": 1478,
    "key</w>": 1479,
    "sw": 1480,
    "expect</w>": 1481,
    "reason</w>": 1482,
    "street</w>": 1483,
    "ld": 1484,
    "ens</w>": 1485,
    "ement</w>": 1486,
    "dro": 1487,
    "man</w>": 1488,
    "later</w>": 1489,
    "parking</w>": 1490,
    "butter</w>": 1491,
    "doing</w>": 1492,
    "vered</w>": 1493,
    "essi": 1494,
    "cooki": 1495,
    "walk</w>": 1496,
    "air": 1497,
    "pla": 1498,
    "yo": 1499,
    "manager</w>": 1500,
    "egg": 1501,
    "wouldn't</w>": 1502,
    "ward</w>": 1503,
    "ale</w>": 1504,
    "start</w>": 1505,
    "eri": 1506,
    "indi": 1507,
    "beli": 1508,
    "tender</w>": 1509,
    "dou": 1510,
    "phone</w>": 1511,
    "glad</w>": 1512,
    "bly</w>": 1513,
    "bal": 1514,
    "bow": 1515,
    "art</w>": 1516,
    "morning</w>": 1517,
    "heavy</w>": 1518,
    "mix</w>": 1519,
    "conveni": 1520,
    "sturdy</w>": 1521,
    "ow</w>": 1522,
    "dark</w>": 1523,
    "contain": 1524,
    "la</w>": 1525,
    "mis": 1526,
    "trip</w>": 1527,
    "change</w>": 1528,
    "often</w>": 1529,
    "thin</w>": 1530,
    "our": 1531,
    "bring</w>": 1532,
    "milk</w>": 1533,
    "life</w>": 1534,
    "fact</w>": 1535,
    "today</w>": 1536,
    "swee": 1537,
    "im</w>": 1538,
    "roll</w>": 1539,
    "ob": 1540,
    "chips</w>": 1541,
    "impressed</w>": 1542,
    "weight</w>": 1543,
    "four</w>": 1544,
    "small": 1545,
    "wear</w>": 1546,
    "chin": 1547,
    "recommended</w>": 1548,
    "music</w>": 1549,
    "call</w>": 1550,
    "ins</w>": 1551,
    "rely</w>": 1552,
    "party</w>": 1553,
    "fo": 1554,
    "name</w>": 1555,
    "french</w>": 1556,
    "eep</w>": 1557,
    "salt</w>": 1558,
    "atoes</w>": 1559,
    "tacos</w>": 1560,
    "ches</w>": 1561,
    "norm": 1562,
    "descri": 1563,
    "enty</w>": 1564,
    "smooth</w>": 1565,
    "tween</w>": 1566,
    "sig": 1567,
    "iting</w>": 1568,
    "ade</w>": 1569,
    "wra": 1570,
    "exce": 1571,
    "trav": 1572,
    "zy</w>": 1573,
    "nam": 1574,
    "ns</w>": 1575,
    "between</w>": 1576,
    "fortun": 1577,
    "yummy</w>": 1578,
    "colors</w>": 1579,
    "ket</w>": 1580,
    "feels</w>": 1581,
    "thank</w>": 1582,
    "restaurants</w>": 1583,
    "mer": 1584,
    "saw</w>": 1585,
    "months</w>": 1586,
    "sul": 1587,
    "daughter</w>": 1588,
    "wha": 1589,
    "space</w>": 1590,
    "crab</w>": 1591,
    "uni": 1592,
    "etc</w>": 1593,
    "company</w>": 1594,
    "oh</w>": 1595,
    "crow": 1596,
    "eve</w>": 1597,
    "cen": 1598,
    "tain</w>": 1599,
    "comb": 1600,
    "tor": 1601,
    "ai</w>": 1602,
    "rather</w>": 1603,
    "bacon</w>": 1604,
    "simple</w>": 1605,
    "fresh": 1606,
    "ically</w>": 1607,
    "ended</w>": 1608,
    "type</w>": 1609,
    "reasonable</w>": 1610,
    "incredi": 1611,
    "due</w>": 1612,
    "ny</w>": 1613,
    "list</w>": 1614,
    "tan": 1615,
    "dessert</w>": 1616,
    "squ": 1617,
    "sting</w>": 1618,
    "avail": 1619,
    "brought</w>": 1620,
    "goes</w>": 1621,
    "cks</w>": 1622,
    "bor": 1623,
    "y's</w>": 1624,
    "mou": 1625,
    "eat": 1626,
    "nec": 1627,
    "attentive</w>": 1628,
    "satis": 1629,
    "ils</w>": 1630,
    "dining</w>": 1631,
    "scre": 1632,
    "hy": 1633,
    "plenty</w>": 1634,
    "natural</w>": 1635,
    "lightly</w>": 1636,
    "past</w>": 1637,
    "mine</w>": 1638,
    "owner</w>": 1639,
    "sometimes</w>": 1640,
    "prom": 1641,
    "back": 1642,
    "itself</w>": 1643,
    "bir": 1644,
    "dding</w>": 1645,
    "smo": 1646,
    "haven": 1647,
    "prof": 1648,
    "run": 1649,
    "rooms</w>": 1650,
    "haven't</w>": 1651,
    "texture</w>": 1652,
    "moi": 1653,
    "smaller</w>": 1654,
    "ders</w>": 1655,
    "consist": 1656,
    "ult</w>": 1657,
    "hun": 1658,
    "hom": 1659,
    "available</w>": 1660,
    "hin": 1661,
    "soon</w>": 1662,
    "lish</w>": 1663,
    "run</w>": 1664,
    "mul": 1665,
    "after": 1666,
    "interest": 1667,
    "lad": 1668,
    "brunch</w>": 1669,
    "bul": 1670,
    "piece</w>": 1671,
    "beans</w>": 1672,
    "plate</w>": 1673,
    "buying</w>": 1674,
    "mind</w>": 1675,
    "sat</w>": 1676,
    "pm</w>": 1677,
    "what": 1678,
    "possi": 1679,
    "pen": 1680,
    "mic": 1681,
    "ive</w>": 1682,
    "healthy</w>": 1683,
    "walked</w>": 1684,
    "ges</w>": 1685,
    "group</w>": 1686,
    "waiter</w>": 1687,
    "standing</w>": 1688,
    "supp": 1689,
    "completely</w>": 1690,
    "seated</w>": 1691,
    "her": 1692,
    "tro": 1693,
    "wel": 1694,
    "pieces</w>": 1695,
    "pasta</w>": 1696,
    "notic": 1697,
    "tasting</w>": 1698,
    "ging</w>": 1699,
    "professi": 1700,
    "lim": 1701,
    "que": 1702,
    "berry</w>": 1703,
    "stopped</w>": 1704,
    "flavorful</w>": 1705,
    "ide": 1706,
    "dge</w>": 1707,
    "leav": 1708,
    "od": 1709,
    "bit": 1710,
    "ming</w>": 1711,
    "member</w>": 1712,
    "ton</w>": 1713,
    "know": 1714,
    "ordering</w>": 1715,
    "aring</w>": 1716,
    "pat": 1717,
    "guess</w>": 1718,
    "mex": 1719,
    "seri": 1720,
    "ough": 1721,
    "issue</w>": 1722,
    "corn</w>": 1723,
    "solid</w>": 1724,
    "sts</w>": 1725,
    "given</w>": 1726,
    "kitch": 1727,
    "ling</w>": 1728,
    "lev": 1729,
    "pleasant</w>": 1730,
    "seating</w>": 1731,
    "sa</w>": 1732,
    "average</w>": 1733,
    "clas": 1734,
    "mel": 1735,
    "tail</w>": 1736,
    "pick": 1737,
    "imp": 1738,
    "entre": 1739,
    "choice</w>": 1740,
    "num": 1741,
    "waited</w>": 1742,
    "organ": 1743,
    "pot": 1744,
    "entire</w>": 1745,
    "fortunately</w>": 1746,
    "cat": 1747,
    "sea": 1748,
    "itional</w>": 1749,
    "orig": 1750,
    "ching</w>": 1751,
    "fruit</w>": 1752,
    "along</w>": 1753,
    "cost</w>": 1754,
    "ird</w>": 1755,
    "takes</w>": 1756,
    "smells</w>": 1757,
    "not": 1758,
    "glass</w>": 1759,
    "ash": 1760,
    "nood": 1761,
    "sides</w>": 1762,
    "burgers</w>": 1763,
    "terrible</w>": 1764,
    "acc": 1765,
    "kept</w>": 1766,
    "believe</w>": 1767,
    "pati": 1768,
    "chil": 1769,
    "heat</w>": 1770,
    "ker</w>": 1771,
    "buil": 1772,
    "weeks</w>": 1773,
    "eggs</w>": 1774,
    "chees": 1775,
    "lity</w>": 1776,
    "pick</w>": 1777,
    "asted</w>": 1778,
    "avo": 1779,
    "offer</w>": 1780,
    "twice</w>": 1781,
    "fro": 1782,
    "q</w>": 1783,
    "surprised</w>": 1784,
    "play</w>": 1785,
    "veggi": 1786,
    "nails</w>": 1787,
    "seen</w>": 1788,
    "fied</w>": 1789,
    "taking</w>": 1790,
    "las": 1791,
    "shed</w>": 1792,
    "kitchen</w>": 1793,
    "rolls</w>": 1794,
    "emplo": 1795,
    "hope</w>": 1796,
    "package</w>": 1797,
    "air</w>": 1798,
    "ross</w>": 1799,
    "satur": 1800,
    "tic</w>": 1801,
    "philly</w>": 1802,
    "reserv": 1803,
    "cin": 1804,
    "butt": 1805,
    "aff": 1806,
    "origin": 1807,
    "leans</w>": 1808,
    "pleased</w>": 1809,
    "cock": 1810,
    "spe": 1811,
    "board</w>": 1812,
    "stick</w>": 1813,
    "glu": 1814,
    "organic</w>": 1815,
    "antly</w>": 1816,
    "scent</w>": 1817,
    "onally</w>": 1818,
    "contin": 1819,
    "thin": 1820,
    "sitting</w>": 1821,
    "ters</w>": 1822,
    "ben": 1823,
    "guy</w>": 1824,
    "wings</w>": 1825,
    "charge</w>": 1826,
    "itali": 1827,
    "bottles</w>": 1828,
    "head": 1829,
    "sav": 1830,
    "snack</w>": 1831,
    "sters</w>": 1832,
    "says</w>": 1833,
    "hit</w>": 1834,
    "option</w>": 1835,
    "seat</w>": 1836,
    "orleans</w>": 1837,
    "lic</w>": 1838,
    "zi": 1839,
    "customers</w>": 1840,
    "rest</w>": 1841,
    "gy": 1842,
    "itive</w>": 1843,
    "stri": 1844,
    "slow</w>": 1845,
    "tour</w>": 1846,
    "late</w>": 1847,
    "game</w>": 1848,
    "camp": 1849,
    "bags</w>": 1850,
    "prefer</w>": 1851,
    "totally</w>": 1852,
    "ange</w>": 1853,
    "medium</w>": 1854,
    "wise</w>": 1855,
    "nail</w>": 1856,
    "mmer</w>": 1857,
    "portions</w>": 1858,
    "carry</w>": 1859,
    "main</w>": 1860,
    "scr": 1861,
    "ski": 1862,
    "replac": 1863,
    "opened</w>": 1864,
    "portion</w>": 1865,
    "immedi": 1866,
    "cy</w>": 1867,
    "thanks</w>": 1868,
    "serve</w>": 1869,
    "based</w>": 1870,
    "employe": 1871,
    "bottom</w>": 1872,
    "decor</w>": 1873,
    "oy": 1874,
    "nicely</w>": 1875,
    "expl": 1876,
    "issues</w>": 1877,
    "direc": 1878,
    "suppo": 1879,
    "ger": 1880,
    "dog</w>": 1881,
    "slightly</w>": 1882,
    "you'll</w>": 1883,
    "ries</w>": 1884,
    "bowl</w>": 1885,
    "ato</w>": 1886,
    "dai": 1887,
    "bbq</w>": 1888,
    "infor": 1889,
    "horrible</w>": 1890,
    "ear": 1891,
    "buff": 1892,
    "cond": 1893,
    "pota": 1894,
    "unfortunately</w>": 1895,
    "italian</w>": 1896,
    "potato</w>": 1897,
    "cocon": 1898,
    "professional</w>": 1899,
    "zen</w>": 1900,
    "thai</w>": 1901,
    "'d</w>": 1902,
    "bite</w>": 1903,
    "ton": 1904,
    "idea</w>": 1905,
    "typic": 1906,
    "materi": 1907,
    "pricey</w>": 1908,
    "feeling</w>": 1909,
    "powder</w>": 1910,
    "cannot</w>": 1911,
    "packed</w>": 1912,
    "hoo": 1913,
    "paid</w>": 1914,
    "recently</w>": 1915,
    "beg": 1916,
    "did": 1917,
    "ature</w>": 1918,
    "giving</w>": 1919,
    "worst</w>": 1920,
    "disc": 1921,
    "early</w>": 1922,
    "crisp": 1923,
    "mouth</w>": 1924,
    "delivery</w>": 1925,
    "spl": 1926,
    "lower</w>": 1927,
    "handle</w>": 1928,
    "lock</w>": 1929,
    "wash</w>": 1930,
    "coconut</w>": 1931,
    "diffic": 1932,
    "dres": 1933,
    "non": 1934,
    "cand": 1935,
    "act</w>": 1936,
    "instruc": 1937,
    "gree": 1938,
    "ie</w>": 1939,
    "ners</w>": 1940,
    "auth": 1941,
    "tiny</w>": 1942,
    "sandwic": 1943,
    "watch</w>": 1944,
    "gott": 1945,
    "resp": 1946,
    "ticul": 1947,
    "please</w>": 1948,
    "batter": 1949,
    "vin": 1950,
    "walking</w>": 1951,
    "pho": 1952,
    "lea": 1953,
    "unique</w>": 1954,
    "resul": 1955,
    "drive</w>": 1956,
    "garlic</w>": 1957,
    "appetizer</w>": 1958,
    "ste</w>": 1959,
    "balls</w>": 1960,
    "treat</w>": 1961,
    "within</w>": 1962,
    "proc": 1963,
    "saturday</w>": 1964,
    "kets</w>": 1965,
    "bis": 1966,
    "anc": 1967,
    "dra": 1968,
    "neigh": 1969,
    "row</w>": 1970,
    "appreci": 1971,
    "mexican</w>": 1972,
    "counter</w>": 1973,
    "wom": 1974,
    "eye</w>": 1975,
    "immediately</w>": 1976,
    "itu": 1977,
    "gone</w>": 1978,
    "month</w>": 1979,
    "seafood</w>": 1980,
    "wow</w>": 1981,
    "convenient</w>": 1982,
    "lovely</w>": 1983,
    "ambi": 1984,
    "yog": 1985,
    "home": 1986,
    "gy</w>": 1987,
    "floor</w>": 1988,
    "yelp</w>": 1989,
    "across</w>": 1990,
    "blue</w>": 1991,
    "bright</w>": 1992,
    "uses</w>": 1993,
    "fair": 1994,
    "show</w>": 1995,
    "ash</w>": 1996,
    "didnt</w>": 1997,
    "tip</w>": 1998,
    "waste</w>": 1999,
    "forward</w>": 2000,
    "mush": 2001,
    "addition</w>": 2002,
    "design</w>": 2003,
    "near</w>": 2004,
    "cookies</w>": 2005,
    "pepp": 2006,
    "hood</w>": 2007,
    "included</w>": 2008,
    "particul": 2009,
    "heard</w>": 2010,
    "sandwiches</w>": 2011,
    "larger</w>": 2012,
    "cover</w>": 2013,
    "suc": 2014,
    "sil": 2015,
    "wer": 2016,
    "your": 2017,
    "prot": 2018,
    "abo": 2019,
    "bars</w>": 2020,
    "rela": 2021,
    "honest": 2022,
    "met</w>": 2023,
    "remember</w>": 2024,
    "birth": 2025,
    "simply</w>": 2026,
    "grilled</w>": 2027,
    "weekend</w>": 2028,
    "potatoes</w>": 2029,
    "yer</w>": 2030,
    "questi": 2031,
    "knew</w>": 2032,
    "noticed</w>": 2033,
    "led": 2034,
    "egg</w>": 2035,
    "ti</w>": 2036,
    "helps</w>": 2037,
    "ana</w>": 2038,
    "greas": 2039,
    "sunday</w>": 2040,
    "goo": 2041,
    "ends</w>": 2042,
    "chy</w>": 2043,
    "offered</w>": 2044,
    "id": 2045,
    "appl": 2046,
    "ption</w>": 2047,
    "ele": 2048,
    "apple</w>": 2049,
    "difficult</w>": 2050,
    "fill</w>": 2051,
    "excited</w>": 2052,
    "ise</w>": 2053,
    "simi": 2054,
    "keeps</w>": 2055,
    "aren't</w>": 2056,
    "ions</w>": 2057,
    "ush</w>": 2058,
    "doesnt</w>": 2059,
    "evening</w>": 2060,
    "guys</w>": 2061,
    "liter": 2062,
    "easier</w>": 2063,
    "truly</w>": 2064,
    "uts</w>": 2065,
    "boy": 2066,
    "main": 2067,
    "zing</w>": 2068,
    "trad": 2069,
    "amy</w>": 2070,
    "salty</w>": 2071,
    "ground</w>": 2072,
    "true</w>": 2073,
    "interesting</w>": 2074,
    "honey</w>": 2075,
    "ool</w>": 2076,
    "filled</w>": 2077,
    "bath": 2078,
    "level</w>": 2079,
    "poor</w>": 2080,
    "accom": 2081,
    "entic</w>": 2082,
    "birthday</w>": 2083,
    "authentic</w>": 2084,
    "spice</w>": 2085,
    "tight</w>": 2086,
    "exer": 2087,
    "behin": 2088,
    "ched</w>": 2089,
    "ren": 2090,
    "ort": 2091,
    "opin": 2092,
    "lle</w>": 2093,
    "beers</w>": 2094,
    "tent</w>": 2095,
    "single</w>": 2096,
    "pean": 2097,
    "behind</w>": 2098,
    "honestly</w>": 2099,
    "other": 2100,
    "reali": 2101,
    "difference</w>": 2102,
    "mes": 2103,
    "oning</w>": 2104,
    "pas": 2105,
    "prepared</w>": 2106,
    "clear</w>": 2107,
    "eaten</w>": 2108,
    "market</w>": 2109,
    "choose</w>": 2110,
    "crispy</w>": 2111,
    "serving</w>": 2112,
    "covered</w>": 2113,
    "yourself</w>": 2114,
    "tor</w>": 2115,
    "fy</w>": 2116,
    "prac": 2117,
    "resi": 2118,
    "stly</w>": 2119,
    "pair</w>": 2120,
    "lam": 2121,
    "ties</w>": 2122,
    "bland</w>": 2123,
    "juice</w>": 2124,
    "ght": 2125,
    "ength</w>": 2126,
    "aint</w>": 2127,
    "tte</w>": 2128,
    "experienc": 2129,
    "break</w>": 2130,
    "grits</w>": 2131,
    "ster": 2132,
    "fairly</w>": 2133,
    "literally</w>": 2134,
    "stance</w>": 2135,
    "v</w>": 2136,
    "shou": 2137,
    "adju": 2138,
    "possible</w>": 2139,
    "vani": 2140,
    "move</w>": 2141,
    "complain": 2142,
    "iced</w>": 2143,
    "rude</w>": 2144,
    "sy</w>": 2145,
    "att": 2146,
    "pin": 2147,
    "lob": 2148,
    "minute</w>": 2149,
    "pancakes</w>": 2150,
    "sage</w>": 2151,
    "ility</w>": 2152,
    "dev": 2153,
    "nuts</w>": 2154,
    "bra": 2155,
    "ped</w>": 2156,
    "bun": 2157,
    "site</w>": 2158,
    "original</w>": 2159,
    "similar</w>": 2160,
    "ggest</w>": 2161,
    "update</w>": 2162,
    "stuff": 2163,
    "bands</w>": 2164,
    "standard</w>": 2165,
    "sam": 2166,
    "sem": 2167,
    "yum</w>": 2168,
    "hair": 2169,
    "material</w>": 2170,
    "correc": 2171,
    "ier</w>": 2172,
    "including</w>": 2173,
    "accommo": 2174,
    "apo": 2175,
    "rist": 2176,
    "world</w>": 2177,
    "lear": 2178,
    "tails</w>": 2179,
    "bartender</w>": 2180,
    "unless</w>": 2181,
    "make": 2182,
    "grand": 2183,
    "toast</w>": 2184,
    "calor": 2185,
    "impro": 2186,
    "elling</w>": 2187,
    "meals</w>": 2188,
    "pal": 2189,
    "youn": 2190,
    "stick": 2191,
    "dir": 2192,
    "seriously</w>": 2193,
    "lemon</w>": 2194,
    "asi": 2195,
    "ville</w>": 2196,
    "tari": 2197,
    "summer</w>": 2198,
    "note</w>": 2199,
    "whe": 2200,
    "certain": 2201,
    "vers": 2202,
    "ective</w>": 2203,
    "candy</w>": 2204,
    "travel</w>": 2205,
    "fit": 2206,
    "multi": 2207,
    "bab": 2208,
    "stic": 2209,
    "plan": 2210,
    "helped</w>": 2211,
    "creamy</w>": 2212,
    "ita</w>": 2213,
    "bucks</w>": 2214,
    "touch</w>": 2215,
    "luc": 2216,
    "rich</w>": 2217,
    "acks</w>": 2218,
    "certainly</w>": 2219,
    "neighbor": 2220,
    "above</w>": 2221,
    "mixed</w>": 2222,
    "homemade</w>": 2223,
    "adver": 2224,
    "big": 2225,
    "usage</w>": 2226,
    "filling</w>": 2227,
    "vanilla</w>": 2228,
    "oz</w>": 2229,
    "oin": 2230,
    "daily</w>": 2231,
    "tran": 2232,
    "noodles</w>": 2233,
    "vegetari": 2234,
    "ounds</w>": 2235,
    "combin": 2236,
    "number</w>": 2237,
    "chinese</w>": 2238,
    "occas": 2239,
    "gotten</w>": 2240,
    "understand</w>": 2241,
    "bill</w>": 2242,
    "salsa</w>": 2243,
    "save</w>": 2244,
    "feet</w>": 2245,
    "xing</w>": 2246,
    "sugge": 2247,
    "hing</w>": 2248,
    "ah</w>": 2249,
    "boyfriend</w>": 2250,
    "sort</w>": 2251,
    "brown</w>": 2252,
    "smooth": 2253,
    "vide": 2254,
    "cant</w>": 2255,
    "soo": 2256,
    "opinion</w>": 2257,
    "finish</w>": 2258,
    "eyes</w>": 2259,
    "last": 2260,
    "temp": 2261,
    "makeup</w>": 2262,
    "gel</w>": 2263,
    "fair</w>": 2264,
    "ddle</w>": 2265,
    "taken</w>": 2266,
    "mean</w>": 2267,
    "gives</w>": 2268,
    "turn</w>": 2269,
    "cafe</w>": 2270,
    "sent</w>": 2271,
    "dies</w>": 2272,
    "otherwise</w>": 2273,
    "weren't</w>": 2274,
    "consider": 2275,
    "mostly</w>": 2276,
    "turned</w>": 2277,
    "doll": 2278,
    "tar": 2279,
    "appoin": 2280,
    "vel": 2281,
    "lightwe": 2282,
    "loud</w>": 2283,
    "adverti": 2284,
    "durable</w>": 2285,
    "park</w>": 2286,
    "aper</w>": 2287,
    "compli": 2288,
    "pepper</w>": 2289,
    "viously</w>": 2290,
    "pictu": 2291,
    "cook</w>": 2292,
    "slee": 2293,
    "camping</w>": 2294,
    "oysters</w>": 2295,
    "mi</w>": 2296,
    "anywhere</w>": 2297,
    "noon</w>": 2298,
    "packaging</w>": 2299,
    "ser</w>": 2300,
    "swi": 2301,
    "empty</w>": 2302,
    "plan</w>": 2303,
    "lights</w>": 2304,
    "servers</w>": 2305,
    "coll": 2306,
    "glas": 2307,
    "orders</w>": 2308,
    "rit": 2309,
    "cooking</w>": 2310,
    "lightweight</w>": 2311,
    "upon</w>": 2312,
    "ne</w>": 2313,
    "appro": 2314,
    "ler</w>": 2315,
    "sear": 2316,
    "employees</w>": 2317,
    "picture</w>": 2318,
    "good": 2319,
    "brands</w>": 2320,
    "chance</w>": 2321,
    "allo": 2322,
    "ay": 2323,
    "ily</w>": 2324,
    "we've</w>": 2325,
    "anyway</w>": 2326,
    "dried</w>": 2327,
    "sized</w>": 2328,
    "windo": 2329,
    "online</w>": 2330,
    "spend</w>": 2331,
    "ring</w>": 2332,
    "mac</w>": 2333,
    "ory</w>": 2334,
    "bene": 2335,
    "shower</w>": 2336,
    "honest</w>": 2337,
    "bey": 2338,
    "concer": 2339,
    "taco</w>": 2340,
    "supposed</w>": 2341,
    "center</w>": 2342,
    "orange</w>": 2343,
    "cket</w>": 2344,
    "beach</w>": 2345,
    "chef</w>": 2346,
    "na</w>": 2347,
    "ori": 2348,
    "vegan</w>": 2349,
    "beat</w>": 2350,
    "fall</w>": 2351,
    "knowled": 2352,
    "polish</w>": 2353,
    "ly": 2354,
    "stayed</w>": 2355,
    "hur": 2356,
    "compar": 2357,
    "outstanding</w>": 2358,
    "girl</w>": 2359,
    "blend</w>": 2360,
    "tional</w>": 2361,
    "flat</w>": 2362,
    "tal</w>": 2363,
    "care": 2364,
    "bon": 2365,
    "adding</w>": 2366,
    "choices</w>": 2367,
    "incredible</w>": 2368,
    "compared</w>": 2369,
    "sausage</w>": 2370,
    "neighborhood</w>": 2371,
    "ator</w>": 2372,
    "gym</w>": 2373,
    "grab</w>": 2374,
    "card</w>": 2375,
    "desk</w>": 2376,
    "boy</w>": 2377,
    "disappointing</w>": 2378,
    "mer</w>": 2379,
    "except</w>": 2380,
    "biscu": 2381,
    "cinnam": 2382,
    "tomato</w>": 2383,
    "kit</w>": 2384,
    "mas</w>": 2385,
    "weird</w>": 2386,
    "broken</w>": 2387,
    "baked</w>": 2388,
    "attac": 2389,
    "fat</w>": 2390,
    "miss</w>": 2391,
    "salon</w>": 2392,
    "buffet</w>": 2393,
    "stret": 2394,
    "ingly</w>": 2395,
    "nash": 2396,
    "assem": 2397,
    "co</w>": 2398,
    "geable</w>": 2399,
    "pou": 2400,
    "requ": 2401,
    "onion</w>": 2402,
    "satisfied</w>": 2403,
    "friday</w>": 2404,
    "cheaper</w>": 2405,
    "middle</w>": 2406,
    "foods</w>": 2407,
    "amer": 2408,
    "awful</w>": 2409,
    "fla": 2410,
    "water": 2411,
    "saying</w>": 2412,
    "san": 2413,
    "normal</w>": 2414,
    "normally</w>": 2415,
    "holds</w>": 2416,
    "glasses</w>": 2417,
    "fur": 2418,
    "outdoor</w>": 2419,
    "she": 2420,
    "instructions</w>": 2421,
    "closed</w>": 2422,
    "hum": 2423,
    "review": 2424,
    "basically</w>": 2425,
    "matter</w>": 2426,
    "fish": 2427,
    "bigger</w>": 2428,
    "straight</w>": 2429,
    "mom": 2430,
    "fic</w>": 2431,
    "version</w>": 2432,
    "leaves</w>": 2433,
    "usual</w>": 2434,
    "train": 2435,
    "den": 2436,
    "typical</w>": 2437,
    "visiting</w>": 2438,
    "wide</w>": 2439,
    "spor": 2440,
    "xes</w>": 2441,
    "crowded</w>": 2442,
    "lol</w>": 2443,
    "use": 2444,
    "whatever</w>": 2445,
    "schoo": 2446,
    "liqu": 2447,
    "means</w>": 2448,
    "gry</w>": 2449,
    "wea": 2450,
    "crazy</w>": 2451,
    "vir": 2452,
    "lac": 2453,
    "die</w>": 2454,
    "multiple</w>": 2455,
    "drinking</w>": 2456,
    "soap</w>": 2457,
    "thick": 2458,
    "ical</w>": 2459,
    "vious</w>": 2460,
    "stores</w>": 2461,
    "zer</w>": 2462,
    "reading</w>": 2463,
    "total</w>": 2464,
    "running</w>": 2465,
    "rel": 2466,
    "pad</w>": 2467,
    "expecting</w>": 2468,
    "super": 2469,
    "adv": 2470,
    "cups</w>": 2471,
    "christ": 2472,
    "container</w>": 2473,
    "ites</w>": 2474,
    "crun": 2475,
    "cinnamon</w>": 2476,
    "pool</w>": 2477,
    "frozen</w>": 2478,
    "mach": 2479,
    "vo": 2480,
    "peanut</w>": 2481,
    "well": 2482,
    "nashville</w>": 2483,
    "moved</w>": 2484,
    "lies</w>": 2485,
    "prote": 2486,
    "specials</w>": 2487,
    "donuts</w>": 2488,
    "greasy</w>": 2489,
    "vegetarian</w>": 2490,
    "wedding</w>": 2491,
    "mask</w>": 2492,
    "color": 2493,
    "sens": 2494,
    "apply</w>": 2495,
    "gard": 2496,
    "cro": 2497,
    "poin": 2498,
    "machine</w>": 2499,
    "exten": 2500,
    "chair</w>": 2501,
    "ship</w>": 2502,
    "zes</w>": 2503,
    "lady</w>": 2504,
    "salmon</w>": 2505,
    "moistu": 2506,
    "personal</w>": 2507,
    "remin": 2508,
    "outs</w>": 2509,
    "inger</w>": 2510,
    "complaint</w>": 2511,
    "eless</w>": 2512,
    "putting</w>": 2513,
    "spent</w>": 2514,
    "plates</w>": 2515,
    "ual</w>": 2516,
    "imag": 2517,
    "salads</w>": 2518,
    "lish": 2519,
    "pulled</w>": 2520,
    "book</w>": 2521,
    "almon": 2522,
    "ambiance</w>": 2523,
    "deser": 2524,
    "jer": 2525,
    "moisturi": 2526,
    "pie</w>": 2527,
    "trac": 2528,
    "problems</w>": 2529,
    "inten": 2530,
    "remove</w>": 2531,
    "dama": 2532,
    "gum": 2533,
    "proper": 2534,
    "attention</w>": 2535,
    "barely</w>": 2536,
    "afternoon</w>": 2537,
    "mom</w>": 2538,
    "separ": 2539,
    "roast</w>": 2540,
    "stable</w>": 2541,
    "ame": 2542,
    "cap</w>": 2543,
    "school</w>": 2544,
    "downtown</w>": 2545,
    "min</w>": 2546,
    "inform": 2547,
    "plain</w>": 2548,
    "nola</w>": 2549,
    "estab": 2550,
    "di</w>": 2551,
    "alter": 2552,
    "share</w>": 2553,
    "wall</w>": 2554,
    "overpriced</w>": 2555,
    "meat": 2556,
    "men</w>": 2557,
    "iled</w>": 2558,
    "shape</w>": 2559,
    "flu": 2560,
    "limited</w>": 2561,
    "changed</w>": 2562,
    "ia</w>": 2563,
    "inf": 2564,
    "weigh": 2565,
    "answ": 2566,
    "fix</w>": 2567,
    "ta</w>": 2568,
    "delivered</w>": 2569,
    "reservation</w>": 2570,
    "sorry</w>": 2571,
    "lowed</w>": 2572,
    "tuna</w>": 2573,
    "alone</w>": 2574,
    "bo</w>": 2575,
    "massage</w>": 2576,
    "likes</w>": 2577,
    "ley</w>": 2578,
    "workout</w>": 2579,
    "si</w>": 2580,
    "curr": 2581,
    "wood</w>": 2582,
    "pain</w>": 2583,
    "incredibly</w>": 2584,
    "opening</w>": 2585,
    "grocer": 2586,
    "lowing</w>": 2587,
    "spray</w>": 2588,
    "net</w>": 2589,
    "tioned</w>": 2590,
    "aded</w>": 2591,
    "nut</w>": 2592,
    "ffle</w>": 2593,
    "syr": 2594,
    "conditi": 2595,
    "strap</w>": 2596,
    "aft</w>": 2597,
    "range</w>": 2598,
    "office</w>": 2599,
    "lik": 2600,
    "deep</w>": 2601,
    "curry</w>": 2602,
    "host": 2603,
    "appointment</w>": 2604,
    "thinking</w>": 2605,
    "ka</w>": 2606,
    "ma</w>": 2607,
    "crust</w>": 2608,
    "finished</w>": 2609,
    "unk</w>": 2610,
    "beyond</w>": 2611,
    "margar": 2612,
    "selves</w>": 2613,
    "patio</w>": 2614,
    "test</w>": 2615,
    "refresh": 2616,
    "class": 2617,
    "pump</w>": 2618,
    "arti": 2619,
    "hate</w>": 2620,
    "expect": 2621,
    "avoid</w>": 2622,
    "fabul": 2623,
    "pull</w>": 2624,
    "frequ": 2625,
    "safe</w>": 2626,
    "requi": 2627,
    "basic</w>": 2628,
    "ior</w>": 2629,
    "calories</w>": 2630,
    "hoping</w>": 2631,
    "sof": 2632,
    "brew": 2633,
    "mention</w>": 2634,
    "appetizers</w>": 2635,
    "grav": 2636,
    "view</w>": 2637,
    "keeping</w>": 2638,
    "tuc": 2639,
    "dirty</w>": 2640,
    "shipping</w>": 2641,
    "atu": 2642,
    "christmas</w>": 2643,
    "future</w>": 2644,
    "equ": 2645,
    "shar": 2646,
    "power</w>": 2647,
    "returning</w>": 2648,
    "childr": 2649,
    "shir": 2650,
    "cleaning</w>": 2651,
    "protein</w>": 2652,
    "kin</w>": 2653,
    "traditional</w>": 2654,
    "actual</w>": 2655,
    "wearing</w>": 2656,
    "aid</w>": 2657,
    "sauces</w>": 2658,
    "ride</w>": 2659,
    "double</w>": 2660,
    "spin": 2661,
    "ests</w>": 2662,
    "crunchy</w>": 2663,
    "considering</w>": 2664,
    "neg": 2665,
    "fabulous</w>": 2666,
    "assu": 2667,
    "results</w>": 2668,
    "ames</w>": 2669,
    "talk</w>": 2670,
    "contro": 2671,
    "accommod": 2672,
    "ious</w>": 2673,
    "chew": 2674,
    "bled</w>": 2675,
    "establish": 2676,
    "nearly</w>": 2677,
    "hear</w>": 2678,
    "rub": 2679,
    "recommend": 2680,
    "playing</w>": 2681,
    "afford": 2682,
    "building</w>": 2683,
    "located</w>": 2684,
    "icy</w>": 2685,
    "seasoned</w>": 2686,
    "fer": 2687,
    "mat</w>": 2688,
    "ore": 2689,
    "flavored</w>": 2690,
    "smi": 2691,
    "bathroom</w>": 2692,
    "ket": 2693,
    "again": 2694,
    "spi": 2695,
    "personally</w>": 2696,
    "ams</w>": 2697,
    "baby</w>": 2698,
    "hungry</w>": 2699,
    "itas</w>": 2700,
    "ghts</w>": 2701,
    "cau": 2702,
    "support</w>": 2703,
    "comm": 2704,
    "lost</w>": 2705,
    "import": 2706,
    "straw": 2707,
    "knowledgeable</w>": 2708,
    "entrees</w>": 2709,
    "chain</w>": 2710,
    "haps</w>": 2711,
    "topp": 2712,
    "law</w>": 2713,
    "plat": 2714,
    "dent</w>": 2715,
    "gran": 2716,
    "form</w>": 2717,
    "perhaps</w>": 2718,
    "higher</w>": 2719,
    "brushes</w>": 2720,
    "desp": 2721,
    "setting</w>": 2722,
    "checked</w>": 2723,
    "vibe</w>": 2724,
    "duck</w>": 2725,
    "vac": 2726,
    "ability</w>": 2727,
    "chili</w>": 2728,
    "irs</w>": 2729,
    "indivi": 2730,
    "apolo": 2731,
    "happened</w>": 2732,
    "kni": 2733,
    "visited</w>": 2734,
    "lashes</w>": 2735,
    "individu": 2736,
    "cle</w>": 2737,
    "ware</w>": 2738,
    "likely</w>": 2739,
    "base</w>": 2740,
    "syrup</w>": 2741,
    "broke</w>": 2742,
    "dressing</w>": 2743,
    "mild</w>": 2744,
    "ginger</w>": 2745,
    "despite</w>": 2746,
    "length</w>": 2747,
    "ot</w>": 2748,
    "young</w>": 2749,
    "process</w>": 2750,
    "rate</w>": 2751,
    "whel": 2752,
    "dum": 2753,
    "respon": 2754,
    "proo": 2755,
    "enter": 2756,
    "ller</w>": 2757,
    "battery</w>": 2758,
    "returned</w>": 2759,
    "onions</w>": 2760,
    "ment": 2761,
    "ces</w>": 2762,
    "affordable</w>": 2763,
    "grip</w>": 2764,
    "split</w>": 2765,
    "bean</w>": 2766,
    "none</w>": 2767,
    "stuffed</w>": 2768,
    "tem": 2769,
    "we're</w>": 2770,
    "purpo": 2771,
    "pink</w>": 2772,
    "func": 2773,
    "depen": 2774,
    "described</w>": 2775,
    "bers</w>": 2776,
    "gluten</w>": 2777,
    "them": 2778,
    "sign</w>": 2779,
    "ki</w>": 2780,
    "veggies</w>": 2781,
    "replacement</w>": 2782,
    "sour</w>": 2783,
    "ex</w>": 2784,
    "wig</w>": 2785,
    "ero</w>": 2786,
    "wards</w>": 2787,
    "pot</w>": 2788,
    "ards</w>": 2789,
    "notice</w>": 2790,
    "story</w>": 2791,
    "ha</w>": 2792,
    "cise</w>": 2793,
    "weather</w>": 2794,
    "anno": 2795,
    "fil": 2796,
    "exi": 2797,
    "sampl": 2798,
    "sweeten": 2799,
    "ses": 2800,
    "apart</w>": 2801,
    "terri": 2802,
    "appreciate</w>": 2803,
    "paying</w>": 2804,
    "aving</w>": 2805,
    "press</w>": 2806,
    "picked</w>": 2807,
    "ops</w>": 2808,
    "missing</w>": 2809,
    "fig": 2810,
    "important</w>": 2811,
    "clearly</w>": 2812,
    "gloves</w>": 2813,
    "wet</w>": 2814,
    "inv": 2815,
    "continue</w>": 2816,
    "veggie</w>": 2817,
    "lamb</w>": 2818,
    "ency</w>": 2819,
    "health</w>": 2820,
    "quar": 2821,
    "hang</w>": 2822,
    "provided</w>": 2823,
    "ate": 2824,
    "cocktails</w>": 2825,
    "paper</w>": 2826,
    "club</w>": 2827,
    "reli": 2828,
    "abr": 2829,
    "spring</w>": 2830,
    "ble": 2831,
    "ink": 2832,
    "woman</w>": 2833,
    "aks</w>": 2834,
    "nes": 2835,
    "chose</w>": 2836,
    "scru": 2837,
    "quiet</w>": 2838,
    "d's</w>": 2839,
    "great": 2840,
    "shot</w>": 2841,
    "ner": 2842,
    "comfort</w>": 2843,
    "free": 2844,
    "write</w>": 2845,
    "appar": 2846,
    "charged</w>": 2847,
    "contac": 2848,
    "toppings</w>": 2849,
    "fic": 2850,
    "road</w>": 2851,
    "south</w>": 2852,
    "stem</w>": 2853,
    "dogs</w>": 2854,
    "rating</w>": 2855,
    "cher": 2856,
    "wrap</w>": 2857,
    "crack": 2858,
    "sun</w>": 2859,
    "frag": 2860,
    "moder": 2861,
    "particular</w>": 2862,
    "roasted</w>": 2863,
    "elled</w>": 2864,
    "obviously</w>": 2865,
    "pain": 2866,
    "entree</w>": 2867,
    "altern": 2868,
    "lobster</w>": 2869,
    "grocery</w>": 2870,
    "reasonably</w>": 2871,
    "shor": 2872,
    "res": 2873,
    "pop</w>": 2874,
    "hostess</w>": 2875,
    "cup": 2876,
    "ities</w>": 2877,
    "sp</w>": 2878,
    "mentioned</w>": 2879,
    "class</w>": 2880,
    "corner</w>": 2881,
    "val</w>": 2882,
    "ages</w>": 2883,
    "pocket</w>": 2884,
    "packaged</w>": 2885,
    "tical</w>": 2886,
    "airs</w>": 2887,
    "yoga</w>": 2888,
    "lt</w>": 2889,
    "overly</w>": 2890,
    "through": 2891,
    "ined</w>": 2892,
    "mess</w>": 2893,
    "mal": 2894,
    "kid</w>": 2895,
    "les": 2896,
    "even": 2897,
    "sell": 2898,
    "stays</w>": 2899,
    "parts</w>": 2900,
    "mista": 2901,
    "t's</w>": 2902,
    "red": 2903,
    "jar</w>": 2904,
    "surprise</w>": 2905,
    "become</w>": 2906,
    "forget</w>": 2907,
    "dip</w>": 2908,
    "talking</w>": 2909,
    "metal</w>": 2910,
    "scoo": 2911,
    "else": 2912,
    "fancy</w>": 2913,
    "fast": 2914,
    "expectations</w>": 2915,
    "adly</w>": 2916,
    "lines</w>": 2917,
    "heart</w>": 2918,
    "louis</w>": 2919,
    "maj": 2920,
    "foot</w>": 2921,
    "hes": 2922,
    "subst": 2923,
    "suggest</w>": 2924,
    "complaints</w>": 2925,
    "necess": 2926,
    "sol": 2927,
    "known</w>": 2928,
    "replace</w>": 2929,
    "cocktail</w>": 2930,
    "sticks</w>": 2931,
    "somewhere</w>": 2932,
    "pass</w>": 2933,
    "lan": 2934,
    "decor": 2935,
    "seeing</w>": 2936,
    "vegetables</w>": 2937,
    "classic</w>": 2938,
    "je": 2939,
    "advertised</w>": 2940,
    "icient</w>": 2941,
    "bby</w>": 2942,
    "greeted</w>": 2943,
    "alco": 2944,
    "dit</w>": 2945,
    "questions</w>": 2946,
    "far": 2947,
    "refreshing</w>": 2948,
    "anti": 2949,
    "gem</w>": 2950,
    "ounce</w>": 2951,
    "moun": 2952,
    "acce": 2953,
    "mir": 2954,
    "equi": 2955,
    "ared</w>": 2956,
    "spar": 2957,
    "has": 2958,
    "pet": 2959,
    "complete</w>": 2960,
    "cookie</w>": 2961,
    "casual</w>": 2962,
    "excep": 2963,
    "agre": 2964,
    "proof</w>": 2965,
    "general</w>": 2966,
    "tee": 2967,
    "lett": 2968,
    "ented</w>": 2969,
    "indian</w>": 2970,
    "crowd</w>": 2971,
    "organi": 2972,
    "mid": 2973,
    "somewhat</w>": 2974,
    "explain": 2975,
    "fran": 2976,
    "provide</w>": 2977,
    "stard</w>": 2978,
    "stairs</w>": 2979,
    "kinda</w>": 2980,
    "event</w>": 2981,
    "pon</w>": 2982,
    "cheese": 2983,
    "forever</w>": 2984,
    "dium</w>": 2985,
    "cash</w>": 2986,
    "ried</w>": 2987,
    "carr": 2988,
    "leaving</w>": 2989,
    "pictures</w>": 2990,
    "bitter</w>": 2991,
    "establishment</w>": 2992,
    "tenders</w>": 2993,
    "rito</w>": 2994,
    "hydr": 2995,
    "shopping</w>": 2996,
    "raw</w>": 2997,
    "sold</w>": 2998,
    "wrapped</w>": 2999,
    "sports</w>": 3000,
    "bon</w>": 3001,
    "seasoning</w>": 3002,
    "generous</w>": 3003,
    "ced</w>": 3004,
    "throughout</w>": 3005,
    "port</w>": 3006,
    "ac</w>": 3007,
    "cru": 3008,
    "tube</w>": 3009,
    "thor": 3010,
    "oner</w>": 3011,
    "lack</w>": 3012,
    "const": 3013,
    "begin": 3014,
    "twi": 3015,
    "ushed</w>": 3016,
    "tool</w>": 3017,
    "shake</w>": 3018,
    "elphi": 3019,
    "af</w>": 3020,
    "philad": 3021,
    "bunch</w>": 3022,
    "burrito</w>": 3023,
    "dam": 3024,
    "would": 3025,
    "children</w>": 3026,
    "continu": 3027,
    "tomatoes</w>": 3028,
    "prefer": 3029,
    "owners</w>": 3030,
    "loose</w>": 3031,
    "step</w>": 3032,
    "ocre</w>": 3033,
    "philadelphi": 3034,
    "foun": 3035,
    "tion": 3036,
    "lif": 3037,
    "exercise</w>": 3038,
    "mediocre</w>": 3039,
    "spices</w>": 3040,
    "mint</w>": 3041,
    "showed</w>": 3042,
    "memor": 3043,
    "ppy</w>": 3044,
    "consider</w>": 3045,
    "onto</w>": 3046,
    "list": 3047,
    "em": 3048,
    "envir": 3049,
    "rings</w>": 3050,
    "window</w>": 3051,
    "non</w>": 3052,
    "winter</w>": 3053,
    "berries</w>": 3054,
    "negative</w>": 3055,
    "sizes</w>": 3056,
    "anta</w>": 3057,
    "shared</w>": 3058,
    "various</w>": 3059,
    "throw</w>": 3060,
    "guests</w>": 3061,
    "dicul": 3062,
    "straps</w>": 3063,
    "infl": 3064,
    "person": 3065,
    "brew</w>": 3066,
    "emer": 3067,
    "uce</w>": 3068,
    "handy</w>": 3069,
    "itch</w>": 3070,
    "tough</w>": 3071,
    "aller": 3072,
    "combination</w>": 3073,
    "watching</w>": 3074,
    "system</w>": 3075,
    "polit": 3076,
    "pop": 3077,
    "environ": 3078,
    "ahead</w>": 3079,
    "sell</w>": 3080,
    "cked</w>": 3081,
    "gel": 3082,
    "section</w>": 3083,
    "favorites</w>": 3084,
    "spots</w>": 3085,
    "asking</w>": 3086,
    "sensitive</w>": 3087,
    "types</w>": 3088,
    "spen": 3089,
    "clai": 3090,
    "ric": 3091,
    "tiv": 3092,
    "eye": 3093,
    "cha</w>": 3094,
    "ema": 3095,
    "sticky</w>": 3096,
    "web": 3097,
    "hat</w>": 3098,
    "ail</w>": 3099,
    "accommodating</w>": 3100,
    "tness</w>": 3101,
    "banana</w>": 3102,
    "ribs</w>": 3103,
    "ridicul": 3104,
    "shel": 3105,
    "photo": 3106,
    "figure</w>": 3107,
    "moving</w>": 3108,
    "figu": 3109,
    "vent</w>": 3110,
    "ashi": 3111,
    "ics</w>": 3112,
    "pudding</w>": 3113,
    "apparently</w>": 3114,
    "deal": 3115,
    "management</w>": 3116,
    "balance</w>": 3117,
    "philadelphia</w>": 3118,
    "sad</w>": 3119,
    "careful</w>": 3120,
    "tage</w>": 3121,
    "lived</w>": 3122,
    "held</w>": 3123,
    "liquid</w>": 3124,
    "rist</w>": 3125,
    "bour": 3126,
    "doub": 3127,
    "tonight</w>": 3128,
    "tamp": 3129,
    "tons</w>": 3130,
    "joint</w>": 3131,
    "third</w>": 3132,
    "hole</w>": 3133,
    "sleep</w>": 3134,
    "control</w>": 3135,
    "poo</w>": 3136,
    "action</w>": 3137,
    "folks</w>": 3138,
    "zero</w>": 3139,
    "snacks</w>": 3140,
    "knife</w>": 3141,
    "situ": 3142,
    "olive</w>": 3143,
    "combo</w>": 3144,
    "girls</w>": 3145,
    "previous</w>": 3146,
    "ener": 3147,
    "tend</w>": 3148,
    "gor": 3149,
    "worse</w>": 3150,
    "soda</w>": 3151,
    "ised</w>": 3152,
    "spec": 3153,
    "blue": 3154,
    "turkey</w>": 3155,
    "team</w>": 3156,
    "packs</w>": 3157,
    "teeth</w>": 3158,
    "ial</w>": 3159,
    "credit</w>": 3160,
    "state</w>": 3161,
    "sham": 3162,
    "west</w>": 3163,
    "gravy</w>": 3164,
    "selec": 3165,
    "bak": 3166,
    "nights</w>": 3167,
    "movi": 3168,
    "pment</w>": 3169,
    "imagine</w>": 3170,
    "placed</w>": 3171,
    "we'll</w>": 3172,
    "useful</w>": 3173,
    "round</w>": 3174,
    "sions</w>": 3175,
    "son": 3176,
    "thats</w>": 3177,
    "flour</w>": 3178,
    "clip</w>": 3179,
    "chewy</w>": 3180,
    "conf": 3181,
    "present": 3182,
    "sense</w>": 3183,
    "rare</w>": 3184,
    "bud": 3185,
    "stuck</w>": 3186,
    "doors</w>": 3187,
    "legs</w>": 3188,
    "notch</w>": 3189,
    "conce": 3190,
    "eyel": 3191,
    "seal": 3192,
    "fau": 3193,
    "wel</w>": 3194,
    "seats</w>": 3195,
    "chairs</w>": 3196,
    "refun": 3197,
    "stron": 3198,
    "girl": 3199,
    "storage</w>": 3200,
    "seller</w>": 3201,
    "ras": 3202,
    "cozy</w>": 3203,
    "secon": 3204,
    "cap": 3205,
    "na": 3206,
    "amel</w>": 3207,
    "word</w>": 3208,
    "shampoo</w>": 3209,
    "older</w>": 3210,
    "santa</w>": 3211,
    "drop</w>": 3212,
    "send</w>": 3213,
    "gol": 3214,
    "forgot</w>": 3215,
    "rav": 3216,
    "additional</w>": 3217,
    "popu": 3218,
    "against</w>": 3219,
    "whether</w>": 3220,
    "correct</w>": 3221,
    "reduc": 3222,
    "knows</w>": 3223,
    "reservations</w>": 3224,
    "now": 3225,
    "desserts</w>": 3226,
    "pepper": 3227,
    "perfection</w>": 3228,
    "cc": 3229,
    "description</w>": 3230,
    "singly</w>": 3231,
    "games</w>": 3232,
    "american</w>": 3233,
    "fingers</w>": 3234,
    "cere": 3235,
    "oo</w>": 3236,
    "mary</w>": 3237,
    "dered</w>": 3238,
    "construc": 3239,
    "pec": 3240,
    "ading</w>": 3241,
    "aking</w>": 3242,
    "ques": 3243,
    "broth</w>": 3244,
    "fell</w>": 3245,
    "boxes</w>": 3246,
    "gui": 3247,
    "patr": 3248,
    "he's</w>": 3249,
    "backpack</w>": 3250,
    "experienced</w>": 3251,
    "tampa</w>": 3252,
    "fire</w>": 3253,
    "offers</w>": 3254,
    "stock</w>": 3255,
    "information</w>": 3256,
    "tat": 3257,
    "mple</w>": 3258,
    "mins</w>": 3259,
    "wont</w>": 3260,
    "emergen": 3261,
    "convers": 3262,
    "kick</w>": 3263,
    "lip</w>": 3264,
    "accur": 3265,
    "commun": 3266,
    "stin": 3267,
    "search</w>": 3268,
    "ja": 3269,
    "tow": 3270,
    "trust</w>": 3271,
    "figured</w>": 3272,
    "caramel</w>": 3273,
    "anymore</w>": 3274,
    "shows</w>": 3275,
    "happen</w>": 3276,
    "station</w>": 3277,
    "craving</w>": 3278,
    "finding</w>": 3279,
    "land</w>": 3280,
    "ets</w>": 3281,
    "zz</w>": 3282,
    "speak</w>": 3283,
    "positive</w>": 3284,
    "screen</w>": 3285,
    "pho</w>": 3286,
    "pleasantly</w>": 3287,
    "avoca": 3288,
    "pressure</w>": 3289,
    "odd</w>": 3290,
    "shirt</w>": 3291,
    "six</w>": 3292,
    "adi": 3293,
    "regre": 3294,
    "spinach</w>": 3295,
    "gumbo</w>": 3296,
    "surprisingly</w>": 3297,
    "welcoming</w>": 3298,
    "sample</w>": 3299,
    "arom": 3300,
    "pract": 3301,
    "meas": 3302,
    "certain</w>": 3303,
    "relati": 3304,
    "hope": 3305,
    "elec": 3306,
    "bun</w>": 3307,
    "scrat": 3308,
    "initi": 3309,
    "recipe</w>": 3310,
    "belly</w>": 3311,
    "allow</w>": 3312,
    "areas</w>": 3313,
    "regi": 3314,
    "tap</w>": 3315,
    "efficient</w>": 3316,
    "slice</w>": 3317,
    "blo": 3318,
    "craw": 3319,
    "perfor": 3320,
    "tucson</w>": 3321,
    "tech": 3322,
    "consistency</w>": 3323,
    "sour": 3324,
    "sche": 3325,
    "fu</w>": 3326,
    "app</w>": 3327,
    "locks</w>": 3328,
    "gif": 3329,
    "ckets</w>": 3330,
    "eli": 3331,
    "interior</w>": 3332,
    "environment</w>": 3333,
    "website</w>": 3334,
    "sett": 3335,
    "tigh": 3336,
    "mall</w>": 3337,
    "nac": 3338,
    "receive</w>": 3339,
    "enjoy": 3340,
    "ror</w>": 3341,
    "properly</w>": 3342,
    "cab": 3343,
    "ba</w>": 3344,
    "dr</w>": 3345,
    "dollars</w>": 3346,
    "cy": 3347,
    "consistent</w>": 3348,
    "lasts</w>": 3349,
    "asian</w>": 3350,
    "peppers</w>": 3351,
    "alcoho": 3352,
    "below</w>": 3353,
    "install": 3354,
    "plant</w>": 3355,
    "staying</w>": 3356,
    "yogur": 3357,
    "mini</w>": 3358,
    "spac": 3359,
    "thern</w>": 3360,
    "micro": 3361,
    "neck</w>": 3362,
    "tz": 3363,
    "squee": 3364,
    "elsewhere</w>": 3365,
    "attached</w>": 3366,
    "belt</w>": 3367,
    "ggy</w>": 3368,
    "presso</w>": 3369,
    "install</w>": 3370,
    "fragr": 3371,
    "manu": 3372,
    "dough</w>": 3373,
    "quarter</w>": 3374,
    "you've</w>": 3375,
    "itude</w>": 3376,
    "owned</w>": 3377,
    "lighter</w>": 3378,
    "adjust</w>": 3379,
    "truck</w>": 3380,
    "ample</w>": 3381,
    "strawberry</w>": 3382,
    "donut</w>": 3383,
    "asty</w>": 3384,
    "boat</w>": 3385,
    "sco": 3386,
    "bits</w>": 3387,
    "crisp</w>": 3388,
    "scra": 3389,
    "featu": 3390,
    "overwhel": 3391,
    "applic": 3392,
    "sharp</w>": 3393,
    "holding</w>": 3394,
    "fabr": 3395,
    "iny</w>": 3396,
    "lied</w>": 3397,
    "rin": 3398,
    "consu": 3399,
    "pump": 3400,
    "omen": 3401,
    "teas</w>": 3402,
    "alternative</w>": 3403,
    "blan": 3404,
    "take": 3405,
    "everyday</w>": 3406,
    "lettuce</w>": 3407,
    "towel</w>": 3408,
    "j</w>": 3409,
    "a's</w>": 3410,
    "addic": 3411,
    "sister</w>": 3412,
    "moist</w>": 3413,
    "tire</w>": 3414,
    "new": 3415,
    "ase</w>": 3416,
    "uncomfortable</w>": 3417,
    "particularly</w>": 3418,
    "rowing</w>": 3419,
    "practice</w>": 3420,
    "dden</w>": 3421,
    "purchasing</w>": 3422,
    "ys": 3423,
    "inexpensive</w>": 3424,
    "carrying</w>": 3425,
    "brisk": 3426,
    "lime</w>": 3427,
    "workers</w>": 3428,
    "brow": 3429,
    "rubber</w>": 3430,
    "oni</w>": 3431,
    "vs</w>": 3432,
    "generally</w>": 3433,
    "foam</w>": 3434,
    "smoked</w>": 3435,
    "lets</w>": 3436,
    "grill</w>": 3437,
    "torti": 3438,
    "attrac": 3439,
    "brisket</w>": 3440,
    "cooler</w>": 3441,
    "built</w>": 3442,
    "absor": 3443,
    "ada</w>": 3444,
    "bourbon</w>": 3445,
    "bell</w>": 3446,
    "sound</w>": 3447,
    "temper": 3448,
    "whis": 3449,
    "yogurt</w>": 3450,
    "popcorn</w>": 3451,
    "effective</w>": 3452,
    "wax</w>": 3453,
    "sels</w>": 3454,
    "colle": 3455,
    "pol": 3456,
    "adm": 3457,
    "relaxing</w>": 3458,
    "nd</w>": 3459,
    "icial</w>": 3460,
    "wai": 3461,
    "allows</w>": 3462,
    "pet</w>": 3463,
    "wanting</w>": 3464,
    "part": 3465,
    "ises</w>": 3466,
    "willing</w>": 3467,
    "bartenders</w>": 3468,
    "ffy</w>": 3469,
    "greens</w>": 3470,
    "nor</w>": 3471,
    "designed</w>": 3472,
    "avocado</w>": 3473,
    "mushrooms</w>": 3474,
    "alcohol</w>": 3475,
    "juicy</w>": 3476,
    "almond</w>": 3477,
    "enjoying</w>": 3478,
    "suggesti": 3479,
    "trou": 3480,
    "mother</w>": 3481,
    "sea</w>": 3482,
    "ro</w>": 3483,
    "ug</w>": 3484,
    "everywhere</w>": 3485,
    "aca": 3486,
    "ny": 3487,
    "soci": 3488,
    "dy": 3489,
    "prime</w>": 3490,
    "mistake</w>": 3491,
    "ry": 3492,
    "essenti": 3493,
    "clips</w>": 3494,
    "grade</w>": 3495,
    "tofu</w>": 3496,
    "unit</w>": 3497,
    "yester": 3498,
    "topped</w>": 3499,
    "lemon": 3500,
    "padd": 3501,
    "slices</w>": 3502,
    "block</w>": 3503,
    "presentation</w>": 3504,
    "phen": 3505,
    "gle</w>": 3506,
    "realize</w>": 3507,
    "tick": 3508,
    "repe": 3509,
    "par</w>": 3510,
    "separate</w>": 3511,
    "tips</w>": 3512,
    "major</w>": 3513,
    "scri": 3514,
    "yellow</w>": 3515,
    "minim": 3516,
    "purpose</w>": 3517,
    "thri": 3518,
    "ental</w>": 3519,
    "fying</w>": 3520,
    "cali": 3521,
    "post</w>": 3522,
    "mushroom</w>": 3523,
    "lier</w>": 3524,
    "equipment</w>": 3525,
    "adjustable</w>": 3526,
    "lotion</w>": 3527,
    "dul": 3528,
    "ades</w>": 3529,
    "platter</w>": 3530,
    "bother</w>": 3531,
    "baking</w>": 3532,
    "lucky</w>": 3533,
    "degre": 3534,
    "contains</w>": 3535,
    "tenti": 3536,
    "kers</w>": 3537,
    "disgu": 3538,
    "hear": 3539,
    "secure</w>": 3540,
    "unlike</w>": 3541,
    "treated</w>": 3542,
    "oily</w>": 3543,
    "chun": 3544,
    "fishing</w>": 3545,
    "assi": 3546,
    "del</w>": 3547,
    "mo</w>": 3548,
    "diet</w>": 3549,
    "scal": 3550,
    "coat</w>": 3551,
    "tv</w>": 3552,
    "popular</w>": 3553,
    "ran</w>": 3554,
    "hopefully</w>": 3555,
    "thank": 3556,
    "cul": 3557,
    "pil": 3558,
    "photo</w>": 3559,
    "training</w>": 3560,
    "ped": 3561,
    "exceptional</w>": 3562,
    "what's</w>": 3563,
    "ella</w>": 3564,
    "match</w>": 3565,
    "living</w>": 3566,
    "compact</w>": 3567,
    "craft</w>": 3568,
    "themselves</w>": 3569,
    "substitu": 3570,
    "bage</w>": 3571,
    "lbs</w>": 3572,
    "gorge": 3573,
    "chic": 3574,
    "cir": 3575,
    "adds</w>": 3576,
    "catch</w>": 3577,
    "fall": 3578,
    "black": 3579,
    "holi": 3580,
    "eyebro": 3581,
    "modern</w>": 3582,
    "doc": 3583,
    "checking</w>": 3584,
    "funny</w>": 3585,
    "ppers</w>": 3586,
    "hesit": 3587,
    "aa": 3588,
    "fabric</w>": 3589,
    "rain</w>": 3590,
    "anced</w>": 3591,
    "crum": 3592,
    "rock</w>": 3593,
    "conversation</w>": 3594,
    "fixed</w>": 3595,
    "you'd</w>": 3596,
    "sodium</w>": 3597,
    "rac": 3598,
    "distance</w>": 3599,
    "doubt</w>": 3600,
    "wave</w>": 3601,
    "stric": 3602,
    "spread</w>": 3603,
    "impressive</w>": 3604,
    "goodness</w>": 3605,
    "nit": 3606,
    "adult</w>": 3607,
    "yesterday</w>": 3608,
    "barbar": 3609,
    "include</w>": 3610,
    "season</w>": 3611,
    "polite</w>": 3612,
    "lun": 3613,
    "soy</w>": 3614,
    "irrit": 3615,
    "edi": 3616,
    "attitude</w>": 3617,
    "ham": 3618,
    "child</w>": 3619,
    "need": 3620,
    "gross</w>": 3621,
    "cuis": 3622,
    "apologi": 3623,
    "gorgeous</w>": 3624,
    "explained</w>": 3625,
    "ola</w>": 3626,
    "kne": 3627,
    "electr": 3628,
    "ounded</w>": 3629,
    "cit": 3630,
    "larly</w>": 3631,
    "tually</w>": 3632,
    "bes</w>": 3633,
    "chip</w>": 3634,
    "absolute</w>": 3635,
    "energy</w>": 3636,
    "sale</w>": 3637,
    "near": 3638,
    "terrific</w>": 3639,
    "hot": 3640,
    "country</w>": 3641,
    "inch</w>": 3642,
    "hint</w>": 3643,
    "meet</w>": 3644,
    "phenomen": 3645,
    "noodle</w>": 3646,
    "firm</w>": 3647,
    "ects</w>": 3648,
    "discount</w>": 3649,
    "promp": 3650,
    "lives</w>": 3651,
    "barbara</w>": 3652,
    "meh</w>": 3653,
    "muff": 3654,
    "china</w>": 3655,
    "exerc": 3656,
    "o's</w>": 3657,
    "scale</w>": 3658,
    "enjoyable</w>": 3659,
    "seeds</w>": 3660,
    "acci": 3661,
    "arm</w>": 3662,
    "consistently</w>": 3663,
    "lav": 3664,
    "strip</w>": 3665,
    "expi": 3666,
    "worry</w>": 3667,
    "she's</w>": 3668,
    "goat</w>": 3669,
    "soups</w>": 3670,
    "comfy</w>": 3671,
    "mee": 3672,
    "arrive</w>": 3673,
    "trans": 3674,
    "dan": 3675,
    "lose</w>": 3676,
    "mango</w>": 3677,
    "hill</w>": 3678,
    "disappointment</w>": 3679,
    "takeout</w>": 3680,
    "diner</w>": 3681,
    "oper": 3682,
    "pockets</w>": 3683,
    "garden</w>": 3684,
    "grin": 3685,
    "wheat</w>": 3686,
    "smile</w>": 3687,
    "disappoint</w>": 3688,
    "noise</w>": 3689,
    "accep": 3690,
    "ga": 3691,
    "shoes</w>": 3692,
    "convenience</w>": 3693,
    "movie</w>": 3694,
    "bonus</w>": 3695,
    "ban</w>": 3696,
    "delight": 3697,
    "ender</w>": 3698,
    "mm</w>": 3699,
    "biscuits</w>": 3700,
    "tta</w>": 3701,
    "amed</w>": 3702,
    "sleeping</w>": 3703,
    "nutr": 3704,
    "day": 3705,
    "emergency</w>": 3706,
    "health": 3707,
    "yeah</w>": 3708,
    "mped</w>": 3709,
    "sweetness</w>": 3710,
    "partment</w>": 3711,
    "hic": 3712,
    "thru</w>": 3713,
    "treat": 3714,
    "starting</w>": 3715,
    "bites</w>": 3716,
    "isnt</w>": 3717,
    "stated</w>": 3718,
    "stale</w>": 3719,
    "omg</w>": 3720,
    "sets</w>": 3721,
    "rack</w>": 3722,
    "pancake</w>": 3723,
    "aware</w>": 3724,
    "ord</w>": 3725,
    "reno</w>": 3726,
    "when": 3727,
    "cele": 3728,
    "nets</w>": 3729,
    "video": 3730,
    "realized</w>": 3731,
    "centr": 3732,
    "directions</w>": 3733,
    "phenomenal</w>": 3734,
    "weak</w>": 3735,
    "typically</w>": 3736,
    "they've</w>": 3737,
    "follow</w>": 3738,
    "chall": 3739,
    "weights</w>": 3740,
    "pure</w>": 3741,
    "nacho": 3742,
    "ador": 3743,
    "jum": 3744,
    "nearby</w>": 3745,
    "ene</w>": 3746,
    "adul": 3747,
    "melted</w>": 3748,
    "caffe": 3749,
    "steaks</w>": 3750,
    "current</w>": 3751,
    "slight</w>": 3752,
    "byo": 3753,
    "lic": 3754,
    "refund</w>": 3755,
    "canc": 3756,
    "mole</w>": 3757,
    "meats</w>": 3758,
    "welcome</w>": 3759,
    "prior</w>": 3760,
    "ep": 3761,
    "spa</w>": 3762,
    "jal": 3763,
    "starbucks</w>": 3764,
    "skin": 3765,
    "wants</w>": 3766,
    "pantry</w>": 3767,
    "thicker</w>": 3768,
    "relatively</w>": 3769,
    "iling</w>": 3770,
    "let's</w>": 3771,
    "chemic": 3772,
    "ol</w>": 3773,
    "seconds</w>": 3774,
    "activ": 3775,
    "mood</w>": 3776,
    "bloo": 3777,
    "nasty</w>": 3778,
    "services</w>": 3779,
    "crunch</w>": 3780,
    "heads</w>": 3781,
    "end": 3782,
    "pizzas</w>": 3783,
    "fault</w>": 3784,
    "marin": 3785,
    "yers</w>": 3786,
    "rush</w>": 3787,
    "ater</w>": 3788,
    "ole</w>": 3789,
    "whenever</w>": 3790,
    "thes</w>": 3791,
    "stood</w>": 3792,
    "situation</w>": 3793,
    "awhile</w>": 3794,
    "goto</w>": 3795,
    "mps</w>": 3796,
    "omele": 3797,
    "resistance</w>": 3798,
    "feature</w>": 3799,
    "hubby</w>": 3800,
    "ham</w>": 3801,
    "cuisine</w>": 3802,
    "suggested</w>": 3803,
    "dollar</w>": 3804,
    "recent</w>": 3805,
    "rough</w>": 3806,
    "southern</w>": 3807,
    "stomach</w>": 3808,
    "bui": 3809,
    "conditioner</w>": 3810,
    "inches</w>": 3811,
    "ill</w>": 3812,
    "tired</w>": 3813,
    "provides</w>": 3814,
    "alty</w>": 3815,
    "instant</w>": 3816,
    "dio</w>": 3817,
    "nachos</w>": 3818,
    "tt</w>": 3819,
    "lacking</w>": 3820,
    "golf</w>": 3821,
    "appreciated</w>": 3822,
    "condition</w>": 3823,
    "straw</w>": 3824,
    "cherry</w>": 3825,
    "experiences</w>": 3826,
    "chi</w>": 3827,
    "beig": 3828,
    "button</w>": 3829,
    "sprink": 3830,
    "jack": 3831,
    "dated</w>": 3832,
    "celebr": 3833,
    "fai": 3834,
    "driving</w>": 3835,
    "wing</w>": 3836,
    "burn</w>": 3837,
    "annoying</w>": 3838,
    "medic": 3839,
    "rope</w>": 3840,
    "fashi": 3841,
    "carro": 3842,
    "butter": 3843,
    "complain</w>": 3844,
    "pretz": 3845,
    "oli</w>": 3846,
    "shoo": 3847,
    "spit": 3848,
    "bus</w>": 3849,
    "helping</w>": 3850,
    "mix": 3851,
    "closer</w>": 3852,
    "crawfish</w>": 3853,
    "replaced</w>": 3854,
    "s'</w>": 3855,
    "eled</w>": 3856,
    "kore": 3857,
    "listed</w>": 3858,
    "mentary</w>": 3859,
    "batteries</w>": 3860,
    "photos</w>": 3861,
    "greek</w>": 3862,
    "stretch</w>": 3863,
    "pedic": 3864,
    "hidden</w>": 3865,
    "trouble</w>": 3866,
    "cleaned</w>": 3867,
    "eld</w>": 3868,
    "inging</w>": 3869,
    "beautifully</w>": 3870,
    "file</w>": 3871,
    "interested</w>": 3872,
    "savory</w>": 3873,
    "via</w>": 3874,
    "ake</w>": 3875,
    "constantly</w>": 3876,
    "could": 3877,
    "byob</w>": 3878,
    "humm": 3879,
    "bc</w>": 3880,
    "wed": 3881,
    "stac": 3882,
    "decide</w>": 3883,
    "crackers</w>": 3884,
    "pa</w>": 3885,
    "ficial</w>": 3886,
    "fills</w>": 3887,
    "walls</w>": 3888,
    "iron</w>": 3889,
    "ari</w>": 3890,
    "dropped</w>": 3891,
    "compet": 3892,
    "occasi": 3893,
    "joh": 3894,
    "manic": 3895,
    "jap": 3896,
    "traveling</w>": 3897,
    "lasted</w>": 3898,
    "lder</w>": 3899,
    "assor": 3900,
    "loaded</w>": 3901,
    "recipes</w>": 3902,
    "safe": 3903,
    "scallo": 3904,
    "necessary</w>": 3905,
    "hard": 3906,
    "ssed</w>": 3907,
    "espresso</w>": 3908,
    "possibly</w>": 3909,
    "suff": 3910,
    "build</w>": 3911,
    "house": 3912,
    "girlfriend</w>": 3913,
    "ath</w>": 3914,
    "vegetable</w>": 3915,
    "regularly</w>": 3916,
    "ridiculous</w>": 3917,
    "serious</w>": 3918,
    "strange</w>": 3919,
    "stro": 3920,
    "accurate</w>": 3921,
    "protection</w>": 3922,
    "includes</w>": 3923,
    "dress</w>": 3924,
    "eu": 3925,
    "answer</w>": 3926,
    "elev": 3927,
    "vehic": 3928,
    "biggest</w>": 3929,
    "one": 3930,
    "attemp": 3931,
    "eable</w>": 3932,
    "temperature</w>": 3933,
    "tues": 3934,
    "bing</w>": 3935,
    "burnt</w>": 3936,
    "learned</w>": 3937,
    "blow</w>": 3938,
    "hospit": 3939,
    "lab": 3940,
    "mustard</w>": 3941,
    "cans</w>": 3942,
    "picky</w>": 3943,
    "cheap": 3944,
    "bom": 3945,
    "individual</w>": 3946,
    "square</w>": 3947,
    "vement</w>": 3948,
    "turns</w>": 3949,
    "speed</w>": 3950,
    "handles</w>": 3951,
    "frank": 3952,
    "sible</w>": 3953,
    "further</w>": 3954,
    "employee</w>": 3955,
    "wasnt</w>": 3956,
    "stic</w>": 3957,
    "patient</w>": 3958,
    "creative</w>": 3959,
    "ref": 3960,
    "depending</w>": 3961,
    "moment</w>": 3962,
    "hadn't</w>": 3963,
    "tors</w>": 3964,
    "frustr": 3965,
    "fiber</w>": 3966,
    "adults</w>": 3967,
    "prin": 3968,
    "poon</w>": 3969,
    "visits</w>": 3970,
    "desi": 3971,
    "dozen</w>": 3972,
    "discovered</w>": 3973,
    "raz": 3974,
    "there": 3975,
    "packing</w>": 3976,
    "bou": 3977,
    "milk": 3978,
    "concept</w>": 3979,
    "mark</w>": 3980,
    "oughly</w>": 3981,
    "push</w>": 3982,
    "fragrance</w>": 3983,
    "pouch</w>": 3984,
    "vit": 3985,
    "hummus</w>": 3986,
    "oat": 3987,
    "smelled</w>": 3988,
    "bakery</w>": 3989,
    "treats</w>": 3990,
    "compan": 3991,
    "ske": 3992,
    "vineg": 3993,
    "clothes</w>": 3994,
    "set": 3995,
    "sadly</w>": 3996,
    "cream": 3997,
    "frame</w>": 3998,
    "ingredient</w>": 3999,
    "points</w>": 4000,
    "pour</w>": 4001,
    "facial</w>": 4002,
    "perio": 4003,
    "iner</w>": 4004,
    "tro</w>": 4005,
    "monday</w>": 4006,
    "learn</w>": 4007,
    "assemble</w>": 4008,
    "seal</w>": 4009,
    "cable</w>": 4010,
    "ffles</w>": 4011,
    "volu": 4012,
    "fi</w>": 4013,
    "screw</w>": 4014,
    "margaritas</w>": 4015,
    "lip": 4016,
    "effort</w>": 4017,
    "edible</w>": 4018,
    "threw</w>": 4019,
    "features</w>": 4020,
    "ease</w>": 4021,
    "prompt</w>": 4022,
    "tered</w>": 4023,
    "goods</w>": 4024,
    "cereal</w>": 4025,
    "awk": 4026,
    "delightful</w>": 4027,
    "email</w>": 4028,
    "bikes</w>": 4029,
    "shops</w>": 4030,
    "rib</w>": 4031,
    "serves</w>": 4032,
    "vol": 4033,
    "hanging</w>": 4034,
    "holder</w>": 4035,
    "guide</w>": 4036,
    "admit</w>": 4037,
    "rose</w>": 4038,
    "pricing</w>": 4039,
    "promptly</w>": 4040,
    "arms</w>": 4041,
    "sca": 4042,
    "fridge</w>": 4043,
    "bow</w>": 4044,
    "yard</w>": 4045,
    "nature</w>": 4046,
    "afr": 4047,
    "miles</w>": 4048,
    "tools</w>": 4049,
    "compare</w>": 4050,
    "lb</w>": 4051,
    "refri": 4052,
    "mc": 4053,
    "impossible</w>": 4054,
    "leg": 4055,
    "pound</w>": 4056,
    "slip</w>": 4057,
    "locations</w>": 4058,
    "vacation</w>": 4059,
    "changes</w>": 4060,
    "delish</w>": 4061,
    "entertain": 4062,
    "runs</w>": 4063,
    "ordin": 4064,
    "shoulder</w>": 4065,
    "pers</w>": 4066,
    "lef": 4067,
    "fal": 4068,
    "history</w>": 4069,
    "flori": 4070,
    "dad</w>": 4071,
    "alo</w>": 4072,
    "pub</w>": 4073,
    "appears</w>": 4074,
    "directly</w>": 4075,
    "bay</w>": 4076,
    "words</w>": 4077,
    "disgusting</w>": 4078,
    "pumpkin</w>": 4079,
    "calam": 4080,
    "tto</w>": 4081,
    "shell</w>": 4082,
    "helmet</w>": 4083,
    "removed</w>": 4084,
    "gi</w>": 4085,
    "reminds</w>": 4086,
    "ational</w>": 4087,
    "ular</w>": 4088,
    "request</w>": 4089,
    "ya</w>": 4090,
    "towels</w>": 4091,
    "aroma</w>": 4092,
    "ak": 4093,
    "ica</w>": 4094,
    "soggy</w>": 4095,
    "besides</w>": 4096,
    "ounces</w>": 4097,
    "nific": 4098,
    "pon": 4099,
    "followed</w>": 4100,
    "gear</w>": 4101,
    "llas</w>": 4102,
    "rated</w>": 4103,
    "pine": 4104,
    "device</w>": 4105,
    "leak</w>": 4106,
    "driver</w>": 4107,
    "cus": 4108,
    "steel</w>": 4109,
    "organized</w>": 4110,
    "refriger": 4111,
    "ug": 4112,
    "vinegar</w>": 4113,
    "satisfying</w>": 4114,
    "tory</w>": 4115,
    "aside</w>": 4116,
    "chedd": 4117,
    "fake</w>": 4118,
    "women</w>": 4119,
    "comb</w>": 4120,
    "decision</w>": 4121,
    "contact</w>": 4122,
    "missed</w>": 4123,
    "played</w>": 4124,
    "tad</w>": 4125,
    "gold</w>": 4126,
    "damaged</w>": 4127,
    "caught</w>": 4128,
    "finger</w>": 4129,
    "washing</w>": 4130,
    "eeded</w>": 4131,
    "cards</w>": 4132,
    "stles</w>": 4133,
    "sas</w>": 4134,
    "switch</w>": 4135,
    "guaca": 4136,
    "refl": 4137,
    "selections</w>": 4138,
    "allowed</w>": 4139,
    "yo</w>": 4140,
    "weekends</w>": 4141,
    "atic</w>": 4142,
    "boys</w>": 4143,
    "ramen</w>": 4144,
    "mean": 4145,
    "flim": 4146,
    "spon": 4147,
    "calamari</w>": 4148,
    "members</w>": 4149,
    "nia</w>": 4150,
    "recommendation</w>": 4151,
    "rand": 4152,
    "dryer</w>": 4153,
    "thro": 4154,
    "nose</w>": 4155,
    "tall</w>": 4156,
    "rom": 4157,
    "thrilled</w>": 4158,
    "caffeine</w>": 4159,
    "ected</w>": 4160,
    "band": 4161,
    "thum": 4162,
    "blocks</w>": 4163,
    "damage</w>": 4164,
    "video</w>": 4165,
    "male</w>": 4166,
    "opted</w>": 4167,
    "mascar": 4168,
    "guacamole</w>": 4169,
    "sick</w>": 4170,
    "margarita</w>": 4171,
    "ladies</w>": 4172,
    "earlier</w>": 4173,
    "mashed</w>": 4174,
    "dine</w>": 4175,
    "ached</w>": 4176,
    "holes</w>": 4177,
    "kinds</w>": 4178,
    "hh": 4179,
    "locally</w>": 4180,
    "korean</w>": 4181,
    "mess": 4182,
    "lips</w>": 4183,
    "corn": 4184,
    "yi</w>": 4185,
    "fitness</w>": 4186,
    "informed</w>": 4187,
    "parents</w>": 4188,
    "hiking</w>": 4189,
    "wonder</w>": 4190,
    "truffle</w>": 4191,
    "versati": 4192,
    "artificial</w>": 4193,
    "califor": 4194,
    "stev": 4195,
    "basket</w>": 4196,
    "concerned</w>": 4197,
    "thur": 4198,
    "eventually</w>": 4199,
    "hip</w>": 4200,
    "ss": 4201,
    "oatmeal</w>": 4202,
    "iss": 4203,
    "safety</w>": 4204,
    "trips</w>": 4205,
    "ze": 4206,
    "strength</w>": 4207,
    "sales</w>": 4208,
    "pickles</w>": 4209,
    "sweat</w>": 4210,
    "pus": 4211,
    "glove</w>": 4212,
    "asin": 4213,
    "buffalo</w>": 4214,
    "hook</w>": 4215,
    "riding</w>": 4216,
    "bowls</w>": 4217,
    "create</w>": 4218,
    "agree</w>": 4219,
    "recommendations</w>": 4220,
    "gon": 4221,
    "college</w>": 4222,
    "comment</w>": 4223,
    "passed</w>": 4224,
    "cheddar</w>": 4225,
    "mirror</w>": 4226,
    "flow": 4227,
    "ello</w>": 4228,
    "cro</w>": 4229,
    "youre</w>": 4230,
    "ines</w>": 4231,
    "luck</w>": 4232,
    "grams</w>": 4233,
    "heaven</w>": 4234,
    "duty</w>": 4235,
    "quant": 4236,
    "zipper</w>": 4237,
    "cuts</w>": 4238,
    "ither</w>": 4239,
    "glue</w>": 4240,
    "detail</w>": 4241,
    "opp": 4242,
    "velcro</w>": 4243,
    "oven</w>": 4244,
    "gentle</w>": 4245,
    "repair</w>": 4246,
    "melt</w>": 4247,
    "paint</w>": 4248,
    "tires</w>": 4249,
    "oils</w>": 4250,
    "leg</w>": 4251,
    "meant</w>": 4252,
    "fly</w>": 4253,
    "hurt</w>": 4254,
    "shelf</w>": 4255,
    "curly</w>": 4256,
    "teas": 4257,
    "waffle</w>": 4258,
    "practic": 4259,
    "grab": 4260,
    "cat</w>": 4261,
    "regret</w>": 4262,
    "adorable</w>": 4263,
    "icate</w>": 4264,
    "reasons</w>": 4265,
    "def": 4266,
    "theyre</w>": 4267,
    "superb</w>": 4268,
    "med": 4269,
    "ambience</w>": 4270,
    "packets</w>": 4271,
    "cashi": 4272,
    "tooth</w>": 4273,
    "pineapple</w>": 4274,
    "bloody</w>": 4275,
    "knowing</w>": 4276,
    "neither</w>": 4277,
    "sand</w>": 4278,
    "cran": 4279,
    "spectac": 4280,
    "balanced</w>": 4281,
    "fold</w>": 4282,
    "bath</w>": 4283,
    "shakes</w>": 4284,
    "straigh": 4285,
    "sprouts</w>": 4286,
    "shade</w>": 4287,
    "count</w>": 4288,
    "whiskey</w>": 4289,
    "hash</w>": 4290,
    "oom</w>": 4291,
    "teous</w>": 4292,
    "dipping</w>": 4293,
    "venue</w>": 4294,
    "ation": 4295,
    "sounds</w>": 4296,
    "flimsy</w>": 4297,
    "spending</w>": 4298,
    "frequently</w>": 4299,
    "construction</w>": 4300,
    "though": 4301,
    "correctly</w>": 4302,
    "shame</w>": 4303,
    "request": 4304,
    "accord": 4305,
    "ney</w>": 4306,
    "damn</w>": 4307,
    "specialty</w>": 4308,
    "telling</w>": 4309,
    "thi": 4310,
    "mayo</w>": 4311,
    "cars</w>": 4312,
    "washed</w>": 4313,
    "classes</w>": 4314,
    "latte</w>": 4315,
    "flexi": 4316,
    "neat</w>": 4317,
    "coco": 4318,
    "quo": 4319,
    "smoke</w>": 4320,
    "cuc": 4321,
    "microwave</w>": 4322,
    "beware</w>": 4323,
    "gas</w>": 4324,
    "stum": 4325,
    "lefto": 4326,
    "gelato</w>": 4327,
    "crap</w>": 4328,
    "track</w>": 4329,
    "ketch": 4330,
    "dumpl": 4331,
    "manufac": 4332,
    "liar</w>": 4333,
    "viet": 4334,
    "slide</w>": 4335,
    "cent</w>": 4336,
    "beard</w>": 4337,
    "tree</w>": 4338,
    "top": 4339,
    "result</w>": 4340,
    "writing</w>": 4341,
    "english</w>": 4342,
    "california</w>": 4343,
    "nar": 4344,
    "nicer</w>": 4345,
    "salted</w>": 4346,
    "should": 4347,
    "one's</w>": 4348,
    "beauty</w>": 4349,
    "anim": 4350,
    "socks</w>": 4351,
    "sealed</w>": 4352,
    "keys</w>": 4353,
    "question</w>": 4354,
    "purse</w>": 4355,
    "train</w>": 4356,
    "connec": 4357,
    "downside</w>": 4358,
    "ple": 4359,
    "courteous</w>": 4360,
    "subtle</w>": 4361,
    "thurs": 4362,
    "refill</w>": 4363,
    "chipo": 4364,
    "falling</w>": 4365,
    "roller</w>": 4366,
    "biscuit</w>": 4367,
    "cles</w>": 4368,
    "explain</w>": 4369,
    "upstairs</w>": 4370,
    "ranch</w>": 4371,
    "sty</w>": 4372,
    "foot": 4373,
    "hip": 4374,
    "believ": 4375,
    "vibr": 4376,
    "canned</w>": 4377,
    "groupon</w>": 4378,
    "deliver</w>": 4379,
    "ice": 4380,
    "following</w>": 4381,
    "shing</w>": 4382,
    "spectacular</w>": 4383,
    "vet</w>": 4384,
    "chipotle</w>": 4385,
    "somehow</w>": 4386,
    "swa": 4387,
    "twist</w>": 4388,
    "sliders</w>": 4389,
    "toasted</w>": 4390,
    "bone</w>": 4391,
    "maple</w>": 4392,
    "messy</w>": 4393,
    "blood</w>": 4394,
    "tables": 4395,
    "wheels</w>": 4396,
    "compliments</w>": 4397,
    "grey</w>": 4398,
    "tuesday</w>": 4399,
    "frequent</w>": 4400,
    "found": 4401,
    "sthe</w>": 4402,
    "filet</w>": 4403,
    "ased</w>": 4404,
    "model</w>": 4405,
    "jam": 4406,
    "gifts</w>": 4407,
    "mming</w>": 4408,
    "indic": 4409,
    "produce</w>": 4410,
    "citr": 4411,
    "florida</w>": 4412,
    "booked</w>": 4413,
    "chunks</w>": 4414,
    "mussels</w>": 4415,
    "skip</w>": 4416,
    "leather</w>": 4417,
    "dead</w>": 4418,
    "anese</w>": 4419,
    "entr": 4420,
    "access</w>": 4421,
    "fluffy</w>": 4422,
    "mill</w>": 4423,
    "awkward</w>": 4424,
    "specific</w>": 4425,
    "setup</w>": 4426,
    "chill</w>": 4427,
    "lighting</w>": 4428,
    "wrist</w>": 4429,
    "aming</w>": 4430,
    "rot": 4431,
    "kily</w>": 4432,
    "stone</w>": 4433,
    "airport</w>": 4434,
    "shipped</w>": 4435,
    "worried</w>": 4436,
    "spoke</w>": 4437,
    "wheel</w>": 4438,
    "ini</w>": 4439,
    "ian</w>": 4440,
    "ears</w>": 4441,
    "caj": 4442,
    "tern</w>": 4443,
    "wind</w>": 4444,
    "worn</w>": 4445,
    "sliced</w>": 4446,
    "flat": 4447,
    "basil</w>": 4448,
    "advice</w>": 4449,
    "complimentary</w>": 4450,
    "flash": 4451,
    "sture</w>": 4452,
    "fer</w>": 4453,
    "attach</w>": 4454,
    "loun": 4455,
    "became</w>": 4456,
    "bel</w>": 4457,
    "exercises</w>": 4458,
    "stevia</w>": 4459,
    "def</w>": 4460,
    "changing</w>": 4461,
    "patrons</w>": 4462,
    "luckily</w>": 4463,
    "blueberry</w>": 4464,
    "timate</w>": 4465,
    "cons</w>": 4466,
    "rout": 4467,
    "pads</w>": 4468,
    "cutting</w>": 4469,
    "pedicure</w>": 4470,
    "smoothies</w>": 4471,
    "elet</w>": 4472,
    "saved</w>": 4473,
    "hey</w>": 4474,
    "rd</w>": 4475,
    "gged</w>": 4476,
    "exact</w>": 4477,
    "tooth": 4478,
    "spir": 4479,
    "steps</w>": 4480,
    "planning</w>": 4481,
    "edge</w>": 4482,
    "mascara</w>": 4483,
    "cue</w>": 4484,
    "thered</w>": 4485,
    "aged</w>": 4486,
    "long": 4487,
    "mechan": 4488,
    "giant</w>": 4489,
    "tin</w>": 4490,
    "fare</w>": 4491,
    "wednes": 4492,
    "laid</w>": 4493,
    "prep": 4494,
    "warm": 4495,
    "dict</w>": 4496,
    "ketchup</w>": 4497,
    "ples</w>": 4498,
    "mount</w>": 4499,
    "god</w>": 4500,
    "hardly</w>": 4501,
    "surface</w>": 4502,
    "dos</w>": 4503,
    "less": 4504,
    "ur</w>": 4505,
    "overpow": 4506,
    "indy</w>": 4507,
    "deli</w>": 4508,
    "pita</w>": 4509,
    "bulk</w>": 4510,
    "haz": 4511,
    "oppo": 4512,
    "spa": 4513,
    "stronger</w>": 4514,
    "elly</w>": 4515,
    "trash</w>": 4516,
    "grand</w>": 4517,
    "reach</w>": 4518,
    "succ": 4519,
    "closing</w>": 4520,
    "happens</w>": 4521,
    "menus</w>": 4522,
    "sci": 4523,
    "zo</w>": 4524,
    "usion</w>": 4525,
    "grass</w>": 4526,
    "bble</w>": 4527,
    "stle</w>": 4528,
    "prepare</w>": 4529,
    "pros</w>": 4530,
    "budget</w>": 4531,
    "rasp": 4532,
    "favor</w>": 4533,
    "aling</w>": 4534,
    "food": 4535,
    "treatment</w>": 4536,
    "draw": 4537,
    "assortment</w>": 4538,
    "upset</w>": 4539,
    "ghet": 4540,
    "ison</w>": 4541,
    "target</w>": 4542,
    "packet</w>": 4543,
    "waterproof</w>": 4544,
    "reco": 4545,
    "paired</w>": 4546,
    "beverage</w>": 4547,
    "garage</w>": 4548,
    "cheesec": 4549,
    "substitute</w>": 4550,
    "flower</w>": 4551,
    "gue</w>": 4552,
    "originally</w>": 4553,
    "manufactur": 4554,
    "rarely</w>": 4555,
    "guest</w>": 4556,
    "familiar</w>": 4557,
    "tle": 4558,
    "cucum": 4559,
    "night": 4560,
    "info</w>": 4561,
    "lli": 4562,
    "side": 4563,
    "wifi</w>": 4564,
    "loaf</w>": 4565,
    "pan</w>": 4566,
    "ean</w>": 4567,
    "enly</w>": 4568,
    "continued</w>": 4569,
    "pro</w>": 4570,
    "paddle</w>": 4571,
    "alright</w>": 4572,
    "soa": 4573,
    "amous</w>": 4574,
    "friend": 4575,
    "stiff</w>": 4576,
    "events</w>": 4577,
    "bristles</w>": 4578,
    "crab": 4579,
    "example</w>": 4580,
    "fically</w>": 4581,
    "bank</w>": 4582,
    "paste</w>": 4583,
    "yor": 4584,
    "spark": 4585,
    "vietnam": 4586,
    "almonds</w>": 4587,
    "wood": 4588,
    "potenti": 4589,
    "pairs</w>": 4590,
    "dents</w>": 4591,
    "tart</w>": 4592,
    "describe</w>": 4593,
    "scrub</w>": 4594,
    "uri": 4595,
    "cushi": 4596,
    "taste": 4597,
    "premi": 4598,
    "pounds</w>": 4599,
    "lobby</w>": 4600,
    "application</w>": 4601,
    "rolled</w>": 4602,
    "bru": 4603,
    "ino</w>": 4604,
    "mid</w>": 4605,
    "sch": 4606,
    "relaxed</w>": 4607,
    "nois": 4608,
    "load</w>": 4609,
    "razor</w>": 4610,
    "common</w>": 4611,
    "aftertaste</w>": 4612,
    "fee": 4613,
    "itching</w>": 4614,
    "sweetened</w>": 4615,
    "eggplant</w>": 4616,
    "layer</w>": 4617,
    "vering</w>": 4618,
    "tape</w>": 4619,
    "attractive</w>": 4620,
    "compu": 4621,
    "occasion</w>": 4622,
    "healthier</w>": 4623,
    "staple</w>": 4624,
    "jazz</w>": 4625,
    "nel</w>": 4626,
    "acceptable</w>": 4627,
    "ggles</w>": 4628,
    "display</w>": 4629,
    "improve</w>": 4630,
    "appropri": 4631,
    "gall": 4632,
    "browni": 4633,
    "faster</w>": 4634,
    "freshly</w>": 4635,
    "priv": 4636,
    "vietnamese</w>": 4637,
    "terms</w>": 4638,
    "matcha</w>": 4639,
    "japanese</w>": 4640,
    "smoothie</w>": 4641,
    "gold": 4642,
    "broc": 4643,
    "charging</w>": 4644,
    "kay": 4645,
    "towards</w>": 4646,
    "ette</w>": 4647,
    "snow</w>": 4648,
    "purple</w>": 4649,
    "present</w>": 4650,
    "ledge</w>": 4651,
    "requested</w>": 4652,
    "reviewers</w>": 4653,
    "oyster</w>": 4654,
    "costs</w>": 4655,
    "tone</w>": 4656,
    "chicago</w>": 4657,
    "wild</w>": 4658,
    "spra": 4659,
    "host</w>": 4660,
    "gn": 4661,
    "vitam": 4662,
    "we'd</w>": 4663,
    "waffles</w>": 4664,
    "ravi": 4665,
    "groups</w>": 4666,
    "pants</w>": 4667,
    "ear</w>": 4668,
    "windows</w>": 4669,
    "pes": 4670,
    "ortun": 4671,
    "dom": 4672,
    "adjust": 4673,
    "relax</w>": 4674,
    "pleasure</w>": 4675,
    "doctor</w>": 4676,
    "shine</w>": 4677,
    "suppose</w>": 4678,
    "genu": 4679,
    "silic": 4680,
    "worker</w>": 4681,
    "ano</w>": 4682,
    "covers</w>": 4683,
    "moisturizer</w>": 4684,
    "opportun": 4685,
    "holiday</w>": 4686,
    "sugar": 4687,
    "specifically</w>": 4688,
    "gour": 4689,
    "insul": 4690,
    "label</w>": 4691,
    "kid": 4692,
    "cajun</w>": 4693,
    "needless</w>": 4694,
    "serum</w>": 4695,
    "signific": 4696,
    "pastries</w>": 4697,
    "volume</w>": 4698,
    "desert</w>": 4699,
    "begin</w>": 4700,
    "dance</w>": 4701,
    "solution</w>": 4702,
    "haircut</w>": 4703,
    "scallops</w>": 4704,
    "coli</w>": 4705,
    "parties</w>": 4706,
    "shave</w>": 4707,
    "win</w>": 4708,
    "vehicle</w>": 4709,
    "fee</w>": 4710,
    "spacious</w>": 4711,
    "tub</w>": 4712,
    "user</w>": 4713,
    "blade</w>": 4714,
    "bringing</w>": 4715,
    "containers</w>": 4716,
    "vill": 4717,
    "shouldn't</w>": 4718,
    "upscale</w>": 4719,
    "shu": 4720,
    "ures</w>": 4721,
    "buds</w>": 4722,
    "alot</w>": 4723,
    "icy": 4724,
    "protect</w>": 4725,
    "stain": 4726,
    "phys": 4727,
    "sport</w>": 4728,
    "foundation</w>": 4729,
    "tie</w>": 4730,
    "benefits</w>": 4731,
    "drying</w>": 4732,
    "bold</w>": 4733,
    "gain</w>": 4734,
    "chef": 4735,
    "fans</w>": 4736,
    "poor": 4737,
    "cking</w>": 4738,
    "xim": 4739,
    "confi": 4740,
    "mmed</w>": 4741,
    "thetic</w>": 4742,
    "flowers</w>": 4743,
    "ra</w>": 4744,
    "chai</w>": 4745,
    "er's</w>": 4746,
    "intro": 4747,
    "hoped</w>": 4748,
    "mattre": 4749,
    "blon": 4750,
    "bathrooms</w>": 4751,
    "accommodate</w>": 4752,
    "servings</w>": 4753,
    "ura</w>": 4754,
    "pect</w>": 4755,
    "thursday</w>": 4756,
    "pressed</w>": 4757,
    "broccoli</w>": 4758,
    "cupcakes</w>": 4759,
    "calling</w>": 4760,
    "drove</w>": 4761,
    "wouldnt</w>": 4762,
    "rushed</w>": 4763,
    "adven": 4764,
    "versatile</w>": 4765,
    "thoroughly</w>": 4766,
    "stylist</w>": 4767,
    "aches</w>": 4768,
    "keto</w>": 4769,
    "staff": 4770,
    "beignets</w>": 4771,
    "cheesecake</w>": 4772,
    "among</w>": 4773,
    "slo": 4774,
    "heated</w>": 4775,
    "cocoa</w>": 4776,
    "squeeze</w>": 4777,
    "anytime</w>": 4778,
    "colored</w>": 4779,
    "prevent</w>": 4780,
    "currently</w>": 4781,
    "wed</w>": 4782,
    "applied</w>": 4783,
    "gla": 4784,
    "quantity</w>": 4785,
    "overcooked</w>": 4786,
    "rat": 4787,
    "omelette</w>": 4788,
    "essed</w>": 4789,
    "gram</w>": 4790,
    "starts</w>": 4791,
    "rub</w>": 4792,
    "introduc": 4793,
    "ours</w>": 4794,
    "mimo": 4795,
    "batch</w>": 4796,
    "loss</w>": 4797,
    "manicure</w>": 4798,
    "edges</w>": 4799,
    "hasn't</w>": 4800,
    "dule</w>": 4801,
    "en's</w>": 4802,
    "bility</w>": 4803,
    "cloth</w>": 4804,
    "liking</w>": 4805,
    "parmes": 4806,
    "position</w>": 4807,
    "lie</w>": 4808,
    "itting</w>": 4809,
    "books</w>": 4810,
    "year": 4811,
    "brown": 4812,
    "ina</w>": 4813,
    "jun": 4814,
    "portable</w>": 4815,
    "flight</w>": 4816,
    "hype</w>": 4817,
    "groo": 4818,
    "icky</w>": 4819,
    "jas": 4820,
    "overwhelming</w>": 4821,
    "ignor": 4822,
    "cord</w>": 4823,
    "cus</w>": 4824,
    "useless</w>": 4825,
    "dumplings</w>": 4826,
    "stands</w>": 4827,
    "string</w>": 4828,
    "locals</w>": 4829,
    "field</w>": 4830,
    "fat": 4831,
    "snap</w>": 4832,
    "dive</w>": 4833,
    "mozz": 4834,
    "shiny</w>": 4835,
    "fry</w>": 4836,
    "fore": 4837,
    "cleaner</w>": 4838,
    "tec": 4839,
    "scar": 4840,
    "gging</w>": 4841,
    "gourmet</w>": 4842,
    "pictured</w>": 4843,
    "mart</w>": 4844,
    "famous</w>": 4845,
    "mountain</w>": 4846,
    "secur": 4847,
    "banan": 4848,
    "response</w>": 4849,
    "began</w>": 4850,
    "videoid": 4851,
    "final</w>": 4852,
    "cashier</w>": 4853,
    "rod</w>": 4854,
    "essential</w>": 4855,
    "tasteless</w>": 4856,
    "arella</w>": 4857,
    "private</w>": 4858,
    "east</w>": 4859,
    "mr</w>": 4860,
    "moisturizing</w>": 4861,
    "levels</w>": 4862,
    "ids</w>": 4863,
    "ox": 4864,
    "furnit": 4865,
    "gum</w>": 4866,
    "workouts</w>": 4867,
    "dough": 4868,
    "friend's</w>": 4869,
    "effect</w>": 4870,
    "peach</w>": 4871,
    "indoor</w>": 4872,
    "granola</w>": 4873,
    "tum": 4874,
    "reminded</w>": 4875,
    "ecu": 4876,
    "proper</w>": 4877,
    "ank</w>": 4878,
    "gled</w>": 4879,
    "muse": 4880,
    "garbage</w>": 4881,
    "adequ": 4882,
    "furniture</w>": 4883,
    "sely</w>": 4884,
    "previously</w>": 4885,
    "beginning</w>": 4886,
    "gonna</w>": 4887,
    "would've</w>": 4888,
    "parmesan</w>": 4889,
    "buttery</w>": 4890,
    "dent": 4891,
    "impor": 4892,
    "tains</w>": 4893,
    "exper": 4894,
    "usi": 4895,
    "coupon</w>": 4896,
    "trail</w>": 4897,
    "ourselves</w>": 4898,
    "suggestions</w>": 4899,
    "dish": 4900,
    "died</w>": 4901,
    "offer": 4902,
    "quesadi": 4903,
    "syn": 4904,
    "initially</w>": 4905,
    "ath": 4906,
    "mpy</w>": 4907,
    "spaghet": 4908,
    "ideal</w>": 4909,
    "wher": 4910,
    "arance</w>": 4911,
    "packages</w>": 4912,
    "time": 4913,
    "joke</w>": 4914,
    "andor</w>": 4915,
    "grain</w>": 4916,
    "eyebrows</w>": 4917,
    "refer": 4918,
    "occasions</w>": 4919,
    "freshness</w>": 4920,
    "improvement</w>": 4921,
    "chr": 4922,
    "goggles</w>": 4923,
    "reel</w>": 4924,
    "antic</w>": 4925,
    "individually</w>": 4926,
    "tortilla</w>": 4927,
    "sey</w>": 4928,
    "assembly</w>": 4929,
    "daughters</w>": 4930,
    "blanket</w>": 4931,
    "secu": 4932,
    "esses</w>": 4933,
    "skep": 4934,
    "managed</w>": 4935,
    "shown</w>": 4936,
    "stove</w>": 4937,
    "poles</w>": 4938,
    "additi": 4939,
    "mented</w>": 4940,
    "raspberry</w>": 4941,
    "chow": 4942,
    "cheesesteak</w>": 4943,
    "talked</w>": 4944,
    "installed</w>": 4945,
    "foli": 4946,
    "access": 4947,
    "tably</w>": 4948,
    "brother</w>": 4949,
    "dest</w>": 4950,
    "offering</w>": 4951,
    "nut": 4952,
    "refills</w>": 4953,
    "barbe": 4954,
    "poorly</w>": 4955,
    "way": 4956,
    "odor": 4957,
    "required</w>": 4958,
    "mozzarella</w>": 4959,
    "sau": 4960,
    "minor</w>": 4961,
    "suppor": 4962,
    "scalp</w>": 4963,
    "alu": 4964,
    "bever": 4965,
    "gies</w>": 4966,
    "usable</w>": 4967,
    "scooter</w>": 4968,
    "brewed</w>": 4969,
    "tee</w>": 4970,
    "numer": 4971,
    "ravioli</w>": 4972,
    "aran": 4973,
    "slaw</w>": 4974,
    "smoothly</w>": 4975,
    "sub</w>": 4976,
    "lo</w>": 4977,
    "applying</w>": 4978,
    "hell</w>": 4979,
    "watched</w>": 4980,
    "silver</w>": 4981,
    "museum</w>": 4982,
    "con</w>": 4983,
    "spaghetti</w>": 4984,
    "they'll</w>": 4985,
    "ler": 4986,
    "inviting</w>": 4987,
    "waitres": 4988,
    "life": 4989,
    "period</w>": 4990,
    "len": 4991,
    "chopped</w>": 4992,
    "decorated</w>": 4993,
    "benedict</w>": 4994,
    "crac": 4995,
    "machin": 4996,
    "personable</w>": 4997,
    "states</w>": 4998,
    "gun</w>": 4999,
    "craf": 5000,
    "opportunity</w>": 5001,
    "member": 5002,
    "village</w>": 5003,
    "denti": 5004,
    "icip": 5005,
    "pointed</w>": 5006,
    "starter</w>": 5007,
    "facility</w>": 5008,
    "esar</w>": 5009,
    "publ": 5010,
    "adas</w>": 5011,
    "wines</w>": 5012,
    "community</w>": 5013,
    "gotta</w>": 5014,
    "acid</w>": 5015,
    "coverage</w>": 5016,
    "masks</w>": 5017,
    "corpor": 5018,
    "ful": 5019,
    "lig": 5020,
    "llet</w>": 5021,
    "tures</w>": 5022,
    "gic</w>": 5023,
    "numerous</w>": 5024,
    "wednesday</w>": 5025,
    "till</w>": 5026,
    "omelet</w>": 5027,
    "amazingly</w>": 5028,
    "gentle": 5029,
    "tments</w>": 5030,
    "cheesy</w>": 5031,
    "dates</w>": 5032,
    "bicy": 5033,
    "padding</w>": 5034,
    "join": 5035,
    "meeting</w>": 5036,
    "allet</w>": 5037,
    "peel</w>": 5038,
    "ttle</w>": 5039,
    "san</w>": 5040,
    "research</w>": 5041,
    "extensive</w>": 5042,
    "pun": 5043,
    "blown</w>": 5044,
    "pete</w>": 5045,
    "obvious</w>": 5046,
    "print</w>": 5047,
    "scram": 5048,
    "ish</w>": 5049,
    "enchil": 5050,
    "b's</w>": 5051,
    "jam</w>": 5052,
    "mainly</w>": 5053,
    "register</w>": 5054,
    "coffees</w>": 5055,
    "presented</w>": 5056,
    "pillow</w>": 5057,
    "queso</w>": 5058,
    "junk</w>": 5059,
    "warran": 5060,
    "martin": 5061,
    "mate</w>": 5062,
    "rid</w>": 5063,
    "teri": 5064,
    "ris": 5065,
    "luke</w>": 5066,
    "degrees</w>": 5067,
    "factory</w>": 5068,
    "lemonade</w>": 5069,
    "cca</w>": 5070,
    "ri</w>": 5071,
    "ances</w>": 5072,
    "equally</w>": 5073,
    "unbeliev": 5074,
    "north</w>": 5075,
    "silicone</w>": 5076,
    "spoon</w>": 5077,
    "meatballs</w>": 5078,
    "collection</w>": 5079,
    "teen": 5080,
    "bomb</w>": 5081,
    "gardless</w>": 5082,
    "sno": 5083,
    "oooo": 5084,
    "brings</w>": 5085,
    "thing": 5086,
    "bench</w>": 5087,
    "indu": 5088,
    "lounge</w>": 5089,
    "atives</w>": 5090,
    "hooked</w>": 5091,
    "conn": 5092,
    "appeared</w>": 5093,
    "afraid</w>": 5094,
    "offerings</w>": 5095,
    "ya": 5096,
    "ority</w>": 5097,
    "eno</w>": 5098,
    "onic</w>": 5099,
    "aging</w>": 5100,
    "ach": 5101,
    "harder</w>": 5102,
    "sle</w>": 5103,
    "umbre": 5104,
    "lion</w>": 5105,
    "repeat</w>": 5106,
    "river</w>": 5107,
    "functional</w>": 5108,
    "encoun": 5109,
    "lasting</w>": 5110,
    "curls</w>": 5111,
    "comparable</w>": 5112,
    "pastry</w>": 5113,
    "according</w>": 5114,
    "lavender</w>": 5115,
    "bling</w>": 5116,
    "bent</w>": 5117,
    "icing</w>": 5118,
    "preferred</w>": 5119,
    "chowder</w>": 5120,
    "beverages</w>": 5121,
    "vend": 5122,
    "mug</w>": 5123,
    "inde": 5124,
    "dan</w>": 5125,
    "slow": 5126,
    "upper</w>": 5127,
    "ups</w>": 5128,
    "warning</w>": 5129,
    "soooo</w>": 5130,
    "regardless</w>": 5131,
    "booth</w>": 5132,
    "active</w>": 5133,
    "remain": 5134,
    "promised</w>": 5135,
    "tful</w>": 5136,
    "execu": 5137,
    "half": 5138,
    "performan": 5139,
    "waist</w>": 5140,
    "comfortably</w>": 5141,
    "flexible</w>": 5142,
    "floors</w>": 5143,
    "loving</w>": 5144,
    "suit</w>": 5145,
    "source</w>": 5146,
    "selling</w>": 5147,
    "computer</w>": 5148,
    "appear</w>": 5149,
    "swim</w>": 5150,
    "stant</w>": 5151,
    "mg</w>": 5152,
    "softer</w>": 5153,
    "veal</w>": 5154,
    "advan": 5155,
    "grown</w>": 5156,
    "lin</w>": 5157,
    "eats</w>": 5158,
    "theater</w>": 5159,
    "jump</w>": 5160,
    "listen</w>": 5161,
    "drops</w>": 5162,
    "elastic</w>": 5163,
    "samples</w>": 5164,
    "sucks</w>": 5165,
    "skeptical</w>": 5166,
    "intended</w>": 5167,
    "schedule</w>": 5168,
    "tit": 5169,
    "lon</w>": 5170,
    "apps</w>": 5171,
    "bet</w>": 5172,
    "wo": 5173,
    "golden</w>": 5174,
    "erful</w>": 5175,
    "impression</w>": 5176,
    "writ": 5177,
    "sesame</w>": 5178,
    "asinb": 5179,
    "ators</w>": 5180,
    "nap": 5181,
    "regar": 5182,
    "ager</w>": 5183,
    "scratch</w>": 5184,
    "rele": 5185,
    "lowe": 5186,
    "tted</w>": 5187,
    "em</w>": 5188,
    "tops</w>": 5189,
    "exfoli": 5190,
    "zone</w>": 5191,
    "ang</w>": 5192,
    "topping</w>": 5193,
    "plu": 5194,
    "endy</w>": 5195,
    "kins</w>": 5196,
    "stat": 5197,
    "reads</w>": 5198,
    "heavier</w>": 5199,
    "teaspoon</w>": 5200,
    "base": 5201,
    "bananas</w>": 5202,
    "becca</w>": 5203,
    "browns</w>": 5204,
    "strict</w>": 5205,
    "liner</w>": 5206,
    "strips</w>": 5207,
    "blends</w>": 5208,
    "ill": 5209,
    "kar": 5210,
    "anni": 5211,
    "cashe": 5212,
    "dee": 5213,
    "arily</w>": 5214,
    "tch</w>": 5215,
    "za</w>": 5216,
    "penny</w>": 5217,
    "york</w>": 5218,
    "lers</w>": 5219,
    "ei</w>": 5220,
    "div": 5221,
    "superi": 5222,
    "mini": 5223,
    "sweetener</w>": 5224,
    "cott": 5225,
    "bor</w>": 5226,
    "agreed</w>": 5227,
    "lover</w>": 5228,
    "surr": 5229,
    "lec": 5230,
    "overpowering</w>": 5231,
    "cuban</w>": 5232,
    "secre": 5233,
    "shred": 5234,
    "visible</w>": 5235,
    "wore</w>": 5236,
    "chop</w>": 5237,
    "calls</w>": 5238,
    "grow": 5239,
    "havent</w>": 5240,
    "improved</w>": 5241,
    "buck": 5242,
    "contain</w>": 5243,
    "dep": 5244,
    "lis</w>": 5245,
    "steamed</w>": 5246,
    "hopes</w>": 5247,
    "moisture</w>": 5248,
    "shorter</w>": 5249,
    "itched</w>": 5250,
    "darker</w>": 5251,
    "stir</w>": 5252,
    "leftovers</w>": 5253,
    "ounts</w>": 5254,
    "mattress</w>": 5255,
    "flavoring</w>": 5256,
    "cel": 5257,
    "potential</w>": 5258,
    "powdered</w>": 5259,
    "hec": 5260,
    "routine</w>": 5261,
    "ration</w>": 5262,
    "thus</w>": 5263,
    "security</w>": 5264,
    "ker": 5265,
    "desired</w>": 5266,
    "caram": 5267,
    "rob": 5268,
    "hotels</w>": 5269,
    "jerky</w>": 5270,
    "chal": 5271,
    "sel</w>": 5272,
    "texas</w>": 5273,
    "sooo</w>": 5274,
    "decaf</w>": 5275,
    "root</w>": 5276,
    "liquor</w>": 5277,
    "acknow": 5278,
    "bbing</w>": 5279,
    "ashes</w>": 5280,
    "tries</w>": 5281,
    "confused</w>": 5282,
    "sta</w>": 5283,
    "ense</w>": 5284,
    "height</w>": 5285,
    "mile</w>": 5286,
    "tents</w>": 5287,
    "public</w>": 5288,
    "content</w>": 5289,
    "rocks</w>": 5290,
    "sar": 5291,
    "quaint</w>": 5292,
    "shredded</w>": 5293,
    "couldnt</w>": 5294,
    "boring</w>": 5295,
    "grease</w>": 5296,
    "benefit</w>": 5297,
    "extract</w>": 5298,
    "todd": 5299,
    "growing</w>": 5300,
    "pas</w>": 5301,
    "varieties</w>": 5302,
    "punch</w>": 5303,
    "prepar": 5304,
    "don</w>": 5305,
    "dairy</w>": 5306,
    "minimal</w>": 5307,
    "national</w>": 5308,
    "worthy</w>": 5309,
    "reliable</w>": 5310,
    "camp</w>": 5311,
    "strong": 5312,
    "rebecca</w>": 5313,
    "searching</w>": 5314,
    "ado</w>": 5315,
    "son's</w>": 5316,
    "subscri": 5317,
    "land": 5318,
    "az": 5319,
    "rep": 5320,
    "here's</w>": 5321,
    "perfu": 5322,
    "posted</w>": 5323,
    "fitbit</w>": 5324,
    "answered</w>": 5325,
    "bake</w>": 5326,
    "steep</w>": 5327,
    "rou": 5328,
    "learning</w>": 5329,
    "verse</w>": 5330,
    "rais": 5331,
    "random</w>": 5332,
    "dressed</w>": 5333,
    "restr": 5334,
    "picking</w>": 5335,
    "waiters</w>": 5336,
    "partner</w>": 5337,
    "blonde</w>": 5338,
    "brewery</w>": 5339,
    "superior</w>": 5340,
    "football</w>": 5341,
    "premium</w>": 5342,
    "carbs</w>": 5343,
    "camer": 5344,
    "custard</w>": 5345,
    "ala</w>": 5346,
    "dense</w>": 5347,
    "cooks</w>": 5348,
    "pecan</w>": 5349,
    "afterwards</w>": 5350,
    "comparison</w>": 5351,
    "assume</w>": 5352,
    "brigh": 5353,
    "surance</w>": 5354,
    "yal</w>": 5355,
    "page</w>": 5356,
    "compani": 5357,
    "grew</w>": 5358,
    "peanuts</w>": 5359,
    "roll": 5360,
    "handed</w>": 5361,
    "brand": 5362,
    "tack": 5363,
    "nic</w>": 5364,
    "dence</w>": 5365,
    "woo": 5366,
    "odor</w>": 5367,
    "delicate</w>": 5368,
    "stress</w>": 5369,
    "materials</w>": 5370,
    "spee": 5371,
    "ury</w>": 5372,
    "honey": 5373,
    "deodor": 5374,
    "clam</w>": 5375,
    "theless</w>": 5376,
    "gru": 5377,
    "proj": 5378,
    "removing</w>": 5379,
    "barre": 5380,
    "preference</w>": 5381,
    "chew</w>": 5382,
    "headband</w>": 5383,
    "gno": 5384,
    "jac": 5385,
    "washer</w>": 5386,
    "danc": 5387,
    "caesar</w>": 5388,
    "cil": 5389,
    "ape": 5390,
    "draft</w>": 5391,
    "disapp": 5392,
    "shocked</w>": 5393,
    "bree": 5394,
    "exchange</w>": 5395,
    "rear</w>": 5396,
    "winner</w>": 5397,
    "wil": 5398,
    "electric</w>": 5399,
    "macar": 5400,
    "rists</w>": 5401,
    "boba</w>": 5402,
    "department</w>": 5403,
    "stam": 5404,
    "adequate</w>": 5405,
    "saf": 5406,
    "holy</w>": 5407,
    "ician</w>": 5408,
    "nope</w>": 5409,
    "scene</w>": 5410,
    "flavorless</w>": 5411,
    "wipe</w>": 5412,
    "ome": 5413,
    "sounded</w>": 5414,
    "bf</w>": 5415,
    "bari": 5416,
    "ist</w>": 5417,
    "hits</w>": 5418,
    "warmer</w>": 5419,
    "wipes</w>": 5420,
    "grow</w>": 5421,
    "glit": 5422,
    "cry": 5423,
    "younger</w>": 5424,
    "falls</w>": 5425,
    "trick</w>": 5426,
    "bitter": 5427,
    "regul": 5428,
    "appropriate</w>": 5429,
    "noticeable</w>": 5430,
    "sweat": 5431,
    "details</w>": 5432,
    "sight</w>": 5433,
    "lows</w>": 5434,
    "lux": 5435,
    "ov": 5436,
    "sup": 5437,
    "claim</w>": 5438,
    "charac": 5439,
    "naturally</w>": 5440,
    "insan": 5441,
    "bered</w>": 5442,
    "smart</w>": 5443,
    "timely</w>": 5444,
    "ounding</w>": 5445,
    "silky</w>": 5446,
    "grandson</w>": 5447,
    "cotton</w>": 5448,
    "ane</w>": 5449,
    "olives</w>": 5450,
    "thickness</w>": 5451,
    "aspar": 5452,
    "wav": 5453,
    "dries</w>": 5454,
    "fountain</w>": 5455,
    "acted</w>": 5456,
    "sons</w>": 5457,
    "toler": 5458,
    "magic</w>": 5459,
    "dream</w>": 5460,
    "showing</w>": 5461,
    "lined</w>": 5462,
    "bisque</w>": 5463,
    "candies</w>": 5464,
    "appearance</w>": 5465,
    "ku": 5466,
    "initial</w>": 5467,
    "caps</w>": 5468,
    "ther's</w>": 5469,
    "ms": 5470,
    "challen": 5471,
    "champ": 5472,
    "watery</w>": 5473,
    "mesh</w>": 5474,
    "breaking</w>": 5475,
    "itor</w>": 5476,
    "fire": 5477,
    "pul": 5478,
    "invol": 5479,
    "east": 5480,
    "zzle</w>": 5481,
    "classy</w>": 5482,
    "tail": 5483,
    "valu": 5484,
    "gling</w>": 5485,
    "wash": 5486,
    "inve": 5487,
    "pistac": 5488,
    "happier</w>": 5489,
    "headbands</w>": 5490,
    "hazel": 5491,
    "dow</w>": 5492,
    "ticket</w>": 5493,
    "trendy</w>": 5494,
    "walmart</w>": 5495,
    "coating</w>": 5496,
    "oring</w>": 5497,
    "haha</w>": 5498,
    "lacked</w>": 5499,
    "courses</w>": 5500,
    "dentally</w>": 5501,
    "popped</w>": 5502,
    "mmm</w>": 5503,
    "loop</w>": 5504,
    "cupcake</w>": 5505,
    "sen</w>": 5506,
    "attach": 5507,
    "mers</w>": 5508,
    "certi": 5509,
    "cart</w>": 5510,
    "noisy</w>": 5511,
    "ca</w>": 5512,
    "age": 5513,
    "apologized</w>": 5514,
    "ism</w>": 5515,
    "informative</w>": 5516,
    "waitresses</w>": 5517,
    "artic": 5518,
    "miso</w>": 5519,
    "ored</w>": 5520,
    "dirt</w>": 5521,
    "alo": 5522,
    "ories</w>": 5523,
    "hesitate</w>": 5524,
    "thinner</w>": 5525,
    "knee</w>": 5526,
    "indeed</w>": 5527,
    "agne</w>": 5528,
    "ttes</w>": 5529,
    "advantage</w>": 5530,
    "stopping</w>": 5531,
    "flow</w>": 5532,
    "hallowe": 5533,
    "chemical</w>": 5534,
    "melon</w>": 5535,
    "indian": 5536,
    "deals</w>": 5537,
    "tantly</w>": 5538,
    "creme</w>": 5539,
    "encour": 5540,
    "therefore</w>": 5541,
    "ellar</w>": 5542,
    "iche</w>": 5543,
    "performance</w>": 5544,
    "bagel</w>": 5545,
    "sharing</w>": 5546,
    "pistachi": 5547,
    "cracker</w>": 5548,
    "ling": 5549,
    "updated</w>": 5550,
    "devel": 5551,
    "chee": 5552,
    "clothing</w>": 5553,
    "overnight</w>": 5554,
    "charm</w>": 5555,
    "formul": 5556,
    "cryst": 5557,
    "guaran": 5558,
    "concern</w>": 5559,
    "charming</w>": 5560,
    "advi": 5561,
    "survi": 5562,
    "pods</w>": 5563,
    "laugh": 5564,
    "insurance</w>": 5565,
    "sme": 5566,
    "freezer</w>": 5567,
    "batter</w>": 5568,
    "leaf</w>": 5569,
    "penc": 5570,
    "bubble</w>": 5571,
    "upgrade</w>": 5572,
    "expiration</w>": 5573,
    "open": 5574,
    "burrit": 5575,
    "intimate</w>": 5576,
    "cilan": 5577,
    "excuse</w>": 5578,
    "cucumber</w>": 5579,
    "occasionally</w>": 5580,
    "traff": 5581,
    "thankfully</w>": 5582,
    "contacted</w>": 5583,
    "program</w>": 5584,
    "tortillas</w>": 5585,
    "sna": 5586,
    "vest</w>": 5587,
    "wonderfully</w>": 5588,
    "patty</w>": 5589,
    "lovers</w>": 5590,
    "halloween</w>": 5591,
    "swimming</w>": 5592,
    "cilantro</w>": 5593,
    "ine": 5594,
    "ece</w>": 5595,
    "dispen": 5596,
    "ara</w>": 5597,
    "arrival</w>": 5598,
    "contr": 5599,
    "theres</w>": 5600,
    "function</w>": 5601,
    "flor": 5602,
    "ter's</w>": 5603,
    "require</w>": 5604,
    "graph": 5605,
    "shots</w>": 5606,
    "rave</w>": 5607,
    "ts": 5608,
    "rip</w>": 5609,
    "written</w>": 5610,
    "grabbed</w>": 5611,
    "it'll</w>": 5612,
    "citrus</w>": 5613,
    "yout</w>": 5614,
    "john</w>": 5615,
    "term</w>": 5616,
    "burned</w>": 5617,
    "ruined</w>": 5618,
    "crit": 5619,
    "stry</w>": 5620,
    "jalap": 5621,
    "sampler</w>": 5622,
    "ile</w>": 5623,
    "carb</w>": 5624,
    "schedul": 5625,
    "ball": 5626,
    "ank": 5627,
    "jacket</w>": 5628,
    "lit</w>": 5629,
    "delight</w>": 5630,
    "au</w>": 5631,
    "scoop</w>": 5632,
    "they'd</w>": 5633,
    "fel": 5634,
    "rain": 5635,
    "degree</w>": 5636,
    "spin</w>": 5637,
    "memorable</w>": 5638,
    "waitstaff</w>": 5639,
    "styles</w>": 5640,
    "fle": 5641,
    "failed</w>": 5642,
    "aya</w>": 5643,
    "remem": 5644,
    "darn</w>": 5645,
    "abe": 5646,
    "pulling</w>": 5647,
    "ino": 5648,
    "tickets</w>": 5649,
    "faces</w>": 5650,
    "thumbs</w>": 5651,
    "gles</w>": 5652,
    "cracked</w>": 5653,
    "island</w>": 5654,
    "gyro</w>": 5655,
    "cents</w>": 5656,
    "remover</w>": 5657,
    "nis</w>": 5658,
    "allergic</w>": 5659,
    "chur": 5660,
    "positi": 5661,
    "annivers": 5662,
    "manner</w>": 5663,
    "liness</w>": 5664,
    "grad": 5665,
    "grips</w>": 5666,
    "xe</w>": 5667,
    "busin": 5668,
    "asts</w>": 5669,
    "su</w>": 5670,
    "coworkers</w>": 5671,
    "beds</w>": 5672,
    "apy</w>": 5673,
    "curl</w>": 5674,
    "signature</w>": 5675,
    "apartment</w>": 5676,
    "massa": 5677,
    "tray</w>": 5678,
    "lift</w>": 5679,
    "traffic</w>": 5680,
    "intense</w>": 5681,
    "carpet</w>": 5682,
    "jersey</w>": 5683,
    "basis</w>": 5684,
    "ong": 5685,
    "soak</w>": 5686,
    "sink</w>": 5687,
    "eyeliner</w>": 5688,
    "crew</w>": 5689,
    "faj": 5690,
    "calorie</w>": 5691,
    "exception</w>": 5692,
    "iri": 5693,
    "focus</w>": 5694,
    "cast</w>": 5695,
    "weekly</w>": 5696,
    "exter": 5697,
    "bulky</w>": 5698,
    "mping</w>": 5699,
    "remembered</w>": 5700,
    "gul": 5701,
    "spare</w>": 5702,
    "shaped</w>": 5703,
    "tics</w>": 5704,
    "entirely</w>": 5705,
    "feed</w>": 5706,
    "profile</w>": 5707,
    "hearing</w>": 5708,
    "sity</w>": 5709,
    "enth": 5710,
    "tter": 5711,
    "art": 5712,
    "card": 5713,
    "mouth": 5714,
    "named</w>": 5715,
    "apolis</w>": 5716,
    "mushy</w>": 5717,
    "machines</w>": 5718,
    "rental</w>": 5719,
    "magne": 5720,
    "dun": 5721,
    "ho</w>": 5722,
    "pies</w>": 5723,
    "deck</w>": 5724,
    "filter</w>": 5725,
    "inn</w>": 5726,
    "concentr": 5727,
    "rinse</w>": 5728,
    "hoag": 5729,
    "carrots</w>": 5730,
    "lamp</w>": 5731,
    "appealing</w>": 5732,
    "pickled</w>": 5733,
    "sb</w>": 5734,
    "enter</w>": 5735,
    "tested</w>": 5736,
    "mark": 5737,
    "gnoc": 5738,
    "thorough</w>": 5739,
    "rubber": 5740,
    "baseball</w>": 5741,
    "ound": 5742,
    "wife": 5743,
    "folds</w>": 5744,
    "medit": 5745,
    "suggestion</w>": 5746,
    "knowledge</w>": 5747,
    "cell</w>": 5748,
    "zzy</w>": 5749,
    "tourist</w>": 5750,
    "by": 5751,
    "deserves</w>": 5752,
    "smelling</w>": 5753,
    "pid</w>": 5754,
    "turning</w>": 5755,
    "bicycle</w>": 5756,
    "associ": 5757,
    "inser": 5758,
    "autom": 5759,
    "expo": 5760,
    "snow": 5761,
    "tear</w>": 5762,
    "mission</w>": 5763,
    "names</w>": 5764,
    "locked</w>": 5765,
    "ordinary</w>": 5766,
    "tured</w>": 5767,
    "husband": 5768,
    "stainless</w>": 5769,
    "herbs</w>": 5770,
    "reduce</w>": 5771,
    "aching</w>": 5772,
    "gray</w>": 5773,
    "cider</w>": 5774,
    "sangri": 5775,
    "flag</w>": 5776,
    "leaks</w>": 5777,
    "coff": 5778,
    "relief</w>": 5779,
    "underwhel": 5780,
    "accidentally</w>": 5781,
    "throwing</w>": 5782,
    "wraps</w>": 5783,
    "cing</w>": 5784,
    "lay</w>": 5785,
    "anniversary</w>": 5786,
    "pretzel</w>": 5787,
    "champagne</w>": 5788,
    "umbrella</w>": 5789,
    "indianapolis</w>": 5790,
    "mainten": 5791,
    "tation</w>": 5792,
    "fork</w>": 5793,
    "hairs</w>": 5794,
    "pretzels</w>": 5795,
    "tread": 5796,
    "smil": 5797,
    "short": 5798,
    "anyways</w>": 5799,
    "moves</w>": 5800,
    "leading</w>": 5801,
    "unable</w>": 5802,
    "burritos</w>": 5803,
    "notes</w>": 5804,
    "insi": 5805,
    "stumbled</w>": 5806,
    "esti": 5807,
    "anticip": 5808,
    "atable</w>": 5809,
    "considered</w>": 5810,
    "convin": 5811,
    "tends</w>": 5812,
    "bargain</w>": 5813,
    "standards</w>": 5814,
    "vous</w>": 5815,
    "nyc</w>": 5816,
    "tening</w>": 5817,
    "gan</w>": 5818,
    "foc": 5819,
    "lazy</w>": 5820,
    "direction</w>": 5821,
    "studio</w>": 5822,
    "promise</w>": 5823,
    "catfish</w>": 5824,
    "mixture</w>": 5825,
    "rolling</w>": 5826,
    "created</w>": 5827,
    "essing</w>": 5828,
    "hurry</w>": 5829,
    "tech</w>": 5830,
    "tells</w>": 5831,
    "snapp": 5832,
    "screws</w>": 5833,
    "peas</w>": 5834,
    "domin": 5835,
    "ggle</w>": 5836,
    "warranty</w>": 5837,
    "seed</w>": 5838,
    "accept</w>": 5839,
    "vibrant</w>": 5840,
    "colorful</w>": 5841,
    "flaw": 5842,
    "tvs</w>": 5843,
    "eleg": 5844,
    "fashioned</w>": 5845,
    "play": 5846,
    "hydrated</w>": 5847,
    "rent</w>": 5848,
    "iz": 5849,
    "whipped</w>": 5850,
    "corporate</w>": 5851,
    "usa</w>": 5852,
    "handle": 5853,
    "full": 5854,
    "fruits</w>": 5855,
    "complained</w>": 5856,
    "pitch": 5857,
    "requires</w>": 5858,
    "speaking</w>": 5859,
    "supply</w>": 5860,
    "reviewer</w>": 5861,
    "him": 5862,
    "highlight</w>": 5863,
    "tag</w>": 5864,
    "neu": 5865,
    "pepperoni</w>": 5866,
    "brews</w>": 5867,
    "ized</w>": 5868,
    "vod": 5869,
    "snug</w>": 5870,
    "icks</w>": 5871,
    "americ": 5872,
    "amazed</w>": 5873,
    "annoyed</w>": 5874,
    "secret</w>": 5875,
    "curi": 5876,
    "thir": 5877,
    "internet</w>": 5878,
    "fruity</w>": 5879,
    "deter": 5880,
    "sits</w>": 5881,
    "risk</w>": 5882,
    "underne": 5883,
    "pier": 5884,
    "pay": 5885,
    "jewel": 5886,
    "joints</w>": 5887,
    "gnocchi</w>": 5888,
    "ray</w>": 5889,
    "ashed</w>": 5890,
    "teen</w>": 5891,
    "husband's</w>": 5892,
    "sheet</w>": 5893,
    "bli": 5894,
    "creamer</w>": 5895,
    "thrit": 5896,
    "entrance</w>": 5897,
    "fed</w>": 5898,
    "valet</w>": 5899,
    "measu": 5900,
    "bund": 5901,
    "qual": 5902,
    "funky</w>": 5903,
    "dealer": 5904,
    "companies</w>": 5905,
    "pickle</w>": 5906,
    "iti</w>": 5907,
    "bal</w>": 5908,
    "divine</w>": 5909,
    "address</w>": 5910,
    "ensure</w>": 5911,
    "cum": 5912,
    "po</w>": 5913,
    "blades</w>": 5914,
    "mixes</w>": 5915,
    "zip</w>": 5916,
    "surg": 5917,
    "gras</w>": 5918,
    "eyebrow</w>": 5919,
    "lee</w>": 5920,
    "ignored</w>": 5921,
    "enthusi": 5922,
    "yr</w>": 5923,
    "granddaughter</w>": 5924,
    "cheeses</w>": 5925,
    "arran": 5926,
    "dust</w>": 5927,
    "handful</w>": 5928,
    "ko": 5929,
    "riso": 5930,
    "locking</w>": 5931,
    "festi": 5932,
    "flip</w>": 5933,
    "factor</w>": 5934,
    "sip</w>": 5935,
    "carefully</w>": 5936,
    "ache</w>": 5937,
    "pen</w>": 5938,
    "importantly</w>": 5939,
    "shee": 5940,
    "families</w>": 5941,
    "human</w>": 5942,
    "knock</w>": 5943,
    "tangy</w>": 5944,
    "bubb": 5945,
    "underneath</w>": 5946,
    "pinch</w>": 5947,
    "cabbage</w>": 5948,
    "district</w>": 5949,
    "respect</w>": 5950,
    "hassle</w>": 5951,
    "hearty</w>": 5952,
    "tattoo</w>": 5953,
    "blast</w>": 5954,
    "shut</w>": 5955,
    "gf</w>": 5956,
    "ens": 5957,
    "happily</w>": 5958,
    "maintenance</w>": 5959,
    "wasted</w>": 5960,
    "lities</w>": 5961,
    "plug</w>": 5962,
    "sat": 5963,
    "aly</w>": 5964,
    "togo</w>": 5965,
    "bran": 5966,
    "diners</w>": 5967,
    "metho": 5968,
    "boost</w>": 5969,
    "boiled</w>": 5970,
    "soooo": 5971,
    "jack</w>": 5972,
    "nobody</w>": 5973,
    "chu": 5974,
    "franklin</w>": 5975,
    "headed</w>": 5976,
    "coast</w>": 5977,
    "indul": 5978,
    "smoking</w>": 5979,
    "py</w>": 5980,
    "pedi</w>": 5981,
    "gentleman</w>": 5982,
    "account</w>": 5983,
    "sin</w>": 5984,
    "cost": 5985,
    "quesadilla</w>": 5986,
    "layers</w>": 5987,
    "views</w>": 5988,
    "season": 5989,
    "deodorant</w>": 5990,
    "palm</w>": 5991,
    "kill</w>": 5992,
    "owner": 5993,
    "tho</w>": 5994,
    "wake</w>": 5995,
    "univers": 5996,
    "quil": 5997,
    "poured</w>": 5998,
    "brows</w>": 5999,
    "instantly</w>": 6000,
    "assuming</w>": 6001,
    "wallet</w>": 6002,
    "comments</w>": 6003,
    "fian": 6004,
    "otic</w>": 6005,
    "breaks</w>": 6006,
    "clients</w>": 6007,
    "jerk</w>": 6008,
    "tra": 6009,
    "shaving</w>": 6010,
    "magnetic</w>": 6011,
    "wrink": 6012,
    "risotto</w>": 6013,
    "los</w>": 6014,
    "handled</w>": 6015,
    "downstairs</w>": 6016,
    "eria</w>": 6017,
    "stage</w>": 6018,
    "physical</w>": 6019,
    "gin": 6020,
    "muscles</w>": 6021,
    "narrow</w>": 6022,
    "lather</w>": 6023,
    "muffins</w>": 6024,
    "nervous</w>": 6025,
    "ami": 6026,
    "juices</w>": 6027,
    "meatloaf</w>": 6028,
    "chocolates</w>": 6029,
    "strawberries</w>": 6030,
    "socc": 6031,
    "earth</w>": 6032,
    "lay": 6033,
    "receipt</w>": 6034,
    "july</w>": 6035,
    "social</w>": 6036,
    "blin": 6037,
    "breast</w>": 6038,
    "pesto</w>": 6039,
    "cases</w>": 6040,
    "impec": 6041,
    "policy</w>": 6042,
    "apples</w>": 6043,
    "bell": 6044,
    "suit": 6045,
    "day's</w>": 6046,
    "ences</w>": 6047,
    "proceeded</w>": 6048,
    "meaning</w>": 6049,
    "drunk</w>": 6050,
    "cross</w>": 6051,
    "rides</w>": 6052,
    "vitamin</w>": 6053,
    "refrigerator</w>": 6054,
    "charges</w>": 6055,
    "grind</w>": 6056,
    "soccer</w>": 6057,
    "jelly</w>": 6058,
    "slowly</w>": 6059,
    "puts</w>": 6060,
    "buck</w>": 6061,
    "tar</w>": 6062,
    "keuri": 6063,
    "llo</w>": 6064,
    "ucks</w>": 6065,
    "product": 6066,
    "gluten": 6067,
    "property</w>": 6068,
    "frustrating</w>": 6069,
    "vodka</w>": 6070,
    "histor": 6071,
    "capp": 6072,
    "pic</w>": 6073,
    "membership</w>": 6074,
    "inspi": 6075,
    "hr</w>": 6076,
    "complex</w>": 6077,
    "challenge</w>": 6078,
    "rier</w>": 6079,
    "itty</w>": 6080,
    "tall": 6081,
    "tempura</w>": 6082,
    "manufacturer</w>": 6083,
    "gni": 6084,
    "chemicals</w>": 6085,
    "nav": 6086,
    "lian</w>": 6087,
    "cher</w>": 6088,
    "chefs</w>": 6089,
    "stellar</w>": 6090,
    "welcom": 6091,
    "communic": 6092,
    "nings</w>": 6093,
    "solve</w>": 6094,
    "heck</w>": 6095,
    "stl</w>": 6096,
    "claims</w>": 6097,
    "discus": 6098,
    "camera</w>": 6099,
    "needing</w>": 6100,
    "gest</w>": 6101,
    "hooks</w>": 6102,
    "sness</w>": 6103,
    "ridiculously</w>": 6104,
    "greatest</w>": 6105,
    "but": 6106,
    "croiss": 6107,
    "hop</w>": 6108,
    "mahi</w>": 6109,
    "self": 6110,
    "signs</w>": 6111,
    "painful</w>": 6112,
    "bang</w>": 6113,
    "toss</w>": 6114,
    "videos</w>": 6115,
    "ston</w>": 6116,
    "seasonal</w>": 6117,
    "booths</w>": 6118,
    "steak": 6119,
    "mun": 6120,
    "pin</w>": 6121,
    "nur": 6122,
    "cheaply</w>": 6123,
    "knees</w>": 6124,
    "tension</w>": 6125,
    "peak</w>": 6126,
    "guil": 6127,
    "massive</w>": 6128,
    "fon": 6129,
    "cust": 6130,
    "door": 6131,
    "heading</w>": 6132,
    "veg</w>": 6133,
    "stickers</w>": 6134,
    "female</w>": 6135,
    "sadd": 6136,
    "inner</w>": 6137,
    "advance</w>": 6138,
    "fail</w>": 6139,
    "che</w>": 6140,
    "blended</w>": 6141,
    "ard": 6142,
    "anish</w>": 6143,
    "attempt</w>": 6144,
    "warned</w>": 6145,
    "cleanser</w>": 6146,
    "brac": 6147,
    "rus": 6148,
    "ign": 6149,
    "supplies</w>": 6150,
    "dined</w>": 6151,
    "cares</w>": 6152,
    "marks</w>": 6153,
    "lifting</w>": 6154,
    "uccin": 6155,
    "jasmine</w>": 6156,
    "sangria</w>": 6157,
    "eyelashes</w>": 6158,
    "gable</w>": 6159,
    "barbecue</w>": 6160,
    "vintage</w>": 6161,
    "yl": 6162,
    "stinc": 6163,
    "durability</w>": 6164,
    "stru": 6165,
    "gie</w>": 6166,
    "tened</w>": 6167,
    "highest</w>": 6168,
    "plenti": 6169,
    "hung</w>": 6170,
    "boun": 6171,
    "ize</w>": 6172,
    "bucket</w>": 6173,
    "buns</w>": 6174,
    "inven": 6175,
    "lead</w>": 6176,
    "tennis</w>": 6177,
    "embar": 6178,
    "achi": 6179,
    "falaf": 6180,
    "jars</w>": 6181,
    "bottled</w>": 6182,
    "prep</w>": 6183,
    "gin</w>": 6184,
    "refused</w>": 6185,
    "interest</w>": 6186,
    "wife's</w>": 6187,
    "lau": 6188,
    "poo": 6189,
    "confir": 6190,
    "farm</w>": 6191,
    "settings</w>": 6192,
    "distinc": 6193,
    "cardboard</w>": 6194,
    "yl</w>": 6195,
    "signed</w>": 6196,
    "bbed</w>": 6197,
    "compartment</w>": 6198,
    "jalape": 6199,
    "whatso": 6200,
    "caused</w>": 6201,
    "practically</w>": 6202,
    "ripped</w>": 6203,
    "faci": 6204,
    "ecti": 6205,
    "constructed</w>": 6206,
    "naan</w>": 6207,
    "custom</w>": 6208,
    "drink": 6209,
    "minus</w>": 6210,
    "occasional</w>": 6211,
    "keurig</w>": 6212,
    "agus</w>": 6213,
    "bad": 6214,
    "tubes</w>": 6215,
    "chest</w>": 6216,
    "wears</w>": 6217,
    "bachi</w>": 6218,
    "recogni": 6219,
    "stops</w>": 6220,
    "processed</w>": 6221,
    "merci": 6222,
    "breeze</w>": 6223,
    "kale</w>": 6224,
    "getic</w>": 6225,
    "undercooked</w>": 6226,
    "ising</w>": 6227,
    "heavenly</w>": 6228,
    "ending</w>": 6229,
    "romantic</w>": 6230,
    "cheeseburger</w>": 6231,
    "bend</w>": 6232,
    "saving</w>": 6233,
    "inj": 6234,
    "leaking</w>": 6235,
    "fatty</w>": 6236,
    "flakes</w>": 6237,
    "allergies</w>": 6238,
    "exhi": 6239,
    "tighten</w>": 6240,
    "stocked</w>": 6241,
    "students</w>": 6242,
    "coffee": 6243,
    "tucked</w>": 6244,
    "plentiful</w>": 6245,
    "finishing</w>": 6246,
    "parti": 6247,
    "session</w>": 6248,
    "breads</w>": 6249,
    "gun": 6250,
    "darts</w>": 6251,
    "angle</w>": 6252,
    "sponge</w>": 6253,
    "iest</w>": 6254,
    "magaz": 6255,
    "welcomed</w>": 6256,
    "biased</w>": 6257,
    "cornbread</w>": 6258,
    "addictive</w>": 6259,
    "clams</w>": 6260,
    "unprofessional</w>": 6261,
    "sest</w>": 6262,
    "parm</w>": 6263,
    "wished</w>": 6264,
    "challeng": 6265,
    "ague</w>": 6266,
    "diabe": 6267,
    "reduced</w>": 6268,
    "xl</w>": 6269,
    "letting</w>": 6270,
    "marked</w>": 6271,
    "fortunate</w>": 6272,
    "thrown</w>": 6273,
    "tis": 6274,
    "snor": 6275,
    "core</w>": 6276,
    "express</w>": 6277,
    "dem": 6278,
    "bie</w>": 6279,
    "chori": 6280,
    "soothing</w>": 6281,
    "crushed</w>": 6282,
    "peppermint</w>": 6283,
    "acket</w>": 6284,
    "tattoo": 6285,
    "securely</w>": 6286,
    "knowledgable</w>": 6287,
    "necessarily</w>": 6288,
    "phones</w>": 6289,
    "order": 6290,
    "logo</w>": 6291,
    "backpacking</w>": 6292,
    "fitting</w>": 6293,
    "folding</w>": 6294,
    "tender": 6295,
    "coke</w>": 6296,
    "pricy</w>": 6297,
    "himself</w>": 6298,
    "unusual</w>": 6299,
    "econ": 6300,
    "minimum</w>": 6301,
    "hazelnut</w>": 6302,
    "mel</w>": 6303,
    "rose": 6304,
    "hospital</w>": 6305,
    "freeze</w>": 6306,
    "powerful</w>": 6307,
    "blackened</w>": 6308,
    "caulif": 6309,
    "regulars</w>": 6310,
    "collap": 6311,
    "donal": 6312,
    "burning</w>": 6313,
    "draw</w>": 6314,
    "satisfy</w>": 6315,
    "flashlight</w>": 6316,
    "surgery</w>": 6317,
    "feta</w>": 6318,
    "businesses</w>": 6319,
    "ji": 6320,
    "bler</w>": 6321,
    "fav</w>": 6322,
    "inflate</w>": 6323,
    "strongly</w>": 6324,
    "tensi": 6325,
    "tionally</w>": 6326,
    "coworker</w>": 6327,
    "drank</w>": 6328,
    "dental</w>": 6329,
    "wooden</w>": 6330,
    "accompani": 6331,
    "robust</w>": 6332,
    "brow</w>": 6333,
    "boards</w>": 6334,
    "laun": 6335,
    "prescri": 6336,
    "tax</w>": 6337,
    "closest</w>": 6338,
    "guard</w>": 6339,
    "regarding</w>": 6340,
    "asparagus</w>": 6341,
    "hipster</w>": 6342,
    "combined</w>": 6343,
    "increase</w>": 6344,
    "coats</w>": 6345,
    "hibachi</w>": 6346,
    "icier</w>": 6347,
    "loin</w>": 6348,
    "ultr": 6349,
    "promo": 6350,
    "hy</w>": 6351,
    "tes": 6352,
    "lantern</w>": 6353,
    "oats</w>": 6354,
    "purposes</w>": 6355,
    "terribly</w>": 6356,
    "beet</w>": 6357,
    "crack</w>": 6358,
    "brownie</w>": 6359,
    "wondering</w>": 6360,
    "avid</w>": 6361,
    "glow</w>": 6362,
    "wand": 6363,
    "daughter's</w>": 6364,
    "frosting</w>": 6365,
    "linary</w>": 6366,
    "bat</w>": 6367,
    "auto</w>": 6368,
    "gate</w>": 6369,
    "stored</w>": 6370,
    "ity": 6371,
    "pace</w>": 6372,
    "fellow</w>": 6373,
    "bread": 6374,
    "luke": 6375,
    "planned</w>": 6376,
    "activity</w>": 6377,
    "mit": 6378,
    "noted</w>": 6379,
    "ros</w>": 6380,
    "ati</w>": 6381,
    "eater</w>": 6382,
    "pral": 6383,
    "renov": 6384,
    "formula</w>": 6385,
    "accessories</w>": 6386,
    "tongue</w>": 6387,
    "this": 6388,
    "hammo": 6389,
    "whatsoever</w>": 6390,
    "bb</w>": 6391,
    "hitting</w>": 6392,
    "deliciou": 6393,
    "cauliflower</w>": 6394,
    "licor": 6395,
    "chat</w>": 6396,
    "carrot</w>": 6397,
    "designs</w>": 6398,
    "bt": 6399,
    "theme</w>": 6400,
    "outdoors</w>": 6401,
    "ference</w>": 6402,
    "therapy</w>": 6403,
    "listing</w>": 6404,
    "minum</w>": 6405,
    "balm</w>": 6406,
    "poons</w>": 6407,
    "messed</w>": 6408,
    "lasag": 6409,
    "clear": 6410,
    "gli": 6411,
    "rab": 6412,
    "complaining</w>": 6413,
    "fiance</w>": 6414,
    "drag": 6415,
    "gmo</w>": 6416,
    "balaya</w>": 6417,
    "creole</w>": 6418,
    "pics</w>": 6419,
    "isi": 6420,
    "concre": 6421,
    "extensions</w>": 6422,
    "barrel</w>": 6423,
    "basket": 6424,
    "grac": 6425,
    "cramped</w>": 6426,
    "harsh</w>": 6427,
    "commerci": 6428,
    "mail</w>": 6429,
    "pretenti": 6430,
    "bagels</w>": 6431,
    "shoulders</w>": 6432,
    "padded</w>": 6433,
    "key": 6434,
    "kes": 6435,
    "folded</w>": 6436,
    "pee": 6437,
    "month": 6438,
    "ted": 6439,
    "pedals</w>": 6440,
    "treadmill</w>": 6441,
    "bol": 6442,
    "cushion</w>": 6443,
    "hamburger</w>": 6444,
    "shirts</w>": 6445,
    "alfre": 6446,
    "dol": 6447,
    "dentist</w>": 6448,
    "inely</w>": 6449,
    "raised</w>": 6450,
    "scrambled</w>": 6451,
    "aluminum</w>": 6452,
    "mad</w>": 6453,
    "manage</w>": 6454,
    "watermelon</w>": 6455,
    "lunch": 6456,
    "chorizo</w>": 6457,
    "lash</w>": 6458,
    "max</w>": 6459,
    "herbal</w>": 6460,
    "sooner</w>": 6461,
    "wa</w>": 6462,
    "subpar</w>": 6463,
    "shoe</w>": 6464,
    "scheduled</w>": 6465,
    "tan</w>": 6466,
    "compe": 6467,
    "guac</w>": 6468,
    "lately</w>": 6469,
    "substanti": 6470,
    "kan": 6471,
    "cats</w>": 6472,
    "unt</w>": 6473,
    "glutenfree</w>": 6474,
    "mimosas</w>": 6475,
    "sashi": 6476,
    "lasagna</w>": 6477,
    "rati": 6478,
    "bridge</w>": 6479,
    "clam": 6480,
    "king": 6481,
    "afford</w>": 6482,
    "du</w>": 6483,
    "father</w>": 6484,
    "bear": 6485,
    "nutritional</w>": 6486,
    "exciting</w>": 6487,
    "grounds</w>": 6488,
    "tious</w>": 6489,
    "maker</w>": 6490,
    "earl</w>": 6491,
    "smoky</w>": 6492,
    "enchiladas</w>": 6493,
    "tless</w>": 6494,
    "spiced</w>": 6495,
    "greatly</w>": 6496,
    "rum</w>": 6497,
    "grouper</w>": 6498,
    "beginner</w>": 6499,
    "lap": 6500,
    "swing</w>": 6501,
    "plays</w>": 6502,
    "ben</w>": 6503,
    "judge</w>": 6504,
    "face": 6505,
    "era</w>": 6506,
    "weekday</w>": 6507,
    "ga</w>": 6508,
    "fashion</w>": 6509,
    "maintain": 6510,
    "clim": 6511,
    "carn": 6512,
    "ting": 6513,
    "sticking</w>": 6514,
    "drive": 6515,
    "opens</w>": 6516,
    "igh</w>": 6517,
    "sable</w>": 6518,
    "child": 6519,
    "residue</w>": 6520,
    "pins</w>": 6521,
    "crepes</w>": 6522,
    "sorts</w>": 6523,
    "release</w>": 6524,
    "pickup</w>": 6525,
    "tedly</w>": 6526,
    "outer</w>": 6527,
    "hh</w>": 6528,
    "sac": 6529,
    "culinary</w>": 6530,
    "everybody</w>": 6531,
    "hable</w>": 6532,
    "falafel</w>": 6533,
    "ingy</w>": 6534,
    "profession": 6535,
    "contents</w>": 6536,
    "sleeve</w>": 6537,
    "impeccable</w>": 6538,
    "exceeded</w>": 6539,
    "tom</w>": 6540,
    "skills</w>": 6541,
    "buttons</w>": 6542,
    "background</w>": 6543,
    "sashimi</w>": 6544,
    "ceiling</w>": 6545,
    "itors</w>": 6546,
    "soaked</w>": 6547,
    "unpleasant</w>": 6548,
    "measure</w>": 6549,
    "acry": 6550,
    "finger": 6551,
    "four": 6552,
    "bles</w>": 6553,
    "sop": 6554,
    "toddler</w>": 6555,
    "zers</w>": 6556,
    "articho": 6557,
    "switched</w>": 6558,
    "shit</w>": 6559,
    "boot</w>": 6560,
    "pear": 6561,
    "fty</w>": 6562,
    "cruise</w>": 6563,
    "lenti": 6564,
    "celebrate</w>": 6565,
    "nov": 6566,
    "fill": 6567,
    "maintain</w>": 6568,
    "condi": 6569,
    "layout</w>": 6570,
    "pel": 6571,
    "trim</w>": 6572,
    "coated</w>": 6573,
    "toil": 6574,
    "covering</w>": 6575,
    "adjustment</w>": 6576,
    "cycle</w>": 6577,
    "drinker</w>": 6578,
    "industry</w>": 6579,
    "jewelry</w>": 6580,
    "yaki</w>": 6581,
    "toilet</w>": 6582,
    "hello</w>": 6583,
    "costu": 6584,
    "memories</w>": 6585,
    "dislike</w>": 6586,
    "worth": 6587,
    "perfume</w>": 6588,
    "nylon</w>": 6589,
    "bottom": 6590,
    "ata</w>": 6591,
    "jambalaya</w>": 6592,
    "olo": 6593,
    "unbelievable</w>": 6594,
    "receiving</w>": 6595,
    "vision</w>": 6596,
    "joe</w>": 6597,
    "hospitality</w>": 6598,
    "chris</w>": 6599,
    "aise</w>": 6600,
    "tossed</w>": 6601,
    "eight</w>": 6602,
    "dinners</w>": 6603,
    "amen": 6604,
    "develop": 6605,
    "elegant</w>": 6606,
    "check": 6607,
    "providing</w>": 6608,
    "teria</w>": 6609,
    "stupid</w>": 6610,
    "significant</w>": 6611,
    "mold</w>": 6612,
    "api": 6613,
    "licorice</w>": 6614,
    "surprising</w>": 6615,
    "introduced</w>": 6616,
    "tempor": 6617,
    "wider</w>": 6618,
    "blah</w>": 6619,
    "velvet</w>": 6620,
    "seven</w>": 6621,
    "acid": 6622,
    "won</w>": 6623,
    "das</w>": 6624,
    "marsh": 6625,
    "hardware</w>": 6626,
    "protec": 6627,
    "milkshake</w>": 6628,
    "numbers</w>": 6629,
    "connected</w>": 6630,
    "palette</w>": 6631,
    "puff": 6632,
    "wro": 6633,
    "inedible</w>": 6634,
    "mol": 6635,
    "abi": 6636,
    "stew</w>": 6637,
    "hence</w>": 6638,
    "table": 6639,
    "asks</w>": 6640,
    "brewing</w>": 6641,
    "grate": 6642,
    "vacu": 6643,
    "glo": 6644,
    "approxim": 6645,
    "mixing</w>": 6646,
    "solved</w>": 6647,
    "boiling</w>": 6648,
    "dealership</w>": 6649,
    "runny</w>": 6650,
    "joy</w>": 6651,
    "surely</w>": 6652,
    "iphone</w>": 6653,
    "valve</w>": 6654,
    "lipstick</w>": 6655,
    "student</w>": 6656,
    "cam": 6657,
    "capac": 6658,
    "ken": 6659,
    "generic</w>": 6660,
    "toward</w>": 6661,
    "sending</w>": 6662,
    "bird</w>": 6663,
    "sunglasses</w>": 6664,
    "knots</w>": 6665,
    "beginners</w>": 6666,
    "picnic</w>": 6667,
    "diam": 6668,
    "reviewed</w>": 6669,
    "activities</w>": 6670,
    "combinations</w>": 6671,
    "forth</w>": 6672,
    "brick</w>": 6673,
    "dye</w>": 6674,
    "btw</w>": 6675,
    "staffed</w>": 6676,
    "ington</w>": 6677,
    "personality</w>": 6678,
    "holidays</w>": 6679,
    "able": 6680,
    "cane</w>": 6681,
    "wire</w>": 6682,
    "pole</w>": 6683,
    "mcdonal": 6684,
    "techn": 6685,
    "granted</w>": 6686,
    "sheets</w>": 6687,
    "napkins</w>": 6688,
    "pops</w>": 6689,
    "confusing</w>": 6690,
    "exterior</w>": 6691,
    "eyes": 6692,
    "allig": 6693,
    "force</w>": 6694,
    "pod</w>": 6695,
    "el's</w>": 6696,
    "foil</w>": 6697,
    "lake</w>": 6698,
    "tapas</w>": 6699,
    "opposed</w>": 6700,
    "breakfast": 6701,
    "appet": 6702,
    "tomor": 6703,
    "walks</w>": 6704,
    "bitterness</w>": 6705,
    "costume</w>": 6706,
    "peo": 6707,
    "embarras": 6708,
    "ona</w>": 6709,
    "jud": 6710,
    "stylish</w>": 6711,
    "phe": 6712,
    "nowhere</w>": 6713,
    "settled</w>": 6714,
    "lean</w>": 6715,
    "teed</w>": 6716,
    "edmon": 6717,
    "silver": 6718,
    "acknowled": 6719,
    "wrote</w>": 6720,
    "vel</w>": 6721,
    "legit</w>": 6722,
    "nutrition</w>": 6723,
    "crappy</w>": 6724,
    "message</w>": 6725,
    "suck</w>": 6726,
    "utensi": 6727,
    "temp</w>": 6728,
    "book": 6729,
    "hawai": 6730,
    "pretentious</w>": 6731,
    "entertaining</w>": 6732,
    "palate</w>": 6733,
    "tequil": 6734,
    "martini</w>": 6735,
    "grateful</w>": 6736,
    "limit</w>": 6737,
    "verall</w>": 6738,
    "lids</w>": 6739,
    "danger": 6740,
    "toes</w>": 6741,
    "trainer</w>": 6742,
    "gres": 6743,
    "eh</w>": 6744,
    "spanish</w>": 6745,
    "stran": 6746,
    "cappuccin": 6747,
    "waters</w>": 6748,
    "stocking</w>": 6749,
    "youtube</w>": 6750,
    "scen": 6751,
    "definite</w>": 6752,
    "mocha</w>": 6753,
    "respec": 6754,
    "aspect</w>": 6755,
    "ugly</w>": 6756,
    "adjusted</w>": 6757,
    "resistant</w>": 6758,
    "tots</w>": 6759,
    "sion": 6760,
    "south": 6761,
    "squeezed</w>": 6762,
    "calm</w>": 6763,
    "spoiled</w>": 6764,
    "amounts</w>": 6765,
    "constant</w>": 6766,
    "concerns</w>": 6767,
    "cig": 6768,
    "hesitant</w>": 6769,
    "clubs</w>": 6770,
    "enhan": 6771,
    "vid</w>": 6772,
    "sore</w>": 6773,
    "reseal": 6774,
    "muffin</w>": 6775,
    "dback</w>": 6776,
    "carne</w>": 6777,
    "yay</w>": 6778,
    "leng": 6779,
    "pig": 6780,
    "backyard</w>": 6781,
    "ethe</w>": 6782,
    "deta": 6783,
    "extended</w>": 6784,
    "aug": 6785,
    "entertainment</w>": 6786,
    "tox": 6787,
    "cashews</w>": 6788,
    "zippers</w>": 6789,
    "eved</w>": 6790,
    "weed</w>": 6791,
    "shortly</w>": 6792,
    "upgr": 6793,
    "ratio</w>": 6794,
    "assembled</w>": 6795,
    "lastly</w>": 6796,
    "dim</w>": 6797,
    "yuck</w>": 6798,
    "horri": 6799,
    "occu": 6800,
    "kn": 6801,
    "reaction</w>": 6802,
    "poli": 6803,
    "preci": 6804,
    "gently</w>": 6805,
    "german</w>": 6806,
    "quino": 6807,
    "cleanliness</w>": 6808,
    "sle": 6809,
    "uring</w>": 6810,
    "medical</w>": 6811,
    "fianc</w>": 6812,
    "success": 6813,
    "heating</w>": 6814,
    "breath</w>": 6815,
    "essentially</w>": 6816,
    "dying</w>": 6817,
    "vic": 6818,
    "mes</w>": 6819,
    "dry": 6820,
    "zipp": 6821,
    "john": 6822,
    "passing</w>": 6823,
    "chains</w>": 6824,
    "coc": 6825,
    "squash</w>": 6826,
    "tab</w>": 6827,
    "fudge</w>": 6828,
    "dable</w>": 6829,
    "kayak</w>": 6830,
    "dancing</w>": 6831,
    "diag": 6832,
    "mats</w>": 6833,
    "educ": 6834,
    "mode</w>": 6835,
    "preven": 6836,
    "fyi</w>": 6837,
    "bugs</w>": 6838,
    "curious</w>": 6839,
    "direct</w>": 6840,
    "soul</w>": 6841,
    "usb</w>": 6842,
    "mist</w>": 6843,
    "practical</w>": 6844,
    "miner": 6845,
    "animal</w>": 6846,
    "inspired</w>": 6847,
    "speciali": 6848,
    "understanding</w>": 6849,
    "encountered</w>": 6850,
    "octop": 6851,
    "attended</w>": 6852,
    "hall</w>": 6853,
    "stun": 6854,
    "costco</w>": 6855,
    "news</w>": 6856,
    "badly</w>": 6857,
    "lace</w>": 6858,
    "report</w>": 6859,
    "mediter": 6860,
    "alfredo</w>": 6861,
    "swiss</w>": 6862,
    "octopus</w>": 6863,
    "plum": 6864,
    "pattern</w>": 6865,
    "yu": 6866,
    "evenly</w>": 6867,
    "sizing</w>": 6868,
    "grape</w>": 6869,
    "cape</w>": 6870,
    "bothered</w>": 6871,
    "boil</w>": 6872,
    "ffee</w>": 6873,
    "hike</w>": 6874,
    "wind": 6875,
    "foster</w>": 6876,
    "starving</w>": 6877,
    "gummy</w>": 6878,
    "sprinkle</w>": 6879,
    "neutr": 6880,
    "holders</w>": 6881,
    "sake</w>": 6882,
    "sales": 6883,
    "sis</w>": 6884,
    "herself</w>": 6885,
    "frit": 6886,
    "synthetic</w>": 6887,
    "cling</w>": 6888,
    "fishy</w>": 6889,
    "mediterran": 6890,
    "poboy</w>": 6891,
    "score</w>": 6892,
    "everytime</w>": 6893,
    "tomorrow</w>": 6894,
    "genuinely</w>": 6895,
    "masala</w>": 6896,
    "urge</w>": 6897,
    "manual</w>": 6898,
    "remind</w>": 6899,
    "compliment</w>": 6900,
    "compon": 6901,
    "nal</w>": 6902,
    "mexic": 6903,
    "toy</w>": 6904,
    "gly": 6905,
    "hammock</w>": 6906,
    "waxing</w>": 6907,
    "watered</w>": 6908,
    "on's</w>": 6909,
    "involved</w>": 6910,
    "smiling</w>": 6911,
    "selected</w>": 6912,
    "dig</w>": 6913,
    "xious</w>": 6914,
    "ails</w>": 6915,
    "irish</w>": 6916,
    "melts</w>": 6917,
    "resealable</w>": 6918,
    "conver": 6919,
    "none": 6920,
    "like": 6921,
    "gradu": 6922,
    "sweeter</w>": 6923,
    "beats</w>": 6924,
    "acne</w>": 6925,
    "butt</w>": 6926,
    "rubbery</w>": 6927,
    "xi": 6928,
    "roomy</w>": 6929,
    "scented</w>": 6930,
    "stitching</w>": 6931,
    "clar": 6932,
    "pons</w>": 6933,
    "overwhelmed</w>": 6934,
    "hau": 6935,
    "soso</w>": 6936,
    "tattoos</w>": 6937,
    "killer</w>": 6938,
    "quinoa</w>": 6939,
    "capacity</w>": 6940,
    "an's</w>": 6941,
    "animals</w>": 6942,
    "justi": 6943,
    "bron": 6944,
    "kim": 6945,
    "beye</w>": 6946,
    "macaroni</w>": 6947,
    "aws</w>": 6948,
    "mike</w>": 6949,
    "tours</w>": 6950,
    "ining</w>": 6951,
    "approximately</w>": 6952,
    "arent</w>": 6953,
    "ribeye</w>": 6954,
    "central</w>": 6955,
    "basketball</w>": 6956,
    "weigh</w>": 6957,
    "cutic": 6958,
    "valen": 6959,
    "slipp": 6960,
    "floral</w>": 6961,
    "becomes</w>": 6962,
    "kidding</w>": 6963,
    "queen</w>": 6964,
    "brussel</w>": 6965,
    "assumed</w>": 6966,
    "styling</w>": 6967,
    "flaky</w>": 6968,
    "distr": 6969,
    "bones</w>": 6970,
    "scents</w>": 6971,
    "hydration</w>": 6972,
    "select</w>": 6973,
    "lum": 6974,
    "mediterranean</w>": 6975,
    "opposite</w>": 6976,
    "bass</w>": 6977,
    "restaurant": 6978,
    "decad": 6979,
    "ghted</w>": 6980,
    "subscribe</w>": 6981,
    "apology</w>": 6982,
    "lite</w>": 6983,
    "agu": 6984,
    "hall": 6985,
    "kick": 6986,
    "destin": 6987,
    "casino</w>": 6988,
    "genuine</w>": 6989,
    "icated</w>": 6990,
    "dispo": 6991,
    "competition</w>": 6992,
    "former</w>": 6993,
    "ocean</w>": 6994,
    "court</w>": 6995,
    "allergy</w>": 6996,
    "pier</w>": 6997,
    "county</w>": 6998,
    "washes</w>": 6999,
    "thering</w>": 7000,
    "uti": 7001,
    "bows</w>": 7002,
    "cafe": 7003,
    "ka": 7004,
    "refilled</w>": 7005,
    "tequila</w>": 7006,
    "sticker</w>": 7007,
    "gent</w>": 7008,
    "toothbrush</w>": 7009,
    "vity</w>": 7010,
    "leaked</w>": 7011,
    "stretchy</w>": 7012,
    "eclec": 7013,
    "could've</w>": 7014,
    "highlights</w>": 7015,
    "plants</w>": 7016,
    "fix": 7017,
    "tz</w>": 7018,
    "edmonton</w>": 7019,
    "pour": 7020,
    "confident</w>": 7021,
    "shoot</w>": 7022,
    "concrete</w>": 7023,
    "tablespoon</w>": 7024,
    "memory</w>": 7025,
    "client</w>": 7026,
    "recep": 7027,
    "stadium</w>": 7028,
    "fli": 7029,
    "matte</w>": 7030,
    "blt</w>": 7031,
    "lists</w>": 7032,
    "eth": 7033,
    "stir": 7034,
    "light": 7035,
    "torn</w>": 7036,
    "coar": 7037,
    "ounted</w>": 7038,
    "shim": 7039,
    "eclectic</w>": 7040,
    "recall</w>": 7041,
    "airy</w>": 7042,
    "happening</w>": 7043,
    "bare</w>": 7044,
    "entering</w>": 7045,
    "rece": 7046,
    "com</w>": 7047,
    "gallon</w>": 7048,
    "losing</w>": 7049,
    "ded": 7050,
    "bee": 7051,
    "yy": 7052,
    "bounce</w>": 7053,
    "mornings</w>": 7054,
    "fus": 7055,
    "proce": 7056,
    "pets</w>": 7057,
    "separately</w>": 7058,
    "anch": 7059,
    "insp": 7060,
    "assured</w>": 7061,
    "goodies</w>": 7062,
    "steal</w>": 7063,
    "holl": 7064,
    "fajitas</w>": 7065,
    "youll</w>": 7066,
    "conveniently</w>": 7067,
    "trader</w>": 7068,
    "conference</w>": 7069,
    "greet</w>": 7070,
    "liqui": 7071,
    "glitter</w>": 7072,
    "intake</w>": 7073,
    "absorbs</w>": 7074,
    "jones</w>": 7075,
    "asada</w>": 7076,
    "shuttle</w>": 7077,
    "pride</w>": 7078,
    "majority</w>": 7079,
    "bummer</w>": 7080,
    "forced</w>": 7081,
    "crumbs</w>": 7082,
    "boots</w>": 7083,
    "frankly</w>": 7084,
    "usive</w>": 7085,
    "swamp</w>": 7086,
    "ware": 7087,
    "dumbb": 7088,
    "flying</w>": 7089,
    "expert</w>": 7090,
    "cheapest</w>": 7091,
    "acy</w>": 7092,
    "searched</w>": 7093,
    "sparkling</w>": 7094,
    "sometime</w>": 7095,
    "mous</w>": 7096,
    "expired</w>": 7097,
    "sum": 7098,
    "perman": 7099,
    "muscle</w>": 7100,
    "matic</w>": 7101,
    "cleans</w>": 7102,
    "compres": 7103,
    "sections</w>": 7104,
    "sweet": 7105,
    "ee</w>": 7106,
    "gal</w>": 7107,
    "success</w>": 7108,
    "pale</w>": 7109,
    "goal</w>": 7110,
    "croissant</w>": 7111,
    "pregn": 7112,
    "sampled</w>": 7113,
    "pillows</w>": 7114,
    "crave</w>": 7115,
    "arriving</w>": 7116,
    "upd": 7117,
    "mage</w>": 7118,
    "dishwasher</w>": 7119,
    "inte": 7120,
    "soaps</w>": 7121,
    "mellow</w>": 7122,
    "ley's</w>": 7123,
    "installation</w>": 7124,
    "teriyaki</w>": 7125,
    "challenging</w>": 7126,
    "bug</w>": 7127,
    "method</w>": 7128,
    "pencil</w>": 7129,
    "pouches</w>": 7130,
    "saddle</w>": 7131,
    "icked</w>": 7132,
    "nicest</w>": 7133,
    "otta</w>": 7134,
    "remark": 7135,
    "econom": 7136,
    "accident</w>": 7137,
    "shaver</w>": 7138,
    "related</w>": 7139,
    "suspect</w>": 7140,
    "sugary</w>": 7141,
    "coles": 7142,
    "sessed</w>": 7143,
    "pecans</w>": 7144,
    "valentin": 7145,
    "dous</w>": 7146,
    "sher": 7147,
    "sunscreen</w>": 7148,
    "hen": 7149,
    "bear</w>": 7150,
    "raisins</w>": 7151,
    "drill</w>": 7152,
    "gat": 7153,
    "ady</w>": 7154,
    "form": 7155,
    "painted</w>": 7156,
    "pores</w>": 7157,
    "attachment</w>": 7158,
    "houses</w>": 7159,
    "acking</w>": 7160,
    "drain</w>": 7161,
    "tri</w>": 7162,
    "scope</w>": 7163,
    "crav": 7164,
    "apologize</w>": 7165,
    "tank</w>": 7166,
    "theirs</w>": 7167,
    "childhood</w>": 7168,
    "steam</w>": 7169,
    "lil</w>": 7170,
    "oud</w>": 7171,
    "university</w>": 7172,
    "mur": 7173,
    "nonetheless</w>": 7174,
    "pical</w>": 7175,
    "delu": 7176,
    "accessi": 7177,
    "jama": 7178,
    "cooling</w>": 7179,
    "holster</w>": 7180,
    "chetta</w>": 7181,
    "blew</w>": 7182,
    "jen": 7183,
    "coleslaw</w>": 7184,
    "fl</w>": 7185,
    "glaze</w>": 7186,
    "master</w>": 7187,
    "pi</w>": 7188,
    "kett": 7189,
    "substantial</w>": 7190,
    "matches</w>": 7191,
    "versions</w>": 7192,
    "depth</w>": 7193,
    "marinara</w>": 7194,
    "tribu": 7195,
    "ves": 7196,
    "deserve</w>": 7197,
    "jalapeno</w>": 7198,
    "utensils</w>": 7199,
    "appetite</w>": 7200,
    "saniti": 7201,
    "crowds</w>": 7202,
    "upside</w>": 7203,
    "poke</w>": 7204,
    "guarantee</w>": 7205,
    "incl": 7206,
    "pushed</w>": 7207,
    "seasonings</w>": 7208,
    "distri": 7209,
    "motor</w>": 7210,
    "suction</w>": 7211,
    "tourists</w>": 7212,
    "price": 7213,
    "blowing</w>": 7214,
    "claimed</w>": 7215,
    "repor": 7216,
    "motion</w>": 7217,
    "lining</w>": 7218,
    "thinks</w>": 7219,
    "sells</w>": 7220,
    "restroom</w>": 7221,
    "lai": 7222,
    "zation</w>": 7223,
    "ankle</w>": 7224,
    "repu": 7225,
    "fen": 7226,
    "shy</w>": 7227,
    "mains</w>": 7228,
    "gou": 7229,
    "wer</w>": 7230,
    "stro</w>": 7231,
    "printed</w>": 7232,
    "walnuts</w>": 7233,
    "misleading</w>": 7234,
    "connect</w>": 7235,
    "reception</w>": 7236,
    "stal": 7237,
    "deb": 7238,
    "hated</w>": 7239,
    "eag": 7240,
    "creams</w>": 7241,
    "saves</w>": 7242,
    "reorder</w>": 7243,
    "boo</w>": 7244,
    "delivers</w>": 7245,
    "appointments</w>": 7246,
    "temporary</w>": 7247,
    "expan": 7248,
    "cosme": 7249,
    "italy</w>": 7250,
    "ille</w>": 7251,
    "joe's</w>": 7252,
    "unsweetened</w>": 7253,
    "swear</w>": 7254,
    "lens</w>": 7255,
    "stain</w>": 7256,
    "breaded</w>": 7257,
    "aru": 7258,
    "brid": 7259,
    "requests</w>": 7260,
    "allowing</w>": 7261,
    "seat": 7262,
    "entic": 7263,
    "mex</w>": 7264,
    "mingly</w>": 7265,
    "inci": 7266,
    "warmth</w>": 7267,
    "blad": 7268,
    "wid": 7269,
    "replacing</w>": 7270,
    "pre</w>": 7271,
    "insulated</w>": 7272,
    "dealing</w>": 7273,
    "text</w>": 7274,
    "stern</w>": 7275,
    "cubes</w>": 7276,
    "cone</w>": 7277,
    "nephe": 7278,
    "study</w>": 7279,
    "categ": 7280,
    "cool": 7281,
    "bed": 7282,
    "lacks</w>": 7283,
    "click</w>": 7284,
    "herb</w>": 7285,
    "tact</w>": 7286,
    "curling</w>": 7287,
    "quicker</w>": 7288,
    "yelpers</w>": 7289,
    "lenses</w>": 7290,
    "asting</w>": 7291,
    "therapi": 7292,
    "stretching</w>": 7293,
    "fave</w>": 7294,
    "mother's</w>": 7295,
    "watering</w>": 7296,
    "ssing</w>": 7297,
    "shift</w>": 7298,
    "adhes": 7299,
    "ao": 7300,
    "trees</w>": 7301,
    "ricotta</w>": 7302,
    "sers</w>": 7303,
    "detailed</w>": 7304,
    "flies</w>": 7305,
    "delighted</w>": 7306,
    "bright": 7307,
    "unhappy</w>": 7308,
    "silverware</w>": 7309,
    "ags</w>": 7310,
    "discounted</w>": 7311,
    "cappuccino</w>": 7312,
    "difficul": 7313,
    "distribu": 7314,
    "neutral</w>": 7315,
    "tricky</w>": 7316,
    "artist</w>": 7317,
    "raved</w>": 7318,
    "oni": 7319,
    "bai": 7320,
    "sus</w>": 7321,
    "bearing</w>": 7322,
    "barber</w>": 7323,
    "dor": 7324,
    "sciss": 7325,
    "supermarket</w>": 7326,
    "fear</w>": 7327,
    "movies</w>": 7328,
    "brit": 7329,
    "series</w>": 7330,
    "louisi": 7331,
    "wellmade</w>": 7332,
    "significantly</w>": 7333,
    "sweets</w>": 7334,
    "balsam": 7335,
    "balsamic</w>": 7336,
    "trained</w>": 7337,
    "explaining</w>": 7338,
    "explan": 7339,
    "sim": 7340,
    "jan": 7341,
    "vendor</w>": 7342,
    "scared</w>": 7343,
    "tery</w>": 7344,
    "hire</w>": 7345,
    "theat": 7346,
    "whit": 7347,
    "gal": 7348,
    "courty": 7349,
    "old": 7350,
    "brussels</w>": 7351,
    "mirac": 7352,
    "contained</w>": 7353,
    "gau": 7354,
    "rechar": 7355,
    "sep": 7356,
    "celery</w>": 7357,
    "player</w>": 7358,
    "carbon": 7359,
    "lap</w>": 7360,
    "sooooo</w>": 7361,
    "silly</w>": 7362,
    "crepe</w>": 7363,
    "elimin": 7364,
    "smoother</w>": 7365,
    "grains</w>": 7366,
    "tangle</w>": 7367,
    "motiv": 7368,
    "plant": 7369,
    "just": 7370,
    "magazine</w>": 7371,
    "sunny</w>": 7372,
    "glazed</w>": 7373,
    "closure</w>": 7374,
    "lessly</w>": 7375,
    "mmmm": 7376,
    "tangles</w>": 7377,
    "enjoys</w>": 7378,
    "error</w>": 7379,
    "path</w>": 7380,
    "indepen": 7381,
    "etou": 7382,
    "techni": 7383,
    "drip</w>": 7384,
    "carried</w>": 7385,
    "quote</w>": 7386,
    "defl": 7387,
    "broad": 7388,
    "dangerous</w>": 7389,
    "thanks": 7390,
    "gooey</w>": 7391,
    "elevator</w>": 7392,
    "false</w>": 7393,
    "brake</w>": 7394,
    "cev": 7395,
    "dv": 7396,
    "shock</w>": 7397,
    "unbiased</w>": 7398,
    "dedic": 7399,
    "err": 7400,
    "gula</w>": 7401,
    "bait</w>": 7402,
    "trade</w>": 7403,
    "continues</w>": 7404,
    "pear</w>": 7405,
    "destination</w>": 7406,
    "diverse</w>": 7407,
    "regrets</w>": 7408,
    "extreme</w>": 7409,
    "sev": 7410,
    "lunches</w>": 7411,
    "kabo": 7412,
    "hats</w>": 7413,
    "exceptionally</w>": 7414,
    "endless</w>": 7415,
    "matters</w>": 7416,
    "tering</w>": 7417,
    "thous": 7418,
    "fusion</w>": 7419,
    "record</w>": 7420,
    "squi": 7421,
    "acting</w>": 7422,
    "chinat": 7423,
    "hrs</w>": 7424,
    "caring</w>": 7425,
    "couch</w>": 7426,
    "dc": 7427,
    "statement</w>": 7428,
    "fight</w>": 7429,
    "buyer</w>": 7430,
    "lean": 7431,
    "defective</w>": 7432,
    "guessing</w>": 7433,
    "reserved</w>": 7434,
    "ultim": 7435,
    "pea</w>": 7436,
    "pleasing</w>": 7437,
    "bistro</w>": 7438,
    "gen</w>": 7439,
    "inflated</w>": 7440,
    "code</w>": 7441,
    "sliding</w>": 7442,
    "model": 7443,
    "niece</w>": 7444,
    "slim</w>": 7445,
    "streng": 7446,
    "casser": 7447,
    "bos</w>": 7448,
    "smokey</w>": 7449,
    "try": 7450,
    "mand": 7451,
    "appetizing</w>": 7452,
    "tti</w>": 7453,
    "twee": 7454,
    "fragrant</w>": 7455,
    "invest": 7456,
    "character</w>": 7457,
    "milit": 7458,
    "better": 7459,
    "charger</w>": 7460,
    "conditions</w>": 7461,
    "broad</w>": 7462,
    "icians</w>": 7463,
    "unexpected</w>": 7464,
    "rements</w>": 7465,
    "coloring</w>": 7466,
    "meatball</w>": 7467,
    "broo": 7468,
    "stones</w>": 7469,
    "becoming</w>": 7470,
    "meric</w>": 7471,
    "modi": 7472,
    "crabs</w>": 7473,
    "wow": 7474,
    "deliciousness</w>": 7475,
    "abi</w>": 7476,
    "household</w>": 7477,
    "men's</w>": 7478,
    "box": 7479,
    "addicted</w>": 7480,
    "conditioning</w>": 7481,
    "effects</w>": 7482,
    "coupons</w>": 7483,
    "pia</w>": 7484,
    "ony</w>": 7485,
    "argu": 7486,
    "racha</w>": 7487,
    "communication</w>": 7488,
    "creating</w>": 7489,
    "pit</w>": 7490,
    "chops</w>": 7491,
    "whim</w>": 7492,
    "caution</w>": 7493,
    "desper": 7494,
    "absorb</w>": 7495,
    "plans</w>": 7496,
    "arugula</w>": 7497,
    "eries</w>": 7498,
    "restric": 7499,
    "tier</w>": 7500,
    "obsessed</w>": 7501,
    "sloppy</w>": 7502,
    "ern</w>": 7503,
    "chunky</w>": 7504,
    "hoagie</w>": 7505,
    "choosing</w>": 7506,
    "moon</w>": 7507,
    "primar": 7508,
    "gress</w>": 7509,
    "flatbread</w>": 7510,
    "preparation</w>": 7511,
    "boar": 7512,
    "dude</w>": 7513,
    "trail": 7514,
    "micha": 7515,
    "breading</w>": 7516,
    "onable</w>": 7517,
    "kudos</w>": 7518,
    "paper": 7519,
    "crafted</w>": 7520,
    "starters</w>": 7521,
    "kat": 7522,
    "balcon": 7523,
    "diamond</w>": 7524,
    "log": 7525,
    "microw": 7526,
    "phil": 7527,
    "pairing</w>": 7528,
    "tightly</w>": 7529,
    "depends</w>": 7530,
    "bedr": 7531,
    "line": 7532,
    "insert</w>": 7533,
    "protective</w>": 7534,
    "chinatown</w>": 7535,
    "freezing</w>": 7536,
    "labeled</w>": 7537,
    "ormous</w>": 7538,
    "pistachio</w>": 7539,
    "exist": 7540,
    "adventur": 7541,
    "trucks</w>": 7542,
    "carni": 7543,
    "pumps</w>": 7544,
    "diame": 7545,
    "ugh</w>": 7546,
    "pile</w>": 7547,
    "entered</w>": 7548,
    "concoc": 7549,
    "phar": 7550,
    "maintained</w>": 7551,
    "coordin": 7552,
    "outr": 7553,
    "ultimately</w>": 7554,
    "confidence</w>": 7555,
    "freaking</w>": 7556,
    "pitcher</w>": 7557,
    "til": 7558,
    "husbands</w>": 7559,
    "dull</w>": 7560,
    "lesson</w>": 7561,
    "monitor</w>": 7562,
    "loops</w>": 7563,
    "disappe": 7564,
    "forgotten</w>": 7565,
    "equal</w>": 7566,
    "fool</w>": 7567,
    "tings</w>": 7568,
    "courtyard</w>": 7569,
    "scu": 7570,
    "fog</w>": 7571,
    "ums</w>": 7572,
    "sodas</w>": 7573,
    "chatting</w>": 7574,
    "reviewing</w>": 7575,
    "decorations</w>": 7576,
    "gam": 7577,
    "repurchase</w>": 7578,
    "repairs</w>": 7579,
    "thanksgiving</w>": 7580,
    "cancel</w>": 7581,
    "bors</w>": 7582,
    "toe</w>": 7583,
    "chocolat": 7584,
    "jumbo</w>": 7585,
    "strug": 7586,
    "tied</w>": 7587,
    "ung</w>": 7588,
    "pale": 7589,
    "prosci": 7590,
    "everyone's</w>": 7591,
    "primarily</w>": 7592,
    "shaved</w>": 7593,
    "horse</w>": 7594,
    "themed</w>": 7595,
    "conceal": 7596,
    "sthis</w>": 7597,
    "zippered</w>": 7598,
    "lively</w>": 7599,
    "prosciu": 7600,
    "alley</w>": 7601,
    "mani": 7602,
    "managers</w>": 7603,
    "holic</w>": 7604,
    "meaty</w>": 7605,
    "sucked</w>": 7606,
    "gesti": 7607,
    "listening</w>": 7608,
    "rosemary</w>": 7609,
    "sweeteners</w>": 7610,
    "pig</w>": 7611,
    "louisiana</w>": 7612,
    "rounds</w>": 7613,
    "squir": 7614,
    "vary</w>": 7615,
    "transport</w>": 7616,
    "ideas</w>": 7617,
    "dog": 7618,
    "piping</w>": 7619,
    "frustrated</w>": 7620,
    "roof</w>": 7621,
    "boise</w>": 7622,
    "checks</w>": 7623,
    "woods</w>": 7624,
    "royal</w>": 7625,
    "acrylic</w>": 7626,
    "sque": 7627,
    "tablespoons</w>": 7628,
    "image</w>": 7629,
    "liber": 7630,
    "convinced</w>": 7631,
    "shades</w>": 7632,
    "esthe": 7633,
    "flavour</w>": 7634,
    "adventure</w>": 7635,
    "beha": 7636,
    "wrapping</w>": 7637,
    "neighbors</w>": 7638,
    "pouring</w>": 7639,
    "apologetic</w>": 7640,
    "wrinkles</w>": 7641,
    "adap": 7642,
    "bells</w>": 7643,
    "clue</w>": 7644,
    "commercial</w>": 7645,
    "downhill</w>": 7646,
    "competitive</w>": 7647,
    "treas": 7648,
    "coarse</w>": 7649,
    "arrives</w>": 7650,
    "causing</w>": 7651,
    "sri": 7652,
    "film</w>": 7653,
    "rollers</w>": 7654,
    "primer</w>": 7655,
    "tangled</w>": 7656,
    "combs</w>": 7657,
    "fren": 7658,
    "lava</w>": 7659,
    "visu": 7660,
    "dipped</w>": 7661,
    "dill</w>": 7662,
    "buttermilk</w>": 7663,
    "oil": 7664,
    "infused</w>": 7665,
    "blueberries</w>": 7666,
    "decadent</w>": 7667,
    "newer</w>": 7668,
    "shooting</w>": 7669,
    "pushing</w>": 7670,
    "who's</w>": 7671,
    "scrump": 7672,
    "route</w>": 7673,
    "sunda": 7674,
    "listened</w>": 7675,
    "vy</w>": 7676,
    "consume</w>": 7677,
    "dips</w>": 7678,
    "zens</w>": 7679,
    "western</w>": 7680,
    "shed": 7681,
    "tens</w>": 7682,
    "evid": 7683,
    "soft": 7684,
    "array</w>": 7685,
    "tik": 7686,
    "reception": 7687,
    "seaweed</w>": 7688,
    "connection</w>": 7689,
    "rock": 7690,
    "responsive</w>": 7691,
    "exposed</w>": 7692,
    "deluxe</w>": 7693,
    "scissors</w>": 7694,
    "thumb</w>": 7695,
    "dropping</w>": 7696,
    "understood</w>": 7697,
    "shells</w>": 7698,
    "slider</w>": 7699,
    "concert</w>": 7700,
    "movement</w>": 7701,
    "build": 7702,
    "america</w>": 7703,
    "ami</w>": 7704,
    "slippery</w>": 7705,
    "quir": 7706,
    "calzone</w>": 7707,
    "military</w>": 7708,
    "shadow</w>": 7709,
    "bladder</w>": 7710,
    "hunting</w>": 7711,
    "cleansing</w>": 7712,
    "prosciutto</w>": 7713,
    "bruschetta</w>": 7714,
    "fing</w>": 7715,
    "delec": 7716,
    "twenty</w>": 7717,
    "testing</w>": 7718,
    "remaining</w>": 7719,
    "mounting</w>": 7720,
    "clearwater</w>": 7721,
    "fuel</w>": 7722,
    "pli": 7723,
    "yeast</w>": 7724,
    "gan": 7725,
    "excess</w>": 7726,
    "uck": 7727,
    "mous": 7728,
    "carnitas</w>": 7729,
    "stakes</w>": 7730,
    "client": 7731,
    "drun": 7732,
    "companion</w>": 7733,
    "sprinkled</w>": 7734,
    "surrounding</w>": 7735,
    "jeans</w>": 7736,
    "handling</w>": 7737,
    "voice</w>": 7738,
    "chamom": 7739,
    "braised</w>": 7740,
    "nutty</w>": 7741,
    "certified</w>": 7742,
    "explore</w>": 7743,
    "milkshakes</w>": 7744,
    "kati": 7745,
    "feedback</w>": 7746,
    "luster</w>": 7747,
    "rainy</w>": 7748,
    "sky</w>": 7749,
    "drivers</w>": 7750,
    "accessible</w>": 7751,
    "hydro": 7752,
    "angel": 7753,
    "vegetarians</w>": 7754,
    "beignet</w>": 7755,
    "cranberry</w>": 7756,
    "mental</w>": 7757,
    "chic</w>": 7758,
    "divi": 7759,
    "quired</w>": 7760,
    "million</w>": 7761,
    "ral": 7762,
    "peeling</w>": 7763,
    "investment</w>": 7764,
    "smu": 7765,
    "jalapeo</w>": 7766,
    "project</w>": 7767,
    "ele</w>": 7768,
    "oran": 7769,
    "esi</w>": 7770,
    "backs</w>": 7771,
    "counter": 7772,
    "children's</w>": 7773,
    "hurric": 7774,
    "trap</w>": 7775,
    "arthrit": 7776,
    "appeal</w>": 7777,
    "karao": 7778,
    "han</w>": 7779,
    "euro": 7780,
    "aka</w>": 7781,
    "sue</w>": 7782,
    "forms</w>": 7783,
    "hunt</w>": 7784,
    "headache</w>": 7785,
    "impact</w>": 7786,
    "wigs</w>": 7787,
    "passion</w>": 7788,
    "additionally</w>": 7789,
    "nutella</w>": 7790,
    "corners</w>": 7791,
    "advertising</w>": 7792,
    "wanna</w>": 7793,
    "semi": 7794,
    "steakhouse</w>": 7795,
    "ko</w>": 7796,
    "marri": 7797,
    "diameter</w>": 7798,
    "arrange": 7799,
    "gras": 7800,
    "anticipated</w>": 7801,
    "rules</w>": 7802,
    "miser": 7803,
    "tioning</w>": 7804,
    "cumin</w>": 7805,
    "snacking</w>": 7806,
    "adventurous</w>": 7807,
    "splash</w>": 7808,
    "sunflower</w>": 7809,
    "dj</w>": 7810,
    "imo</w>": 7811,
    "monthly</w>": 7812,
    "shelves</w>": 7813,
    "ceviche</w>": 7814,
    "visi": 7815,
    "perform</w>": 7816,
    "turmeric</w>": 7817,
    "carrier</w>": 7818,
    "desire</w>": 7819,
    "hide</w>": 7820,
    "karaoke</w>": 7821,
    "sporting</w>": 7822,
    "athle": 7823,
    "ruin</w>": 7824,
    "gnon</w>": 7825,
    "brag": 7826,
    "cones</w>": 7827,
    "stains</w>": 7828,
    "suitable</w>": 7829,
    "cross": 7830,
    "growth</w>": 7831,
    "grape": 7832,
    "blender</w>": 7833,
    "birds</w>": 7834,
    "where": 7835,
    "tv": 7836,
    "ann": 7837,
    "buddy</w>": 7838,
    "vendors</w>": 7839,
    "iser</w>": 7840,
    "advise</w>": 7841,
    "never": 7842,
    "toys</w>": 7843,
    "subj": 7844,
    "race</w>": 7845,
    "chin</w>": 7846,
    "bolt</w>": 7847,
    "talented</w>": 7848,
    "plaza</w>": 7849,
    "tacky</w>": 7850,
    "pharmac": 7851,
    "fif": 7852,
    "should've</w>": 7853,
    "march</w>": 7854,
    "chit": 7855,
    "outrage": 7856,
    "responded</w>": 7857,
    "noti": 7858,
    "float</w>": 7859,
    "eyesha": 7860,
    "covid</w>": 7861,
    "fig</w>": 7862,
    "tint</w>": 7863,
    "icity</w>": 7864,
    "bouti": 7865,
    "matched</w>": 7866,
    "basement</w>": 7867,
    "native</w>": 7868,
    "quit</w>": 7869,
    "travel": 7870,
    "walnut</w>": 7871,
    "peace</w>": 7872,
    "mare</w>": 7873,
    "alligator</w>": 7874,
    "sum</w>": 7875,
    "placing</w>": 7876,
    "media</w>": 7877,
    "carameli": 7878,
    "smallest</w>": 7879,
    "wasabi</w>": 7880,
    "smashed</w>": 7881,
    "vable</w>": 7882,
    "explo": 7883,
    "uv</w>": 7884,
    "summ": 7885,
    "saver</w>": 7886,
    "rechargeable</w>": 7887,
    "patience</w>": 7888,
    "intri": 7889,
    "clin": 7890,
    "raving</w>": 7891,
    "ani</w>": 7892,
    "commented</w>": 7893,
    "elli</w>": 7894,
    "diet": 7895,
    "subway</w>": 7896,
    "planet</w>": 7897,
    "ided</w>": 7898,
    "touched</w>": 7899,
    "ythe</w>": 7900,
    "convention</w>": 7901,
    "storm</w>": 7902,
    "malay": 7903,
    "flash</w>": 7904,
    "franc": 7905,
    "place": 7906,
    "scrumptious</w>": 7907,
    "chile</w>": 7908,
    "uber</w>": 7909,
    "habit</w>": 7910,
    "hers</w>": 7911,
    "ritten": 7912,
    "pam": 7913,
    "rr": 7914,
    "whip</w>": 7915,
    "biscus</w>": 7916,
    "plast": 7917,
    "firm": 7918,
    "june</w>": 7919,
    "cole</w>": 7920,
    "tropical</w>": 7921,
    "eager</w>": 7922,
    "valley</w>": 7923,
    "crystal</w>": 7924,
    "aromatic</w>": 7925,
    "mpoo": 7926,
    "quie": 7927,
    "tayl": 7928,
    "cuz</w>": 7929,
    "cared</w>": 7930,
    "must": 7931,
    "blues</w>": 7932,
    "acts</w>": 7933,
    "post": 7934,
    "ethi": 7935,
    "carab": 7936,
    "shell": 7937,
    "artichoke</w>": 7938,
    "guilty</w>": 7939,
    "wild": 7940,
    "uneven</w>": 7941,
    "brie</w>": 7942,
    "det": 7943,
    "skinny</w>": 7944,
    "honey's</w>": 7945,
    "hose</w>": 7946,
    "bin": 7947,
    "rim</w>": 7948,
    "laundry</w>": 7949,
    "seared</w>": 7950,
    "cani": 7951,
    "meets</w>": 7952,
    "cherries</w>": 7953,
    "irritation</w>": 7954,
    "ethiop": 7955,
    "chamomile</w>": 7956,
    "van</w>": 7957,
    "dness</w>": 7958,
    "protected</w>": 7959,
    "shampoo": 7960,
    "here": 7961,
    "effici": 7962,
    "bu</w>": 7963,
    "chilled</w>": 7964,
    "zer": 7965,
    "extra": 7966,
    "august</w>": 7967,
    "rittenhouse</w>": 7968,
    "kit": 7969,
    "sedly</w>": 7970,
    "sian</w>": 7971,
    "hibiscus</w>": 7972,
    "saint</w>": 7973,
    "culture</w>": 7974,
    "frames</w>": 7975,
    "google</w>": 7976,
    "aioli</w>": 7977,
    "buffe": 7978,
    "accompanied</w>": 7979,
    "bedroom</w>": 7980,
    "recy": 7981,
    "width</w>": 7982,
    "horser": 7983,
    "soo</w>": 7984,
    "breath": 7985,
    "loyal</w>": 7986,
    "unfortunate</w>": 7987,
    "gger</w>": 7988,
    "cow": 7989,
    "purchases</w>": 7990,
    "cari": 7991,
    "balcony</w>": 7992,
    "cardio</w>": 7993,
    "rif": 7994,
    "nutriti": 7995,
    "tram": 7996,
    "plane</w>": 7997,
    "unacceptable</w>": 7998,
    "closet</w>": 7999,
    "tones</w>": 8000,
    "struggle</w>": 8001,
    "consumed</w>": 8002,
    "slipping</w>": 8003,
    "yi": 8004,
    "steady</w>": 8005,
    "termin": 8006,
    "dc</w>": 8007,
    "gho": 8008,
    "bob</w>": 8009,
    "vegas</w>": 8010,
    "dissa": 8011,
    "delectable</w>": 8012,
    "filthy</w>": 8013,
    "edit</w>": 8014,
    "cal</w>": 8015,
    "heavily</w>": 8016,
    "arro": 8017,
    "kr": 8018,
    "vacuum</w>": 8019,
    "knives</w>": 8020,
    "dimen": 8021,
    "track": 8022,
    "dant</w>": 8023,
    "amenities</w>": 8024,
    "inlaw</w>": 8025,
    "decently</w>": 8026,
    "screwed</w>": 8027,
    "feel": 8028,
    "chaat</w>": 8029,
    "in'</w>": 8030,
    "pied</w>": 8031,
    "doo</w>": 8032,
    "flights</w>": 8033,
    "pron": 8034,
    "knocked</w>": 8035,
    "popping</w>": 8036,
    "laptop</w>": 8037,
    "triple</w>": 8038,
    "ultra</w>": 8039,
    "quet</w>": 8040,
    "festival</w>": 8041,
    "rounded</w>": 8042,
    "zzled</w>": 8043,
    "actions</w>": 8044,
    "confirm</w>": 8045,
    "muri": 8046,
    "stunning</w>": 8047,
    "sheer</w>": 8048,
    "clock</w>": 8049,
    "fies</w>": 8050,
    "intrigu": 8051,
    "foodie</w>": 8052,
    "bummed</w>": 8053,
    "laugh</w>": 8054,
    "salons</w>": 8055,
    "sam</w>": 8056,
    "shorts</w>": 8057,
    "whose</w>": 8058,
    "wedge</w>": 8059,
    "aa</w>": 8060,
    "acai</w>": 8061,
    "irritated</w>": 8062,
    "lly's</w>": 8063,
    "capsu": 8064,
    "camel": 8065,
    "mind": 8066,
    "disappeared</w>": 8067,
    "ooms</w>": 8068,
    "loads</w>": 8069,
    "ratings</w>": 8070,
    "insane</w>": 8071,
    "blame</w>": 8072,
    "snob</w>": 8073,
    "sufficient</w>": 8074,
    "atin</w>": 8075,
    "marke": 8076,
    "valent</w>": 8077,
    "green": 8078,
    "nels</w>": 8079,
    "reached</w>": 8080,
    "couples</w>": 8081,
    "parked</w>": 8082,
    "facing</w>": 8083,
    "favour": 8084,
    "supposedly</w>": 8085,
    "impress</w>": 8086,
    "warehouse</w>": 8087,
    "ingthe</w>": 8088,
    "approved</w>": 8089,
    "instruction</w>": 8090,
    "varied</w>": 8091,
    "suite</w>": 8092,
    "reg": 8093,
    "alas</w>": 8094,
    "brilli": 8095,
    "consul": 8096,
    "idi": 8097,
    "europe": 8098,
    "chia</w>": 8099,
    "spinning</w>": 8100,
    "formed</w>": 8101,
    "adish</w>": 8102,
    "chim": 8103,
    "ases</w>": 8104,
    "chow</w>": 8105,
    "microwav": 8106,
    "gladly</w>": 8107,
    "establishments</w>": 8108,
    "boston</w>": 8109,
    "stories</w>": 8110,
    "thankful</w>": 8111,
    "rods</w>": 8112,
    "brakes</w>": 8113,
    "sweaty</w>": 8114,
    "stream</w>": 8115,
    "patch</w>": 8116,
    "adhesive</w>": 8117,
    "safely</w>": 8118,
    "brighter</w>": 8119,
    "beets</w>": 8120,
    "retail</w>": 8121,
    "sses</w>": 8122,
    "slides</w>": 8123,
    "aqu": 8124,
    "discover</w>": 8125,
    "shedding</w>": 8126,
    "inspection</w>": 8127,
    "patties</w>": 8128,
    "closes</w>": 8129,
    "mimosa</w>": 8130,
    "angry</w>": 8131,
    "vetri</w>": 8132,
    "grinder</w>": 8133,
    "mation</w>": 8134,
    "urban</w>": 8135,
    "tang</w>": 8136,
    "sriracha</w>": 8137,
    "complicated</w>": 8138,
    "bolts</w>": 8139,
    "cafeteria</w>": 8140,
    "kev": 8141,
    "technician</w>": 8142,
    "mein</w>": 8143,
    "horseradish</w>": 8144,
    "ander</w>": 8145,
    "ora</w>": 8146,
    "upgraded</w>": 8147,
    "largest</w>": 8148,
    "skillet</w>": 8149,
    "payment</w>": 8150,
    "catching</w>": 8151,
    "uu": 8152,
    "dented</w>": 8153,
    "preserv": 8154,
    "estimate</w>": 8155,
    "booking</w>": 8156,
    "wawa</w>": 8157,
    "caramelized</w>": 8158,
    "ouse</w>": 8159,
    "medicine</w>": 8160,
    "beit</w>": 8161,
    "jour": 8162,
    "immediate</w>": 8163,
    "sni": 8164,
    "ml</w>": 8165,
    "compens": 8166,
    "insanely</w>": 8167,
    "lifetime</w>": 8168,
    "spaces</w>": 8169,
    "deciding</w>": 8170,
    "underwhelming</w>": 8171,
    "fond</w>": 8172,
    "pupp": 8173,
    "soaking</w>": 8174,
    "straws</w>": 8175,
    "satisfac": 8176,
    "lukewarm</w>": 8177,
    "pony": 8178,
    "timer</w>": 8179,
    "ers": 8180,
    "cleared</w>": 8181,
    "featured</w>": 8182,
    "prescription</w>": 8183,
    "springs</w>": 8184,
    "pit": 8185,
    "mexico</w>": 8186,
    "pony</w>": 8187,
    "lor": 8188,
    "terns</w>": 8189,
    "tically</w>": 8190,
    "rescue</w>": 8191,
    "link</w>": 8192,
    "patches</w>": 8193,
    "compass</w>": 8194,
    "admit": 8195,
    "lying</w>": 8196,
    "ry's</w>": 8197,
    "focused</w>": 8198,
    "mass</w>": 8199,
    "sleeves</w>": 8200,
    "rami": 8201,
    "spilled</w>": 8202,
    "executed</w>": 8203,
    "cure</w>": 8204,
    "stool</w>": 8205,
    "paddles</w>": 8206,
    "panini</w>": 8207,
    "brazi": 8208,
    "halfway</w>": 8209,
    "biking</w>": 8210,
    "tina</w>": 8211,
    "octo": 8212,
    "lton</w>": 8213,
    "mounted</w>": 8214,
    "ety</w>": 8215,
    "tremen": 8216,
    "kcups</w>": 8217,
    "brushing</w>": 8218,
    "trio</w>": 8219,
    "pple</w>": 8220,
    "raise</w>": 8221,
    "circle</w>": 8222,
    "sne": 8223,
    "pastor</w>": 8224,
    "ceremon": 8225,
    "eatery</w>": 8226,
    "effecti": 8227,
    "tile</w>": 8228,
    "stoo": 8229,
    "roti</w>": 8230,
    "rubbing</w>": 8231,
    "mechanism</w>": 8232,
    "ver's</w>": 8233,
    "approach</w>": 8234,
    "honor</w>": 8235,
    "drawback</w>": 8236,
    "stepped</w>": 8237,
    "vinai": 8238,
    "ax": 8239,
    "vinyl</w>": 8240,
    "beat": 8241,
    "poached</w>": 8242,
    "rye</w>": 8243,
    "ipa</w>": 8244,
    "gia</w>": 8245,
    "sundays</w>": 8246,
    "versus</w>": 8247,
    "removal</w>": 8248,
    "intact</w>": 8249,
    "recommending</w>": 8250,
    "vinaigre": 8251,
    "banh</w>": 8252,
    "las</w>": 8253,
    "bio": 8254,
    "wasting</w>": 8255,
    "emailed</w>": 8256,
    "kel</w>": 8257,
    "cree": 8258,
    "wi</w>": 8259,
    "amber</w>": 8260,
    "more": 8261,
    "operation</w>": 8262,
    "k's</w>": 8263,
    "plugs</w>": 8264,
    "seams</w>": 8265,
    "magnet</w>": 8266,
    "psi</w>": 8267,
    "medium": 8268,
    "rustic</w>": 8269,
    "vitamins</w>": 8270,
    "lack": 8271,
    "sket": 8272,
    "screens</w>": 8273,
    "respectful</w>": 8274,
    "town": 8275,
    "therapist</w>": 8276,
    "european</w>": 8277,
    "grapefruit</w>": 8278,
    "cheesesteaks</w>": 8279,
    "enos</w>": 8280,
    "marinated</w>": 8281,
    "gely</w>": 8282,
    "symp": 8283,
    "catering</w>": 8284,
    "ja</w>": 8285,
    "oured</w>": 8286,
    "ethiopian</w>": 8287,
    "oli": 8288,
    "rich": 8289,
    "geor": 8290,
    "abs</w>": 8291,
    "transfer</w>": 8292,
    "carries</w>": 8293,
    "sleek</w>": 8294,
    "envel": 8295,
    "dely</w>": 8296,
    "earned</w>": 8297,
    "eaters</w>": 8298,
    "stuffing</w>": 8299,
    "facebook</w>": 8300,
    "dump</w>": 8301,
    "money": 8302,
    "professional": 8303,
    "luxury</w>": 8304,
    "cot</w>": 8305,
    "pulls</w>": 8306,
    "identi": 8307,
    "cravings</w>": 8308,
    "haw": 8309,
    "pint</w>": 8310,
    "indoors</w>": 8311,
    "remarkable</w>": 8312,
    "facilities</w>": 8313,
    "mper</w>": 8314,
    "essence</w>": 8315,
    "ahi</w>": 8316,
    "refin": 8317,
    "tant</w>": 8318,
    "kal": 8319,
    "decades</w>": 8320,
    "easy": 8321,
    "cies</w>": 8322,
    "etc": 8323,
    "ena</w>": 8324,
    "born</w>": 8325,
    "diagno": 8326,
    "alcoholic</w>": 8327,
    "obno": 8328,
    "realistic</w>": 8329,
    "acknowledged</w>": 8330,
    "chalk</w>": 8331,
    "integr": 8332,
    "vey</w>": 8333,
    "blush</w>": 8334,
    "deliciously</w>": 8335,
    "streets</w>": 8336,
    "fourth</w>": 8337,
    "whoever</w>": 8338,
    "fail": 8339,
    "heart": 8340,
    "teac": 8341,
    "monde</w>": 8342,
    "sport": 8343,
    "ckey</w>": 8344,
    "oreg": 8345,
    "albeit</w>": 8346,
    "competent</w>": 8347,
    "pom": 8348,
    "ree</w>": 8349,
    "gas": 8350,
    "influ": 8351,
    "inconsistent</w>": 8352,
    "die": 8353,
    "boxing</w>": 8354,
    "skates</w>": 8355,
    "causes</w>": 8356,
    "caramels</w>": 8357,
    "before": 8358,
    "clientele</w>": 8359,
    "frills</w>": 8360,
    "garni": 8361,
    "rabbit</w>": 8362,
    "anna</w>": 8363,
    "ital</w>": 8364,
    "settle</w>": 8365,
    "pine</w>": 8366,
    "campus</w>": 8367,
    "venture</w>": 8368,
    "massages</w>": 8369,
    "diced</w>": 8370,
    "distinct</w>": 8371,
    "ddy</w>": 8372,
    "acao</w>": 8373,
    "spout</w>": 8374,
    "icking</w>": 8375,
    "fication</w>": 8376,
    "earthy</w>": 8377,
    "kie</w>": 8378,
    "timing</w>": 8379,
    "latest</w>": 8380,
    "mies</w>": 8381,
    "ptions</w>": 8382,
    "ford</w>": 8383,
    "boutique</w>": 8384,
    "inated</w>": 8385,
    "consisted</w>": 8386,
    "porch</w>": 8387,
    "basics</w>": 8388,
    "puppy</w>": 8389,
    "alike</w>": 8390,
    "service": 8391,
    "join</w>": 8392,
    "ery": 8393,
    "boxed</w>": 8394,
    "mousse</w>": 8395,
    "destro": 8396,
    "ultimate</w>": 8397,
    "tthe</w>": 8398,
    "elder": 8399,
    "comforting</w>": 8400,
    "crown</w>": 8401,
    "chies</w>": 8402,
    "compartments</w>": 8403,
    "reusable</w>": 8404,
    "nongmo</w>": 8405,
    "mistakes</w>": 8406,
    "adore</w>": 8407,
    "vinaigrette</w>": 8408,
    "starch</w>": 8409,
    "healing</w>": 8410,
    "song</w>": 8411,
    "hub</w>": 8412,
    "barista</w>": 8413,
    "dial</w>": 8414,
    "historic</w>": 8415,
    "wes</w>": 8416,
    "directed</w>": 8417,
    "papri": 8418,
    "silk</w>": 8419,
    "nightmare</w>": 8420,
    "pricier</w>": 8421,
    "cabin": 8422,
    "painting</w>": 8423,
    "gulf</w>": 8424,
    "extras</w>": 8425,
    "ky": 8426,
    "ph</w>": 8427,
    "ships</w>": 8428,
    "supporting</w>": 8429,
    "thread</w>": 8430,
    "chewing</w>": 8431,
    "brownies</w>": 8432,
    "escape</w>": 8433,
    "checkout</w>": 8434,
    "shield</w>": 8435,
    "tel": 8436,
    "remains</w>": 8437,
    "opinions</w>": 8438,
    "soli": 8439,
    "players</w>": 8440,
    "oat</w>": 8441,
    "easter</w>": 8442,
    "stack</w>": 8443,
    "gripe</w>": 8444,
    "burns</w>": 8445,
    "technic": 8446,
    "hockey</w>": 8447,
    "zuc": 8448,
    "checkin</w>": 8449,
    "two": 8450,
    "hang": 8451,
    "ally": 8452,
    "mobi": 8453,
    "sites</w>": 8454,
    "roughly</w>": 8455,
    "nephew</w>": 8456,
    "scrun": 8457,
    "slick</w>": 8458,
    "damp</w>": 8459,
    "eyeshadow</w>": 8460,
    "brun": 8461,
    "rango": 8462,
    "roots</w>": 8463,
    "explanation</w>": 8464,
    "northern</w>": 8465,
    "cab</w>": 8466,
    "aggres": 8467,
    "resem": 8468,
    "tiki</w>": 8469,
    "slam": 8470,
    "micro</w>": 8471,
    "envelop": 8472,
    "trampo": 8473,
    "bangs</w>": 8474,
    "throat</w>": 8475,
    "creates</w>": 8476,
    "fence</w>": 8477,
    "males</w>": 8478,
    "crusted</w>": 8479,
    "agged</w>": 8480,
    "spill</w>": 8481,
    "pau": 8482,
    "truth</w>": 8483,
    "ph's</w>": 8484,
    "spiciness</w>": 8485,
    "satisfaction</w>": 8486,
    "mechanic</w>": 8487,
    "dedicated</w>": 8488,
    "magical</w>": 8489,
    "atm</w>": 8490,
    "completed</w>": 8491,
    "fluid</w>": 8492,
    "apri": 8493,
    "slept</w>": 8494,
    "sequ": 8495,
    "thoughts</w>": 8496,
    "remain</w>": 8497,
    "sm</w>": 8498,
    "obj": 8499,
    "suppl": 8500,
    "itchy</w>": 8501,
    "poly": 8502,
    "logy</w>": 8503,
    "pedal</w>": 8504,
    "os": 8505,
    "reminis": 8506,
    "receptionist</w>": 8507,
    "groceries</w>": 8508,
    "inge</w>": 8509,
    "insisted</w>": 8510,
    "somebody</w>": 8511,
    "quis": 8512,
    "mos</w>": 8513,
    "'n</w>": 8514,
    "cheers</w>": 8515,
    "lattes</w>": 8516,
    "resort</w>": 8517,
    "pastas</w>": 8518,
    "zip": 8519,
    "lugg": 8520,
    "farmers</w>": 8521,
    "advised</w>": 8522,
    "visitors</w>": 8523,
    "anda</w>": 8524,
    "muriel's</w>": 8525,
    "ots</w>": 8526,
    "whistle</w>": 8527,
    "leak": 8528,
    "grandkids</w>": 8529,
    "kcup</w>": 8530,
    "gator</w>": 8531,
    "captain</w>": 8532,
    "enormous</w>": 8533,
    "injury</w>": 8534,
    "alized</w>": 8535,
    "bachel": 8536,
    "referred</w>": 8537,
    "taver": 8538,
    "jo</w>": 8539,
    "radi": 8540,
    "keeper</w>": 8541,
    "anybody</w>": 8542,
    "tackle</w>": 8543,
    "produced</w>": 8544,
    "yrs</w>": 8545,
    "exfoliating</w>": 8546,
    "sex": 8547,
    "michael</w>": 8548,
    "apric": 8549,
    "homey</w>": 8550,
    "cousin</w>": 8551,
    "tirami": 8552,
    "ores</w>": 8553,
    "women's</w>": 8554,
    "rates</w>": 8555,
    "mani</w>": 8556,
    "alle": 8557,
    "scary</w>": 8558,
    "stling</w>": 8559,
    "smiles</w>": 8560,
    "lentils</w>": 8561,
    "vements</w>": 8562,
    "irritate</w>": 8563,
    "gloss</w>": 8564,
    "var": 8565,
    "reference</w>": 8566,
    "ancy</w>": 8567,
    "grabbing</w>": 8568,
    "successful</w>": 8569,
    "nug": 8570,
    "unsure</w>": 8571,
    "easiest</w>": 8572,
    "room": 8573,
    "scotch</w>": 8574,
    "tony</w>": 8575,
    "tract</w>": 8576,
    "drag</w>": 8577,
    "october</w>": 8578,
    "diseas": 8579,
    "simpl": 8580,
    "tose</w>": 8581,
    "msg</w>": 8582,
    "lightest</w>": 8583,
    "bison</w>": 8584,
    "unnecessary</w>": 8585,
    "foie</w>": 8586,
    "i's</w>": 8587,
    "ace": 8588,
    "mmmm</w>": 8589,
    "quoted</w>": 8590,
    "oddly</w>": 8591,
    "coal</w>": 8592,
    "diabetic</w>": 8593,
    "discontinued</w>": 8594,
    "moisturized</w>": 8595,
    "babies</w>": 8596,
    "aker</w>": 8597,
    "unlimited</w>": 8598,
    "essions</w>": 8599,
    "mignon</w>": 8600,
    "ji</w>": 8601,
    "title</w>": 8602,
    "steri": 8603,
    "respond</w>": 8604,
    "reflective</w>": 8605,
    "laying</w>": 8606,
    "floating</w>": 8607,
    "rep</w>": 8608,
    "ares</w>": 8609,
    "attempted</w>": 8610,
    "kimchi</w>": 8611,
    "weighs</w>": 8612,
    "brightness</w>": 8613,
    "snorkel</w>": 8614,
    "isco</w>": 8615,
    "eastern</w>": 8616,
    "tv's</w>": 8617,
    "assist</w>": 8618,
    "dang</w>": 8619,
    "vou": 8620,
    "multi</w>": 8621,
    "ques</w>": 8622,
    "favourite</w>": 8623,
    "bud</w>": 8624,
    "sophi": 8625,
    "visor</w>": 8626,
    "byo</w>": 8627,
    "proud</w>": 8628,
    "entry</w>": 8629,
    "rainbow</w>": 8630,
    "orn</w>": 8631,
    "operate</w>": 8632,
    "confirmed</w>": 8633,
    "theast</w>": 8634,
    "difficulty</w>": 8635,
    "digesti": 8636,
    "wavy</w>": 8637,
    "kom": 8638,
    "shipment</w>": 8639,
    "politely</w>": 8640,
    "ama</w>": 8641,
    "cer</w>": 8642,
    "restrooms</w>": 8643,
    "seasons</w>": 8644,
    "manageable</w>": 8645,
    "hundre": 8646,
    "deep": 8647,
    "instructor</w>": 8648,
    "ingi</w>": 8649,
    "cacao</w>": 8650,
    "videoi": 8651,
    "nespresso</w>": 8652,
    "doughnuts</w>": 8653,
    "noo": 8654,
    "casserole</w>": 8655,
    "luggage</w>": 8656,
    "shif": 8657,
    "adjustments</w>": 8658,
    "april</w>": 8659,
    "andy</w>": 8660,
    "permanent</w>": 8661,
    "fryer</w>": 8662,
    "justify</w>": 8663,
    "six": 8664,
    "dad": 8665,
    "brewer": 8666,
    "sprinkles</w>": 8667,
    "asap</w>": 8668,
    "hurricane</w>": 8669,
    "threads</w>": 8670,
    "models</w>": 8671,
    "buckle</w>": 8672,
    "parac": 8673,
    "worries</w>": 8674,
    "incorrect</w>": 8675,
    "kettle</w>": 8676,
    "sic": 8677,
    "tos</w>": 8678,
    "naise</w>": 8679,
    "reality</w>": 8680,
    "rotation</w>": 8681,
    "trek</w>": 8682,
    "veter": 8683,
    "equivalent</w>": 8684,
    "hurts</w>": 8685,
    "wonders</w>": 8686,
    "compression</w>": 8687,
    "underwhelmed</w>": 8688,
    "navig": 8689,
    "brazilian</w>": 8690,
    "assistance</w>": 8691,
    "tiramisu</w>": 8692,
    "luxuri": 8693,
    "o'": 8694,
    "eni": 8695,
    "breaker</w>": 8696,
    "jamaican</w>": 8697,
    "powder": 8698,
    "iden": 8699,
    "trampoline</w>": 8700,
    "stability</w>": 8701,
    "nj</w>": 8702,
    "church</w>": 8703,
    "severe</w>": 8704,
    "gist</w>": 8705,
    "much": 8706,
    "vehicles</w>": 8707,
    "comparing</w>": 8708,
    "automat": 8709,
    "ember</w>": 8710,
    "bubbles</w>": 8711,
    "booze</w>": 8712,
    "backup</w>": 8713,
    "drewes</w>": 8714,
    "leftover</w>": 8715,
    "sign": 8716,
    "figh": 8717,
    "delicious": 8718,
    "'m</w>": 8719,
    "disposable</w>": 8720,
    "quality": 8721,
    "aven": 8722,
    "samo": 8723,
    "artists</w>": 8724,
    "den</w>": 8725,
    "sourdough</w>": 8726,
    "sed": 8727,
    "differently</w>": 8728,
    "chilly</w>": 8729,
    "science</w>": 8730,
    "gardens</w>": 8731,
    "paradi": 8732,
    "zar": 8733,
    "magnets</w>": 8734,
    "laser</w>": 8735,
    "emergencies</w>": 8736,
    "clippers</w>": 8737,
    "condiments</w>": 8738,
    "french": 8739,
    "turtle</w>": 8740,
    "ly's</w>": 8741,
    "random": 8742,
    "sup</w>": 8743,
    "whom</w>": 8744,
    "suits</w>": 8745,
    "tikka</w>": 8746,
    "yearold</w>": 8747,
    "mom's</w>": 8748,
    "collard</w>": 8749,
    "ski</w>": 8750,
    "commu": 8751,
    "handlebar</w>": 8752,
    "subur": 8753,
    "zucchin": 8754,
    "exotic</w>": 8755,
    "atedly</w>": 8756,
    "miracle</w>": 8757,
    "hook": 8758,
    "calming</w>": 8759,
    "trails</w>": 8760,
    "greater</w>": 8761,
    "rup": 8762,
    "mirr": 8763,
    "reputation</w>": 8764,
    "matt</w>": 8765,
    "inconvenience</w>": 8766,
    "occupied</w>": 8767,
    "lia</w>": 8768,
    "nevertheless</w>": 8769,
    "bored</w>": 8770,
    "salt": 8771,
    "hoop</w>": 8772,
    "itthe</w>": 8773,
    "stee": 8774,
    "potassi": 8775,
    "behavi": 8776,
    "mber</w>": 8777,
    "tipped</w>": 8778,
    "muy</w>": 8779,
    "performed</w>": 8780,
    "boss</w>": 8781,
    "december</w>": 8782,
    "splurge</w>": 8783,
    "brain</w>": 8784,
    "cancer</w>": 8785,
    "identical</w>": 8786,
    "storing</w>": 8787,
    "racket</w>": 8788,
    "cow</w>": 8789,
    "tears</w>": 8790,
    "kish</w>": 8791,
    "understand": 8792,
    "cb": 8793,
    "j's</w>": 8794,
    "carmel</w>": 8795,
    "bottle": 8796,
    "dispenser</w>": 8797,
    "van": 8798,
    "sweating</w>": 8799,
    "wherever</w>": 8800,
    "snaps</w>": 8801,
    "protects</w>": 8802,
    "instructors</w>": 8803,
    "carol": 8804,
    "fresher</w>": 8805,
    "thy": 8806,
    "disaster</w>": 8807,
    "whats</w>": 8808,
    "unbelievably</w>": 8809,
    "lassi</w>": 8810,
    "west": 8811,
    "elements</w>": 8812,
    "mph</w>": 8813,
    "paprika</w>": 8814,
    "aunt</w>": 8815,
    "ke's</w>": 8816,
    "faint</w>": 8817,
    "liver</w>": 8818,
    "camper</w>": 8819,
    "icially</w>": 8820,
    "hundreds</w>": 8821,
    "brilliant</w>": 8822,
    "fortune</w>": 8823,
    "tria</w>": 8824,
    "y'": 8825,
    "ones": 8826,
    "enchilada</w>": 8827,
    "doctors</w>": 8828,
    "voo": 8829,
    "functions</w>": 8830,
    "mildly</w>": 8831,
    "flex</w>": 8832,
    "arthritis</w>": 8833,
    "properties</w>": 8834,
    "hhh</w>": 8835,
    "toi": 8836,
    "web</w>": 8837,
    "markets</w>": 8838,
    "forge": 8839,
    "deduc": 8840,
    "replied</w>": 8841,
    "industri": 8842,
    "treasure</w>": 8843,
    "warmed</w>": 8844,
    "andre": 8845,
    "colom": 8846,
    "collec": 8847,
    "squid</w>": 8848,
    "affect</w>": 8849,
    "guns</w>": 8850,
    "partially</w>": 8851,
    "jit": 8852,
    "tf</w>": 8853,
    "brim</w>": 8854,
    "bump</w>": 8855,
    "windy</w>": 8856,
    "kis": 8857,
    "pisto": 8858,
    "seam</w>": 8859,
    "sewn</w>": 8860,
    "lions</w>": 8861,
    "trout</w>": 8862,
    "colum": 8863,
    "counts</w>": 8864,
    "jobs</w>": 8865,
    "ew</w>": 8866,
    "rule</w>": 8867,
    "repeatedly</w>": 8868,
    "gracious</w>": 8869,
    "scallop</w>": 8870,
    "jumped</w>": 8871,
    "had": 8872,
    "approached</w>": 8873,
    "voodoo</w>": 8874,
    "neck": 8875,
    "frizzy</w>": 8876,
    "eness</w>": 8877,
    "pregnant</w>": 8878,
    "thoughtful</w>": 8879,
    "stating</w>": 8880,
    "trunk</w>": 8881,
    "exquis": 8882,
    "ignore</w>": 8883,
    "una</w>": 8884,
    "automatically</w>": 8885,
    "ram</w>": 8886,
    "evenings</w>": 8887,
    "static</w>": 8888,
    "veness</w>": 8889,
    "trailer</w>": 8890,
    "midnight</w>": 8891,
    "ponytail</w>": 8892,
    "baklava</w>": 8893,
    "ribb": 8894,
    "sugars</w>": 8895,
    "imagin": 8896,
    "zucchini</w>": 8897,
    "snack": 8898,
    "hilar": 8899,
    "freshest</w>": 8900,
    "dred</w>": 8901,
    "consuming</w>": 8902,
    "wound</w>": 8903,
    "cole": 8904,
    "rash</w>": 8905,
    "stretches</w>": 8906,
    "adjusting</w>": 8907,
    "potassium</w>": 8908,
    "glori": 8909,
    "dealer</w>": 8910,
    "rugged</w>": 8911,
    "screaming</w>": 8912,
    "ffe</w>": 8913,
    "tempted</w>": 8914,
    "sole": 8915,
    "cancelled</w>": 8916,
    "artwork</w>": 8917,
    "professionalism</w>": 8918,
    "death</w>": 8919,
    "marrio": 8920,
    "paradise</w>": 8921,
    "tourist": 8922,
    "real": 8923,
    "bam": 8924,
    "liquids</w>": 8925,
    "he'd</w>": 8926,
    "dresser</w>": 8927,
    "increased</w>": 8928,
    "greeting</w>": 8929,
    "pate</w>": 8930,
    "separated</w>": 8931,
    "wax": 8932,
    "mates</w>": 8933,
    "irritating</w>": 8934,
    "agent</w>": 8935,
    "mic</w>": 8936,
    "heats</w>": 8937,
    "oxid": 8938,
    "tummy</w>": 8939,
    "dal": 8940,
    "sole</w>": 8941,
    "stations</w>": 8942,
    "dig": 8943,
    "mption</w>": 8944,
    "apple": 8945,
    "aaa</w>": 8946,
    "puppies</w>": 8947,
    "enthusiastic</w>": 8948,
    "dripping</w>": 8949,
    "atures</w>": 8950,
    "sively</w>": 8951,
    "branch</w>": 8952,
    "lane</w>": 8953,
    "wonton</w>": 8954,
    "drunken</w>": 8955,
    "bee</w>": 8956,
    "preparing</w>": 8957,
    "scratches</w>": 8958,
    "india</w>": 8959,
    "carib": 8960,
    "tour": 8961,
    "trial</w>": 8962,
    "transl": 8963,
    "loading</w>": 8964,
    "rement</w>": 8965,
    "dumbbells</w>": 8966,
    "snapped</w>": 8967,
    "eyelash</w>": 8968,
    "sponges</w>": 8969,
    "indiana</w>": 8970,
    "fallen</w>": 8971,
    "enta</w>": 8972,
    "pistachios</w>": 8973,
    "iding</w>": 8974,
    "elbow</w>": 8975,
    "supple": 8976,
    "candle</w>": 8977,
    "lackluster</w>": 8978,
    "encourage</w>": 8979,
    "mo's</w>": 8980,
    "atory</w>": 8981,
    "haun": 8982,
    "nou": 8983,
    "mobile</w>": 8984,
    "lock": 8985,
    "spoon": 8986,
    "pico</w>": 8987,
    "chances</w>": 8988,
    "dynasty</w>": 8989,
    "pane": 8990,
    "store": 8991,
    "developed</w>": 8992,
    "flawless</w>": 8993,
    "virtually</w>": 8994,
    "counting</w>": 8995,
    "license</w>": 8996,
    "ww": 8997,
    "gritty</w>": 8998,
    "tradition</w>": 8999,
    "discounts</w>": 9000,
    "enced</w>": 9001,
    "addicting</w>": 9002,
    "liest</w>": 9003,
    "skate": 9004,
    "cashew</w>": 9005,
    "rubbed</w>": 9006,
    "brief</w>": 9007,
    "plantains</w>": 9008,
    "remained</w>": 9009,
    "rott": 9010,
    "corned</w>": 9011,
    "bowling</w>": 9012,
    "sings</w>": 9013,
    "anci": 9014,
    "prone</w>": 9015,
    "tracker</w>": 9016,
    "shout</w>": 9017,
    "expectation</w>": 9018,
    "disappoints</w>": 9019,
    "patron</w>": 9020,
    "mari": 9021,
    "customize</w>": 9022,
    "suited</w>": 9023,
    "heat": 9024,
    "it'd</w>": 9025,
    "demic</w>": 9026,
    "loosen</w>": 9027,
    "repl": 9028,
    "gover</w>": 9029,
    "neighbor</w>": 9030,
    "dier</w>": 9031,
    "additives</w>": 9032,
    "cycling</w>": 9033,
    "bottomless</w>": 9034,
    "powders</w>": 9035,
    "ide</w>": 9036,
    "sudd": 9037,
    "accepted</w>": 9038,
    "cigare": 9039,
    "net": 9040,
    "existent</w>": 9041,
    "cut": 9042,
    "ps": 9043,
    "aster</w>": 9044,
    "stout</w>": 9045,
    "hundred</w>": 9046,
    "passion": 9047,
    "showers</w>": 9048,
    "diffuser</w>": 9049,
    "audi": 9050,
    "straight": 9051,
    "ather</w>": 9052,
    "avenue</w>": 9053,
    "summary</w>": 9054,
    "pher": 9055,
    "mcdonald's</w>": 9056,
    "langu": 9057,
    "miserable</w>": 9058,
    "reflect</w>": 9059,
    "luxurious</w>": 9060,
    "acidic</w>": 9061,
    "pralines</w>": 9062,
    "refined</w>": 9063,
    "retri": 9064,
    "lowest</w>": 9065,
    "kindly</w>": 9066,
    "hotter</w>": 9067,
    "empan": 9068,
    "finest</w>": 9069,
    "metall": 9070,
    "supplement</w>": 9071,
    "kevin</w>": 9072,
    "laughing</w>": 9073,
    "primary</w>": 9074,
    "terminal</w>": 9075,
    "suddenly</w>": 9076,
    "bi</w>": 9077,
    "aled</w>": 9078,
    "moderate</w>": 9079,
    "fireplace</w>": 9080,
    "attending</w>": 9081,
    "concentrate</w>": 9082,
    "hubs</w>": 9083,
    "aler": 9084,
    "deeper</w>": 9085,
    "hydrating</w>": 9086,
    "slower</w>": 9087,
    "indulge</w>": 9088,
    "kinks</w>": 9089,
    "ah": 9090,
    "randomly</w>": 9091,
    "outo": 9092,
    "achieve</w>": 9093,
    "dealt</w>": 9094,
    "outrageous</w>": 9095,
    "mayon": 9096,
    "dist": 9097,
    "fired</w>": 9098,
    "pushy</w>": 9099,
    "shack</w>": 9100,
    "family": 9101,
    "circu": 9102,
    "weighted</w>": 9103,
    "flowing</w>": 9104,
    "esthe</w>": 9105,
    "chart</w>": 9106,
    "disc</w>": 9107,
    "ley": 9108,
    "hawaiian</w>": 9109,
    "cler": 9110,
    "maid</w>": 9111,
    "design": 9112,
    "tavern</w>": 9113,
    "walk": 9114,
    "asing</w>": 9115,
    "entre</w>": 9116,
    "melting</w>": 9117,
    "cious</w>": 9118,
    "marriott</w>": 9119,
    "stretched</w>": 9120,
    "breathe</w>": 9121,
    "lures</w>": 9122,
    "ein</w>": 9123,
    "questionable</w>": 9124,
    "stas</w>": 9125,
    "drizzle</w>": 9126,
    "ripe</w>": 9127,
    "beads</w>": 9128,
    "sunset</w>": 9129,
[...]
